memory_initialization_radix = 16;
memory_initialization_vector = 
; conv1 (3, 3, 1, 16)
;   output 0
05C80FEEFE73FD790257E8AD09A40D0E0D67,
;   output 1
141EFCE8C86D1883075ADDA00B31FB12E70A,
;   output 2
EA21D929DA490C3208ADE77C108723311732,
;   output 3
0BE70DEB12D20C76FBF805EA12000F0E1264,
;   output 4
F44F28E314E4CC26F8CF2340F289BD58DAFA,
;   output 5
C31BD8130B2BE304EC5200849A9BDC1E0BE3,
;   output 6
DDF4E3FEC822E88B03DEF372FC8AFEA805D0,
;   output 7
D2EBF7EE14DBE7FAF6C31417D3CDF52314EF,
;   output 8
17ECDB6823BE1775E5341456FCF7F817E9CA,
;   output 9
E118FA3D2552DC78126F0D9A01BB0837F8FC,
;   output 10
0786F96C04E2148E14A6095DF1BBF0EE0E7F,
;   output 11
E6ABC33F01C920D3EED2C6D1242116A1E04A,
;   output 12
FA110D75FD4FFC1A0736FB7BF2F7106000BF,
;   output 13
22D121DD0BE203BAF9E9D492D819CAF0F25D,
;   output 14
F33ABAAEDEDBC6250072142EE04221052A45,
;   output 15
DB03DDFEFF5DF7450D0B167610081CC1EE60,
; conv2 (3, 3, 16, 32)
;   output 0
FF9CE02FE16FF9A5F753F3DF078C11930094,
1ABD0DEF02280250E453C145FD04FECDF284,
D72CDB5D0AF6F0AF183B208600C715281B4D,
EF9DE896F2AFF8BB036D062E0958106D14E3,
008028D4194AFB95FAD3EF31F67715C90610,
106315D1FADFFAA4EFDDE181151B0B27FD67,
0DFE0794FBE40833F282F7FD1D350DB61DE8,
208711C3F2710441DEFBD9190BA9DFB9F2AF,
04D105ABFC60E3C8EB94EFFBF9CFFAF6FA2D,
0EAE18140993022EE342F85B0F53F283F6D5,
E513F0C0F697E517E02FF805F2B8018E1AD3,
194D05EFC67B00D8E835E0EEF08F01AFF524,
0234EAC3F34DF8CEE51DEC5F09960D2C0875,
DB04E76D2452FFA3159A0DE9E9AA111F00AB,
0F4AE5D7F7AEFBEE0E77062B1BA80E7A155A,
C93DDEB7E232F93A00B41085F34411460A24,
;   output 1
FB3DF56503BAE2F0E191FB4DE2D1E737F9BF,
EF40DC7617FBE713E9670525DD55F78005C7,
FF37FED705FBF5A8B9110642F546D855D346,
17E606210880F422FAB8F9F3F70EF35F001A,
ED310181292AC6D5F51F09F5DEB6F80C18B5,
FF7410A01D79DCFDFCC70F95EA3C0AF914E9,
F8AA181EFFAFE95D0551EF8AE9421183FE35,
0B3C07D61C16CE9501D21ACEBFC10970141A,
FC63FF490279EB47EC35F89FE69EEF8B0B6A,
0B6D09431E3FE47D00DB0FFAD546067816F1,
E965E9C70F94E9DCF4F404FAE7BAF3B614E3,
F64DFCC419AAF0E5F8E11732F7D311ACF031,
EFCF04FB0BC8FA1EEA98F550F7B5EC60FCF1,
17380E56FA2F04AFD98DF815085BDD7E021D,
DEAFEF7DE9669CBDEF11F1520131E7A812A0,
FBD8BE58E79D0714CC08E265F819FADDF7F1,
;   output 2
0D0FFE09EC08FD5809B7FA07D4A0FBFC0569,
F9C602A7FF79ED9D0632F80DECCA044FF66F,
254E10980CE310F41B240A39F806E5F007DC,
FA06E3ADE63EF157EC71FB79E23EF4270287,
16581B280A9213F2258534D2EC580D7700D2,
EF24FBB40D25F88DCDACE27DF6F30F63F662,
17B310B11A6EFDFEFBB4F36E1622E20CF571,
F4740139156708EEF5E4D6CAE78211A1055C,
DAB7D62CC45B1A6D066EEB52FE4E0A3E0027,
D733DA77DC5A0794EE420BD8FECC16F60F2B,
1518F762F20409011D700218DC320B2D1BA8,
1B8425A3024203F320680B02F125F047FD9A,
FA4EE74BF51A11530F54FF13E62112DA129A,
F2F517DE1FB313A1E645E8EC0031098FEDE2,
D718EBBAFBC8D8C6D9FEEB1B0DD4D812EB55,
FBB8049FF35BEC32EFE90F931416E67DFE28,
;   output 3
DB5EB4B7CFC3DFF9FB9DFF3E0478146BFD0A,
DA91C85CE087DEDBEDAF1CFAF7B0254217E9,
ED4F2A552810F3760B650393F96E075FF23F,
F902D484EBAAF336067BEDB8080913B4FED4,
F573DE5B1FE6DE92FA5ECBB5FB3313B0E299,
FCF2F84CF5F6FD6CFEE6FCC11A7C041005B7,
FED808B408000F20164E0A97056B0B590EC7,
DFE5E582C70B06A80137ED8E25571F94061D,
E6DDEF4FAFCBD20FEF27CBD1DE9C2381FE55,
C8E9AC1BADD71107E66AD0E816DB0B2FF1D0,
D7FDED84DD71D82CEC1FDA32FD2002F30340,
E26EF64B4404EA5D0C2D365AE0B62274FFDC,
DF0AC9FADC27FC25FF96F8F91AAF0C0FFC52,
1F344A932373EFB6C761E2B1E8B610C6F1FA,
152F184DD61C2684096BC4312DB60F92EF25,
F7B815E71C7104040EFBF68408150A27F3F8,
;   output 4
E3D7CE84D90CDCA5F765011F00D10A9F1097,
0C81E60AD1FCECE5DE5515761D8217BF1B0A,
11FCE8AC2723F672F98B16AAF3F90014043A,
F740E8F0EF41D3D610C10BECFD590D9502B7,
1C3AE877D1C9DDE1D3510E9CE03B13A00489,
E492D7ADD4CE0E7E068704FF0F3511690A7B,
E365DE0BFF960C7D08CE1E630CEDFED7049B,
FF07DF25E62E0DCA014E04810ACF19500037,
F09CE224CDA0C93FD50AFEB6BB6DE4500A1D,
FEE2E35BF28DE5A601C21527046C14F80699,
F2ECD170F35FD129F9B6104BEDB60927FE5D,
15B7C432F1F80D2BE302DDEE0B95FAE10C5C,
F710CA78E2EFF2260CA008EA127F1BBB0E42,
F70805EF2E64F878E234293D0961EDD20988,
DBA5F9B91DD3F82C06BE15F2F7EE0E3E18E5,
EBB9CE8A1409FFB5F93D18E9035EFDCAFE32,
;   output 5
06A80A7A04A5E775ED45F226DCD8BF50DFAC,
03EB2BA309FCFAAEED5EF64E0960C68EF7D6,
ECFFFB8B0751FB9007C6F97FFDE10D95EBC4,
FE08FA240198DB86E2F40D49E332F734F4AB,
03540A632536226A19E8F5520CC9F29FE50B,
0F9FF872EBC30528DC5CF3B0003201461474,
FCA7FB3803C3EA26D0FDF45A0F6519701A71,
11280E29F7721468E420F098F214E0E10946,
09ED10861B4F05F217190331E95CCCE3D6ED,
05EB156C0580F7E0F9C0FC55E9E8F393FB1A,
10780F811281F2950702142CD603F129F39F,
F6F70ED5F93D1A5CEBE0F95E0FF50E3B02C5,
14271E5D15E4FD4C0819ECA1E3B3D1C0EF3F,
FD01FE65106DEC331DC91C7DE02C23D71E31,
F4683C6F0D0BD327F1920572081C1C6C0ED4,
EB2C03A10558C8D0E54107FEF36F23D11016,
;   output 6
0B0CF513F4DD187807581367F73C0B8A0B9C,
0DC90193033F09B9EEEA0EB6E094EC8EE522,
00C0F4F7EA8EEF99093A0F380C121FB22C3E,
0807FA78EBFC1C0A0EB60D6409C60CFB1A78,
01C50FD20631010D15672B3915D40C5F1F99,
0632F5C9F27CF405C96DDE81F744D725CF50,
EC31DA7AFBC6E15AE4B9021300A1F00BFAB2,
122A0E2B103D01AEEFE4FCC2FD2EE972BE7C,
1912168406F2084FF0B0F3D50F2FF290EC7C,
03D1165918B5EF03EB3110D7F893EB42F6A8,
09CDF65702940FB504B803361D37174A29AD,
18FAFB070C46F0B4F8AD0048093C1F0CF9B0,
F96DF8B805EFFE26FA7E0EC6044B0DE7030C,
CEA50C990383DE39F03108A1F696F591FBE3,
E999EF50EA44C5E0C901F750DD6FC103DC2C,
F65DFB730B79D6A1EFC4F6FBCC77EE2DF878,
;   output 7
FD1C0D67FD4FE7270CC8EED1E6040E13FDF7,
E5C317CE1F0FEA64082E12140C3005C62489,
D2F902C0FAD3D0F30C73F7BA00C802B6FE5E,
FA3FF4D6DF08EAE8ED0DC8F5EF86EE55E059,
053303BFD4F8FDC40BF1B358F4590B61DB2A,
0EDC0A4AEC5B07230172FC510EA305D8EC57,
0812E075FC3C04D6C90D06BD0102DB760BD8,
085919D1E0BD05AF0534C88A07341153FB79,
F356F649F3C7EA10F3FAF421F10FEB3EEE6D,
111519C1E4EF0FDF07CDBDE4F1D61006E32C,
F3D90007EF5AF36AFB7BEE71FB8B0085E583,
DDCB11160EEDFD800B9D157A27C9080A1DF9,
0A0913C8E61700001306DCFD01AD10E5FA57,
F706FD8C1805F1C00E33FD9AD0DDE50D0B79,
F50012F8D70BF2881B28E001E5BB061900AF,
E42EF6A5E444D9D908D3F710ECD7F727F0EA,
;   output 8
E813116CE766FFF8F075E5D411AAF9FEFCA7,
ED2F1C5D3B800F9708C4FA5B1702F4E7EB64,
0BDEF8D6C5001105EF3F0293FC56F76412C9,
FBC701FFD13A07ECF5A1EC280AAEF7C30D9F,
FB54F09FA134E27EB2EAE29DDCDFC7D1FFF3,
06A208281348F6D60A21069EF3FE00D80158,
F62AE4630B59E6F6FC68026EE0B5FA7EFCB0,
F74510AAFB7A03D30EC30FB604FEF97F133D,
0141F4D7FB89E428F854F046E341F37900F6,
0C690E2CE39B0A2D1BCE0BB7FD37F2970C29,
FDE800A8E67306BDFFA1EBE3095CDD7C03B6,
F0BD10CFEFD0FC23E77FC86F056DF2ECFD43,
0D2A0C7BD38B0B66E7A9EDA1F1A2DFBF0299,
E97F2186F53D1C051C62DDD921590400155E,
11A5178019021F4AFC670FA50E61FA352A3B,
19AC043DB6F923150DBCFC1B0E24F9E8147F,
;   output 9
FB01F1AFDE8D08F50295043520C81AA20229,
00A9F4BED5AD0E52F6FEFFD624561A65101B,
16C80AB503CD1A000CE7DD8D07CE0711F253,
F9D50E95D5B407910C400F712C6C1D5B16B8,
0EF60C22C5D1210DEEDDD47E19510D88CA98,
F6AD07CED49AFDCC045FE37E1EC304531710,
0DCC0C31DC6A0F8713EEED31F312FE56F249,
FFE2F748B4E10EE3E7B0E71D14642CD90F14,
D39AF2C2AFDFFB1EEB21D604FF02EA0ED16E,
F417A3E3917AF123C28DBF7F016D0302FD64,
03B8EF89B31D11910A4CF0EC177CEA48D014,
0B17F9C1E4A518DB0995F686360218E0F6B3,
F017E04ADD82095F02C3DBB7170914FDF7EE,
F1C5F1A2D8E50288DCFDD4E5DB33D41FC326,
E842D167F3DB08DDD6ABCEBA0C73ED73071C,
FC96F72BFA611150F734DDA6F251EC8AF77F,
;   output 10
059EF57AF1D402AF0201D913EFDACDE7D13F,
F32BD9C4E890E5B102FBF5E8133B0EFFD5D7,
F2FB160F1EA808480C450AD8F3D1D5A3CEC1,
00E1DC6EF01AFE15DE2FF02ED401C5D7F58F,
E912DFFBFEF6E393FE6C0BD307ECEE27FDF2,
01C0FC47D6920D80F913B8D0013F0081E2A0,
18B42693F924181EFB00E36BE379FFC2D4EC,
F810E29DE6AA02F0FE8FE33820F1E983073B,
05E1F3301EDE0E39081C13EF0200105AEBB6,
00A9EB70F7D7ED5EF55F0306F09BE7DB010B,
F7D1F50A09220E4E12DB0C4E12DCF05BF5E7,
DF99F848F0B1F33406C4010F05B716A7B65E,
F265EE46EEEE003E0C2DF16F0E28DCBEE91A,
F0EF045513A60B0B1A4118761C1515D8F7E7,
03291028162304380CEAF5911320141318DC,
F38111881610FF1705DC0B5EE90BFD07F8CC,
;   output 11
E8C6BF9AD03CED12FB94FC3C088B0589F34B,
069AC000E6361F4FFF8E338B083320362047,
F04204390E9BE2340E7F0FB9F45906DCF4B5,
E5D0CF87C244D787CC45C36FE7D2DCE4D811,
EAB7D15D1339E5AD00FF3F800222232EF314,
EF43FB830276F47B09BFCE1FF34E1567C792,
E864142F1996F22A163E06FFE689EFFBF67B,
EB93E8B8E4F909EC19B1045F0301290A0C5B,
EA97E0E5EC00E6C8FB91246DE43F11CB0627,
FBD9ED42EF3408BC0FCEF630033B2340063C,
EB03F928F683E67A103E0ACBFEA111680A9E,
FE01DBCEFE8805CDE064367E06A609DC18F9,
0BCCCF01E5C912CB10DC02B8148F0BD5EF5B,
063B262C216AE3F6FC9F12DEE14A08C504C4,
1AAAFEF0F42AF39D24B1F532DFE101000235,
05E50C8F0B9AEDDA03440921EB8AF4BBF4B1,
;   output 12
0EAAFBF6E5B904FDFBCEF85C201B12620752,
0D9EFAF3EACB219203B5F6451B72FA930030,
EE2EE1A01D80D6A8F0A60D22FE1E070D0975,
0001E2A2F7D7E690EA72F37C05B006950184,
F067F55E0634FAADF675F60802C80DCCD99C,
05D6EB5F0F6B04B7D752F2801544E88DFBBD,
EBF6DB5A1BD7A9FDD05B0FE4C903DEB51D25,
03230EC6EEA0FED410D9D6991A301BBBD9F4,
095B13050E8E2849009407CD10DB04EB0C19,
061405EB00CC128610EB1C4C1782080FFF92,
1325065F0B2113CEF77AE8FD149901350363,
E7EBF6FCF3CDFEEE0748F94D17AC062CED78,
0728F1E8FAF60A160471F6D1198806F6EA60,
E68301C71C93E7B0C62F204DED4BD6681A1D,
F2B2FFE80B30ECBAE12E2565E66CE40713CB,
FF6FFFA6154E03DBDCD5136FDEB4F9051BAA,
;   output 13
0C8610430D4F046E0C0E0A9BFD9805A203D5,
EE2EF29000BACE49F35DFD92F053EBD6072B,
0DEBFDF4FB5CFB7CE6F4000DFA24E97B0B42,
10EE22401D0B113E23B015E7FFE5101B08B0,
162F0F55B950FD8DE4E1EB5A06BFF8D9EDA3,
F88EE8C80557ECFDF9F8EA23E4F5EEE5EFB7,
E75EEA8DFF620426D4ABE759DF34F60CE627,
FE2DEDEDF895EAEBDAC8E849EB20F114F3CE,
0719F802F049FA62FF5E0CA607F007B01A35,
FFB6083BF0F8FFFAEB9FCD0A02EDFD9DF51E,
10EC0FAE09A4085811F80B510C7808C712EF,
FF2B03431077D70BE807FE14CC81CD050937,
01FCFFC2047B05880838FCC1F95E00270096,
0E7EEB17EE6F008EE252E8640E07FDEBF3D2,
F459EC14EAF60E56F9BADFF80CB5DD82F621,
0C5B06A5F56D191EF033D5A9156F0A93D589,
;   output 14
F425EC190A0E03DCF2AB05AC05E2096009A5,
FF6B0CAC1B9AFD40FD21214AE8FE01D717D2,
03FBE2ED08F80BEEF2AAF1AA1E1A0EB8F9B4,
E4EEF7860075FFABFD72FB0F01E11117152F,
022B14B1112F33A41873051C28BCFDEBEA83,
F38407A2130FC3CEF47603CFDD51C376EE61,
FD03F5AE0B37E7CEFEA9131DD732E2EFEE53,
F68613F01E4AFF58FE911E4A1840DC1E057C,
F017001AE715FAA800BF0A9DEEEA066CF2DE,
E0E719240875E816066017EF0159F3271CA0,
F5F3046208CC111BEF35F5200D3E030CFAFC,
0E3005F013B31C60FB1900AC2664E681EACA,
D22FFDC40A3FFB42F97F06FD1A10041BFEA2,
C635DD630975D282CCCEFC0EE0A50B0420D7,
B341ED280BE6CF0CF0CE1340D5F1FB2B222F,
EC79EF44E8A8F16DFBE902E1E9810E171E21,
;   output 15
F1D0145912710007FBF20D7AFEE200F3047E,
115B02BF0E6A2314FE04ED2B1EAAF892FB25,
E715E50B0E9CD51DA6C3DFEEE8B2C74DD2C0,
F6BC14200E7BE0EA0E771859FF2B0A5D192C,
055B02A80A7AFD3FFEF3121ADB520C4D18E4,
F6E20EA20311ED24F11B0DE8F3E705AEFBD7,
E42C0101C0FDE601EADFD661EEF0FEF6F100,
07B8113E0AF0034105480951FCBE0AAC03E4,
F91FFB750269FC74F23CF498FC1B007BF7F2,
142D125300E5F5EB0984F6D3F91511310ABE,
F30A032C0A7DE57008931171F27B0D0412CB,
24480B460A370968C7D5F57508A00440FD6B,
FB4116BFFF71E7260E5B01B7E882FD4F0CDF,
F767EEC5021BC180D83A001CD94DD4F60036,
D20DEB9EFC89DCA4F88DDE96F6F1EF739D2E,
ED6BE208FD94C13AEB9CEC9CE49FFF01C5F2,
;   output 16
147401A10B8B106C008F06310882F152DAAB,
1E4E0328F8E40509DCFA0895F3EDFF75FD25,
DB53E706FF6AFC91102E0C831F3A10E5F44F,
1156FE0DF5131120095F006016EEF2A1DB51,
FFA8D7B6BF370FDC0636D084066CF619E677,
0ABAED5EF089FEA0E685A71602DBF30FEE15,
ED4AF24408B8EA53009BE2660BB9F383FF00,
1530F93BE7970EFAEEA8C7EA0B12D05EE91C,
FC64F66201B2F574FE490FBD053218CF04A0,
212D0E841553F809F930052CE291D8571A1E,
FB03E8FBF66705530FBE213B0E2D0F640446,
1356F97FC9A713CBDA4FEE91ED80DD61CC4C,
0FB8FADFFEB30B30F4FB04411010ECA8F40D,
E001EE75FAA5ED540A97270D006135561A35,
0D10DEB60FF5E2CCFC6E1FA6E715F6FE2320,
FB1BE718118EE001027D1B4DE10906D81E97,
;   output 17
ED32E487E49B034A038508480EB0072211AB,
EA59EB9CF214EF71FEF41A100DA907710D35,
F6EA0334FA2B1E7D12B807950F51EE7FF64A,
FAA6E7C0E9BFF838F73C0136FFFCF8D40655,
E5BCE1E90040F8D2FA5815CFE6B5EEB602D4,
E89DEBE1FF5CEAA1CFBAF504F6F9D150033D,
0BF4FC45FC3316B903DA09FAF06FF0180B80,
EAECDB000408EFC3BD9302C5FDEC048A074C,
0341F9A9F94B02E10A6EF61D1E920FD9100C,
FBDBCDDFFFD4E245D635E66DF41D0BD4053E,
F595F11CFB1B103E2324093C0FD81A071543,
CD26D918FE45F44D09F12C3E0F32ED78F6B3,
D836C60BF4DFF9A619EA126E0DF51167132D,
28042BCA0FB8E59DE0EDCA3B05DCF63CECA7,
086BF3DE00150E61FC6EDFFEF099E9331001,
0F9A1696037F1E6F1874FE2F063FE908EC96,
;   output 18
0D1D0BE4FAF2173DF8F40091020DF3C906E1,
2A910C11E6AD1C30089800650155FA30DBD7,
FD3DE9C1BAE9FA6DC971BC78EFBFD24EDFA9,
19C90146FDCC065EEA2EFCCFF29600A10694,
FC2CFA5AFB560F80E88801860382E07613A1,
15B2E35A08B60232F0CFFEA2FFAA096FFD9C,
F92BF157F928CF37FA94F46CF931074E0045,
0F7FFEA009DF206AFEFE099C0174F7F206DE,
0CDCEF7E02C714BD0281EA52076501F90678,
F68DF478F897124210A20BF904C213370A0B,
1515F807F872142701C901041E2A02BC051A,
1A9F007DF74B1021092DDFD5F085EE19EE95,
FF6F05AC086A06DEFDDF021502F6EBFB076C,
EEF9009F0FD4EE5BFCC4C47B2682F9D9E8EF,
C9B3099AFC1C03431B0601B0FF5BD024F31D,
C9B4C89EDAA4D6ABBFF2E088E989D471DB49,
;   output 19
0C3F04D0FA9E1508F41CF02E02E3F31DF9A8,
EF27E2701A47274807A611C6203E14A211D8,
E889FF5D11EA87C3EB76EC0BDB16F4A9F6A9,
22B4175FEF27067AEF72E3B4EAD7DAD7F2BF,
EAC5F7862C40EDE30A8F2045F85F2355121E,
EEDA9647C7F2F202EDDDFF1AFD70F5F6FA4B,
E6FACC69D4F2D3EAE264E2A8DEBAC8A8D818,
FD4AC27405B1FB90FB6A1AC208420CBE1DAE,
FA0A128A00500C940D410EEE330A176B1432,
0735E19E0117FB79EE2D1C5C17C820CC273C,
028512431B1412CFE8AD0480FF37EFB8020F,
D1DCE23F170BE41D01F60CD2FB2BFFD21A73,
0B8DFA910788042AFB0D0CE8120C0D1D134E,
0819166F1CFBF94DF7B7FAA80563F24AED4D,
08A0DECBE04D0150DF82F65B0B23FE51FCA7,
0F4DEF110514E95EB9BB04990987F8920A25,
;   output 20
D15E044A07F8F345EDABD7390C1AFBC6C442,
02BEEA4A1909F2FCCAA0C71605B002B0174B,
EF30FE24392905E011A2434B12BAF0DBE343,
DF1323E0F879F5A000E407F60A120CFAE922,
F65521C314B010D4043209692F5FDC7FF5D5,
1B192217FA9F0F7D0A0A01FAFF37113BFB1F,
19271A7FFC64090113AE068404FC0B400680,
270E1D1D0733FA71F75B007BFFB4E488F0BD,
D6A7F73115F2E0B6EE2CF943F77BB3BBF234,
FF652130004CEB8AF01BF6D1EB0EA225ECB6,
D082FB910C38ED30DBBD12CA131C0075D921,
10940D39185D077FF2EAEF3F0B5108081CFA,
C07A0A3C1358B1A5CFF1F01200DC0EDDD481,
CC02E5BC2106DE5D044901D2EF7EB7D51584,
D7E4D6820BD1D062B0B6E1F0FF72B1F4C4C9,
D340C9F702EFF1CDE6C0D29F03A2EF31D713,
;   output 21
003BF90503B9E394F0270A2CED51FFDD1072,
14CF0781FEBB05D5E52FFFFCE06CFEDF0334,
13BD108EEF95088FFD1FF88E1035FACBF56F,
DD57F3F415F4E98D06C91B7204F3113D1E3E,
201A0D7D07C32BC91A6AF970FE02F9F4096A,
F990F0EC08DEEFEAF0AD0E54F744F881081D,
EBAEE528D72FE8A5DCAADEA1F153E99BE8E1,
0EA8F3560D1DFABB00D7FE5906D20A9B14BA,
F73F01E7E7CD1333F1E9F471F5C9DBB5FC51,
08D1FEC21B2C153EF9F7012B07971C5B1C4B,
F329F070ED59F7CC07390835FFC70112105B,
17E622B9DA08F508EE31ECD6DE0DF75EEE52,
004CFDDD076BF593FC77028BF9E5016908EE,
085BF00D042912BBF4CF0B2FF5670741FD2E,
1F1AFD23174FEF42E35011612500171F163A,
08EC1622054AEBF3F689FC81173F245909A2,
;   output 22
006BFD45DE88F69500B1ECE31C1B13881341,
0E101BC8FE1515941B7AF003FFE7FCB0F27B,
EC59FF19DC7CD44FF01C0055198E18CE35DB,
06CEEAF9DC67FD46007B019D0AC303010776,
EF53EEA88C1FEC1EF111DDB3E41925572309,
1EC0269BE13806081032CA7403620F43B4D8,
0FB11313E0480ED60BF6D3781E502011E38F,
1A3F15C1D2260F461848D2B4F668035FFFD6,
F9DCF92FF82EFDD7F458EEF3F9C30EB8F347,
0C75029AEF390C3D0BDDB4B0FDC609C9FD39,
FA67EE94DF3EF9C3EF5DDF82E16202440FCA,
09A40738F419F811FBC0124F107009850BDB,
FADB0445DF38F1D8F61CE32AF9F5FCBA1A96,
FCF4F8D5F110ECF0FC76CA74E87EE0AFD2E0,
19171D11D91D138614E4E747EDDDFF211243,
F3C2FB55EB10E391DA3BFA600DA8FB0C14C4,
;   output 23
EA9DEC3EEDC3019D06ADE05FE076E748C749,
FDA0FD12015606F80AD1105EE36FFFAFFF41,
41430F66FE2B18C00053E4EF087DF581CE6B,
DF7CE910E0450105FB3CEE45EE7CE5A7AE02,
28885614175212C7D279F0840934F3F9D894,
DC3AE4E1FC29CE72F4360F9904C4F77A12F8,
0D8AFECFF24EF51D0E43174FEB5FF8420CFD,
00A3ED2503BB03D3FBC82FC2FB45F1F9045B,
DFD2E213F4311506FBE5F2C4087CF07F03E7,
E2EAD84CD884FADBF3E91519E266E825D3E7,
0D7ADF1ADDDC18E7FDE4E2C7051DFDD3D6C1,
3DB5188E16341468113CF7BEF2A8FBA6F196,
D146F873EC6AF5D119A5EF56F293F58FD5D1,
E5B4F15EBA302978ECE2E1AF1FD41FE809D1,
FA43F1DFFD1F17870619F87DF749DD0FEFAE,
1700FF8EEB3C0B2DF6C3E99DFC14FF85D88C,
;   output 24
05B2FB90EC98FE9FFE4DF81413E509AF08E0,
0C611A2AE48E0BEB16C9006DF5B605241495,
07C91B25FED1F7570C4A0281FACDF8C6FB09,
F8BFE1A8EB1DEE8AE7E7DD8CFD03FE38F2EA,
22323C210A21132A1B05E992DF6AF9F3F8D2,
F5C3EE08FE5D0BE80DB8F56A06CB1089F442,
EF57F462FF29F287D7FDFE7604B3E582FA53,
F9250F62087B12FB2165EA04E7120AE4F12A,
19AFE87DEB390812076FF84FFBBBEBC6F3D9,
FF6BD9990A10122E05EBF6D8FD181482087A,
1F020DD3D5F1EEB70C83F5ABF1BD0063EA3C,
053E32B4FBF310C4277C0214EA62ED12FA25,
1A05EF99F16A0A0F0B1EF948F6380BB802B5,
03B5CE22E838E2A8C0A7009EF32CEC5912CF,
E17DEAE504D6EE91D3CA0D9B1179E43201D0,
E03AE8FBFE1A093FD814186B33DFF466054F,
;   output 25
BC15C55501E5C61ADD4A07B0A48FF852125F,
E8C2D827E121C56829192288A525E76740EF,
C0A0F2E8ED26E7DEDDA5E2A794C4CE1AD24F,
CA75DCAAF0C6D270F8ABFAD0C1C00EE60E94,
B761C732F57B1FA6E811ED142063F533DD48,
02A804270C0D00070B010D670340040C0E17,
FC030C13157906A6134518D500150D660210,
E73CEF741143EBEF02241BC2F57703D60EDE,
DC12C90EFA9CCCBCDA860130D009E1BCEDE3,
C2C2D40DFD67D599EFCD17ECF06EFC860ABE,
CE2EEE6CFAB7C0DBFC900138F14304EC04B8,
FB7F4A60E09BFC6632D1CE82CBC8CFE9D535,
B7E0D612F5D1BD5AF56D030EC8F5F026128A,
D74FC97AD3D909F02679CCB11361E2E8D3FF,
01B7F4530FAE0E46EBE51439E16BE4D00F12,
A7A7C83FF986D120CF0113D7B193E27203A6,
;   output 26
06820051FC6FF2E0FE9615000603FA0B0B39,
09C8116B18B4F0F203B01A09D1CACFAEEEF3,
EA8DEDF4EB1D0F1409B906BF2DF914A8FBF9,
F534F39AFAA8EE33F1BE094CF578FB741703,
0651F60814D4F075F568EF65F552E555FA23,
06CD17802040D85CEAA1F7DBACF5B514D739,
F561098D0B81F510F1BFF84619770E2B1AAF,
0E471DAC12BDE1F70F6A05A7C8EA850EC4D4,
21CE189519CAF9ECEB54E09F11F5F84A06E3,
0F240C6B1D75F3250B53064DE410E1FEFA29,
0C0103D10042F301F97CE9B50D771C12244D,
D37C12A316D2D8650764185F0408F6220930,
000B0D880538E104FE5304E5F927FD6D0F2C,
11C40519FF21EF8AE393E0FD1BCF23A906F4,
0D4B054AFA96F758DDFFE97F007E0226F430,
09A4EC30F373FF46FB4BE3FD153E051CF984,
;   output 27
04FF097FF05DEA8C001EF862C8C5B9CC96DC,
02030D9D0BCBF645FFD1FBCDD48DDF25EEB9,
19ED092BE0942283DD5DF7DD1BFDBFF9BB8F,
03F6057CF1E5FB78FEB61070CBC6C549B780,
04A00DACDCA0EA38F900E215BF3DDBAAD5C2,
E723FA8BFCAEE6BD1226FBDDFB7EF714D6F7,
EAC3ED3404DEF5B21488027F0AC7FC96DDDF,
11FE1AADD46DF133F931DA61E7AAFC88E66B,
15500F501597077DFCE7E6ABCD88E38EBE9C,
169812A0051AD7B3E4DC98AFB2108639B979,
1EBB152C009B27310FB6F4CAE9A8E2E2CBAC,
1DA7096DE67FFC08F5D5156012A0D44ECBC7,
FF6917FD04D8F0BBFAEAFAD1CF2AC4E9C67E,
260817DB13C8249AFA04F6631EFCF9F1D7FE,
21F612BABB542730A7ADF2A71350A68FCE54,
2722030A0152FF1DD058A6882A43DF0EB2EA,
;   output 28
E649EAF5F6B2F303FE72010112AF04A0D1F6,
06A0DBC702A5045A0961EEAF03EC0D88F6F1,
F8AA005D0BA2F29F0163E8F30E9BED0ABA8B,
F51DFDDA098E024E0228FDD607CCDDD4CCEE,
FB270D0FE440DEAAE50EE65FD41AC963CF70,
0240EE8AE93B0F420982ECDEF4B5E487EB1B,
0D6C0CBBE9551F0B2B56EC3FF6A1C5A5E2F3,
F4A2F285F04D0856026EE021F9B5F2A6D080,
09F4E6460DC4D4CCEFA92212F74D093402C7,
EFE9EEB2046B0CF41A560B071265106807D3,
FEEC06230442ECF0065D158BF01AFC16F75A,
FB05D029D8F1EB88BE43D57FDAD4B4DFC476,
EA0D00AA02B5F62D0664068B02B8F9C6E3A0,
087808D0EA50E7590E521BF1FDD9209410A9,
EEE8EED304AC033E22821B7114CE24A8FBD2,
D58DF7B509A6FD5F210606C1161D1192FCCC,
;   output 29
05BE2107F56CFC0313FAFC64F89B03B8EAEC,
201023690DEC14360129F6BB09080373F7CC,
BF6FBDB5C767E49EB23ED4C0AF57DD9FD97A,
18D4183BEA80F511FA85E4DE026CFABFEF80,
F58908A0AF9F070BF034A66FF8C7E1CED788,
079A0F94F35510B9F446E91C12D103D5EAB0,
064AEFCAF9CCF997F106E3B5FE240C9FEEA6,
0C0326BDD9560B4CE16CD73E027AD9BDDDBE,
16A2F43FFBF60F1A0834F04D048E0003F94A,
1D050E7CA03C12B70433B3250E06E836DC5B,
1607049DF295088DFBC3EC05196C0853ED21,
FF8FFB7D09AAEBFFEC03E92FCF44FA79F5E6,
0E211814B9120D5C09D2CED9FD88F74CBD66,
F5F9F2E5E339FD620F65ED9CFA1B14B50EE6,
016809FFAE3C010F0E28CC1DE5F9B190C409,
ECC3ECCFAFECEF12FC76C3D5FA60BC19DF48,
;   output 30
F27FF85E0A6FD10A0578168EE91A094B117E,
F4DCDBC9FC12E8A9F13C081B9A1112F7069A,
DCA6DF9FE32DDB8DEE5AECD0EC67ECADED5E,
F635015112C0EC8A0B8B0A2EFE1C1A3015F8,
EFFCEE05FC07D8CBEA9AF5DBF63A038FF897,
E4CF09941923E37A09A705DBF5A81AFC1558,
EC790BEF00BAE74903C6F3B0EBE2FE070270,
D47908961623FB7A05CB14EF029911271601,
D12BF405FAD3DB83E300EC85D65EE468FBBE,
AEFC0460184600A40CB5FE610B3613F20191,
DBF201E60BB5F1B5F9EDF402F0DA195407EC,
017CEA93FE82C524E7BCFF5CD484EAB70EA5,
F614FB89048CE6DE0BA2FE77FE1613F704A2,
F7E5F69DFAA8F489DFDF1183F6CCEA9C02F8,
0F3C10A20D97FE4809EB088CFF2C041BFEC8,
BEE211A712D0D6A504B201000007F7D9F3DF,
;   output 31
F3D6FF8AEE31CEC1E334FBB5FB8B074C0E2F,
CFCCFD810C34C3C8FE6CD66DDEDBF159DFF6,
F6BACC78188CECAAE45AFC12FB4D0A5405BB,
108A11C4ED52E0FFD1DF09FA107009D8F2C3,
DC60F223C4F0C981C600C701E5EFD8A2F7DA,
FF63150C052A0FB915240995139A1BC31054,
1BC724981A450C871A521024087C19340F96,
D194F5E8D9F413E31164EF7911162176EFF6,
F287FE4A00A9C066CECDBA78E3CD9C55F664,
E866D2BCA7B8B2798E93EBCAE39CEF45FF6B,
0A230A3AE043CE3BCCB6E725E99FF748E429,
CAADF1650D5EEDBC12FAD042F239FD49FBB9,
099412E9E95ECD56C032E0C1E0400C05F40B,
14621A471396F9C0EEB6D7BFF61EE61D0502,
C882C8D8D1C7EBBFDCAFF3A9F8450988F16B,
1124936618CC008EE77CFC59F6AAEED90862,
; conv3 (3, 3, 32, 64)
;   output 0
EED5DBA3020F11A5DF89EAA8259DDCD5E232,
0B46FB19249EF82C0DB31CC6E432FEBBFB34,
EC28FB14F26808CA0822F835FC3C04EFDC06,
FA95EBBCF825F052E941EA941FBC037E0CE4,
18A0F7D41674F3F3BB4AD459FC8704C6C836,
1DFB0B13FB231CD604A11DB60D13F571FDE2,
E369CE09F2260C6B03E00D05E91FF0A8E667,
09C30D52F9F41FA0105E1CF4F531DEC6FE52,
FEAF0DD90397E8AAF45119ADFB56D3BBDEE1,
1085FA44169710EF02FAE68BE521F39EF6C3,
06F0FF1306F802EBB603F90F0BD1D940E350,
F3AD95C0F9A8EBE2BAC8E937FA68F2FC00DD,
0D1EFA39F758FFD608BB1582DCFBE7E903DC,
1BA7F412FA6F19B1C35BF92607CDF189FA74,
0222FA49E1B2EE0E039E1E30FC85E7ADFC5A,
01B30C6D1A3904E815D9FBB2F333FE4B0056,
E9CFEBB20665078CEDF907292D16ED4FD5EB,
FA251021FC840A170EFBCFD51601FD64C041,
189B284E0EB6022B130517C2F996020BD0B5,
0C0C1BEE1207E24602B709D9038AE038E5F9,
002F02DC18021DA0F0BC0B32F4B6EA250EC6,
099E0441037504ABF0FFE47BFFA7F607F55B,
D5A9E466F733F8B3D6EBE74F0221B9E3D135,
13960B0E1FF91E5705F0EAE42ED4260AF53B,
0B2F08F6FBA404E9D937FB24EDAFD5AAF369,
061FDEC2EF62DE88ECFBE8B3DF56F4D908B9,
0018E8E3FDFD150BEF76F490286A0685E864,
13501E6EF72AF41BF038F6DD1DCFF9B40BEB,
0A29FF7FD0A9C94BCBA9E0E51772E2C2FBFC,
2E500A25DE12F1C9EB6E1790E923C3C4F27E,
18B6FBCD0371175000790916C786F5F8FA8B,
031A001A02F1E34FDDA4EA260E32EE020CFE,
;   output 1
0AE80F82ED01FF4F0432DB7503FAC8591895,
032CF0EDCF0CCE172C54D472E65103A6BE8C,
EB09E155E1ABEF3F0369FD01E252DECCD5E9,
ECA9F3F1F2DA0DF40B8709BBE37BFF39120B,
044DFE86E808F0B01A1AFCD803F7F3F6F491,
EB3A02D916BCFC2603A60E8F166FE63DC51E,
17181970FA94082CFD27F85605E1DD6C1404,
031F02A21185D7EDFC15FC87EA31FA7FF41E,
FACEEE24F8ECD299F4CBFAB1D429138621B7,
D450074506F3EC76141403DCBCBBE826D481,
DA62DCD0FA96FE63D831ED15028BDC5F0D09,
0B28073FF9E7134B1596236104C208F202AC,
2C20EC64B1F8EEB0EAD609F0F552074308AE,
EA630274EF8A0A471D3CCEBE1A5D1511DEC1,
FDB410D4DF97F16AEA83F872EE8CE4D5E446,
011BA630D79409F1091021F1F2D0F18B0955,
F624E6FFD70B1003D5DCDEA82FD9164AFE16,
CE970BF8FE2DF474111EFC7DDD8815C9D746,
0A3FD6B4DB64EDEE006A0ADBFE8617ABFE89,
D734FE5ED517FB1D0A68BF85FAFAEB44D42B,
EE17048522A2EF7B1A1818F4198AEAC80BD6,
F3C7E9B5ECA2FCD100F5E4F7298601FC0715,
0F36FAE3E8DA0B20FCBCEDE7B78FE3B2EE5B,
E43BB4FD0203F7FDFBB1184CF1C0165E1382,
0058D63E0583E0EAE3D92061AEA0F6C5FCE0,
F5BA0783F43EE848FCD6D6F7E5B80E7D018B,
D782133BF655DC65F9C6DC5AFD36F0D60887,
02E5F8D829C8E6ADD26A0FD3E517FF3E1145,
DF7D0416DDD8F35BFAD9DDB300481C7C0CAA,
090ADE38EFFBEFD3DF6DFAD80CEA1CFC0257,
15AAEBA0E1BFFFA206A405BBFE4D1C8E0A67,
0937F9D70EFC1710E3AEEC770520EBBDFEAD,
;   output 2
F02F122FB8BFEA11FF79CC68E8E4F7DC0615,
E6D011C315AAF150FBEF0D5FF14F0A06141A,
F23BCD72FAA2CA41AD7EC93DC824E248C1C2,
11F6FF3508890C64FCE1A5ACFFE5E5490BC4,
F243F33803EA115B0091EE3AF5F6E6F8CA31,
FAF5FE3CFC2E0624D913EF0FD020DDFD24C8,
E00E085106FA10883A5AFF8EFB59F2E5FB49,
D09EDA470263EE49F82CF70E078101C6F40C,
0C640378E6FBD749F08A0241C6BADF36E0D4,
F4BE02A2FE66D4ADF8DA108D0A9FD414E4AF,
0F35EE93DE30D09FE5C7DFF204AFE2AEF75F,
E4CEBB65F6C6F06E0364ED2EFF5203C9E5EF,
FD39F408FFE3056DF547005FE7F2F7440F90,
E4A30B6F1D9A02A513AD11D80159086BFBCA,
E5EDF90FF12DE72EF56AE001FFC4F8801130,
054D01970144040FF0E902410376EC53FFD4,
0A72D0D4FD3DDDB4FF1AD36EE4F105CB06A0,
E7692A002C5CDC50E19FD5F3E8FBFD57C2B2,
00B3F2B1F4A90E47049B040B03F008630F3F,
09DF13C5FB4DDDC5DE4F061FF66AEB580BFF,
0EB5FD3BF27B0A0AEA9FFE951855EF660FE5,
0B900E1EF719FA79FF0BD45714DAF03DD89E,
E101DBA0BC43DB28D2CA0A19F5D8E92ADCA1,
F498E4060894F2DAE7E1D32DFE6BBC97F33D,
E1A2E2B608E41C86215DF564E4C8046E1CF5,
16B3F92404A2165AF568EF921640FD06DAAC,
E2D7FC03C8D31670FE3DF9A9E4900B2F1321,
0A790D48E0D70AB6F50BDD05042FF9BEEE03,
0306E6ED1797DD140AF1F75C0F47DD94EF52,
FBBCC6340CF7F3AEDF450246FB96F6E7EF59,
D4040A540B5AFD46F6BB0B350778F3A4F571,
1EAB01FDE6CA128A03B4D5DD1E06FF1BF084,
;   output 3
DA6FFE58F4DCE936F13DFB92F648F505F193,
18EB0022FC95CD6D07A90455003B0849F883,
F355FB95012E00E5FEC50CC80308F25BE724,
147A1CF9132B1B4A12C719D4FBDAF78DF696,
F212F4160A62F6D215160FF8F5FBF64FFCFB,
FDE910B128A9EF7B0C22F5D513AD034504A6,
0963D4ED0EE9DDB2D6CE1768FC2D1C3FFCBE,
F42FFDDEEF5EFFE42DC50979F0ECF8F9F71F,
20690D3FFD3A2168F2F422EBFDFEE7BE11AD,
0D2EFF7AFCEB027306A30F54072FEC0B0C64,
E8F5E70B005EF956FAAEE3CE028512CA1208,
2B97240A45081DF32BA82CCEFAA4DDD914CF,
0427BE5FB681F4D3F0C200B5F18001E9F6A0,
16821965CFD8DF25F05502B301920E590E0D,
F340E7B2EB1E076DED90188FEE6C0BF1FFD5,
0CB9F9B9E57FE5B912472B41DE5A17E8F9AA,
0B1E341ADD75E474C3EF01FEDCA1E98C2B18,
F0020B150B2005C2F8B9FA6FFE5BF251096D,
F1A5DFBCF73324500F41F3CEFF001A43FAA0,
148DF36DDE0419D8BD51C0340D62DDA5F179,
FFC5FBAF0D62F7B8F37812AC01ADEB9A106D,
038E0184F1B2F0A30636F42DF3A005B20595,
EA89F7F5EF68E93E198A020DFF6FF6A00295,
07BC045912CD086FF6A3FFDC05E8FB7B0CA1,
FA12CEA1E54FEC3FFD7E0509F15DFCBCECEF,
1280E8E9F79AF0F6F050D78CE2B8F48DDF44,
E834E236EB31F3A0D828DEBCFB720B2F0C9E,
FEB2F30AF164F202BB9FEECD0CADF04713C8,
E187C3D1B078B38F0337EE12ECF0F7A00C3B,
E058003EDC6CFCECEA3BF88DE7DB2578E5CC,
1FF7D2EFED56E3FFEE38EA22E66AFD580CCC,
0606FD7603ABFC4EF33BF54F015FF8D0F39A,
;   output 4
0862070FF6F70C97DDD3D84FF8F5C6C4FE42,
FC2109EC3A0DEB8403EA0067FCEA0868E24F,
07A6E14509850BDDCFE7F53F10A5EAABF334,
F6A9E07CFB8CF862870BE4A4091CEF9AFC0A,
E2FCF95C00F9E79BF7860C5606DCD4B2ED39,
17AA06CF0652FBD8D535E1E60DEBF8A8FC39,
F43712C909B9E037F4D40DD1085101E0F61D,
17480A3A03E107EF010A01F9F489E84E1057,
CA490AFC14B7EB70027AFDC1F025EBD10B23,
D2AEED19F9D7E41BE13B0CA818D6EC7F07F0,
15F0080BE7701020E6DA0CECFA11EFB8EB2F,
07A00C3BEA3D14350634104CF1360885FBF3,
F6D416B70F2CE8280B4C09990979079200E4,
F2ACFAF508B3F3C50E0E02D214B30BE4FA77,
F36BF4560593092C0FB11572F56D0DD00489,
FD91024CF131E91E04E6F25AF3E2007E1056,
029AECBFD3BFDF88F94BF581D2E01998FB15,
22D8EEDAE647233DC030E8D42607D8ABE504,
E0D4F18EFFDBE204F1D4F888026C0C861532,
F5CE00CF0722EED2F3A8EC74FEF50646F21C,
E53BD55417F6F085AB1729B20BEDE30426D1,
FFE107070D5B196314DE1B291082068BD64E,
287CDD63E89810E2152500E1EB49E81F0121,
39F0FFB004272856F1E1FEA70DCDF0610F7D,
FF44D8A4ECFAE38BFF550EA80E4B04C5FC96,
F99AFF0C2D2CE280E7F418AEDB33E18502DA,
2337E28CE60D2D221688F073012B0760F0A4,
082AC1541CEDF006F843FB0B05BDF6C80627,
E20C0250FEBEE1D1EBD3F714F9F1E6C6C749,
DD8808F20A52F6A90252F0B5072C15C81BA7,
F8DE0F130165D5F0039E2D95DA291406FDC3,
0E68CAF3168203AD90BD1699E53AE67A2075,
;   output 5
E30DF36E01E2055503A3175A0E6B0179F6D7,
DEA40ABAC827072EED23D4C0F2FFDDA6CF9C,
198F18DDF69C137D0D3FE2DC016D2207E653,
0F330F9DFF5E1E7507FFFC7B00F526390C28,
FAC8045734F5F259E34EF92A065916C82116,
0134FB3EF06C0F4C0E1C07C414391626F5C9,
01B002D5EFBC17FF00E8D8A403A9F23DBEA9,
EF9C08751A3FE849CE74D4931CBFEB07F08C,
E78105EA0B8CEDFA0AEA1A70CE0FF6F20510,
FE4909F12D6CC8F9D819F6CA142BFCAFEE14,
0A6407E8E9F3F048058B12D5F8CBFEAA0AA0,
09321B57F3520F6A25C0DFEAEDDA14BAFA97,
FD03DFFAFB32099ED59AC9A3299CE7A0FBDD,
EF3F00490113FCCBFAA7D2D2FC310A00BE28,
EFDC11D5EE5DED1CFF33F6820468E70704DC,
F9FAFB14D5F30B4EDD3BD168FE68B735DCCF,
0798F55EF76BF22FF2A3142FF8B3EB77E6A2,
1AA00C5AEB2D121D1AB400610B241FABFE17,
CC5507390A6EFCC2F6A0075B10F4EFAC014E,
0D7C031CC398FC8FE486F05B07A212AAE7CC,
01DAE80706D70D9BE627DAD11166F7FCED36,
E98B087AFBB902BE0EE9F989FC39EFDF024E,
18AA07FDE740E558F58900FEFA21FCFAF9D6,
F753FAA60EBDEE5D035D0C5A0AE0029E27EE,
F6A0FB3224D0F279D0EFE75316F0FC7CD625,
D992DEB10E85E87BAC40F5480CB9F817F553,
EAEB00F6DE2EEA8707E6ED5E12850ACDEAEE,
006809B1020DF8C30B33122BD437E467E89A,
0B2F050A1243E08EF61AF94AED39D3B1007D,
1082FCBA143202380DC50F6E1C36EF7BEAB5,
ED03FC3D1514E80AEAE00F07F7BAE5661AD1,
EA4BF50505BFF11CF1B907D2003208A50BC8,
;   output 6
DDCF1790F86AB8F5FACC050EF305B95BEB51,
03010098F2760983F0DEFD7107E9F31CEFB2,
04C104E8E272FBF0F84D0720130E00D0FAF3,
D444FB9EF91CB252F370F23ACAC4C208034D,
E70812E6F4ACA04B049FE9E7CAC31C45FCDB,
DFBEED6DDC09DB3FEA81F10CF12CF6D80C0B,
1D6BFBF5231501C50C8E090301C81B661800,
0314DEF4CDD0FE1CFF390EB0FAC308220142,
18DEF39A0ADBD4B8E7DCF4D910E9FCD11A0C,
1E20F8E2E155046AF052DEE1000F169118AB,
EA8E1B2EF776D60C0E7004A7D59DF69EF1FB,
DF79FE0AF1B10A95F669E0FBED5909DAD88D,
1601F173FF81FC19FDD0F884F26F14E3180C,
FD93C66A07851D1AF5D4E32A00752A72EE52,
0F3126361AC4F008117FF7950BE10C520415,
0FA510D9FD40FA49EAA0138B0AF321B211F3,
0EA50A2F12EFDF1BFF7FF280D3FFB8F9DA0C,
11880374F658CD17F767FB5A1616FD9FE990,
F3D8D78D156107A4FE7BFD870B740F83FB1B,
FF5EE33106B814770A1FE1FCFD1113D5D5BB,
00DD0584040EF520ED6AEE6DF679F8930ED9,
0A5FED64236CE5F6E95E018D0955EEBA04AB,
F3ED0D2DEADE05BAE76605A1FA4AF1DCF5A8,
0139F00F03970AEA06FF057302A30DD5E69C,
ED77D249DD3905FDEC2CFDA81C650B2EEE6A,
0AEB002B00D8E8580E690AE6F8910CF8064B,
D559FE700C6FEC1EE250E7D22DE2DD760768,
DD81F9090D86C175077F0AB50ED7E3D50E84,
F0D70C1C0A3FF4BDFCE4009EE9F5FD64F2A0,
088804B80B06EF23E14AFEDF055C054A02BB,
FA8ED9340C6D0058EF21023AF9B72B970DF6,
FE7A078F118FD38F05CDFF36C33DF1F903FD,
;   output 7
FB8B15C5F223F77E09A0E694EE87C03AEEB3,
F44DF41FFBC7E501FC4F18E30612F4CC0755,
F81DDDB0EBA8DC04ED35F297FA8FD222FACA,
FCB3F45A0EE6DE8007C5F135B69CCAEB01A7,
01C40C81FD660746F9A200A0FBF712EA0420,
DE0ABC88E918CC33CE80F527E0EAC5BE0A83,
D11FDB10B7F0C023FF09F9250F01FB6D1F6A,
17051715FBEDFE8A08A904BFEEFDE89EE6EB,
02EC1BDEF77E307E0371E9BD0E490A03FE76,
0E2DFA49F7C51C66FBFAF9CB235BF7FB1DF2,
0ABFE2771224E4F3F8C7F7EE027C187CEA81,
0D59256F0635FAE1086AD395C646F13FECD4,
FF7A0FF1134AFCD70296FF39F751F2432213,
D714D9470886DD000A06E3B517A41B8CF484,
0AB6F7F30471E91403881563FD6606C9E6AF,
06491E19E7860B7F192816A30FFF19B2FC3D,
ED4A1A1AF5BEEF7AFDDBF27540CDF37010F6,
28DEF9E91432DACE03D7E494C538D927DAF2,
FCD90563F0D3E2F80D651EA11E2D26DF00D3,
DE15D11A105FE530019F0CCAF3DA24520A0C,
E7FBFEAB217FA0ABFB570449D4BDDBAD11A2,
14BDF2F7074224D30A29F5061A940DA9032C,
0E3F1990FBB9FDD7045CE219E008C6CA0027,
F4C1E871F924E4A3FB4301E5DEB4FF10FF09,
1CCAFD96220DF8AA01FC0B76FCF5E625F55B,
F4F5F925FA99F57DE0E5F590D64D12E0FC96,
F852DC5207AAC0840812019EE89DD6BD0FF2,
D17304D9E582DE19F5DFF17419A0FEA7E0DF,
F85C0E731076F2F8FDCF0B020939EBA4F02E,
FD31142AD1B1EA81EAB3E5A80E290090FA58,
0029115ED180067AFE37F4DF09D9221817E0,
EB0C07271BAFB5DF04FDEFF4E69DF553F15F,
;   output 8
CA1C07120711F41C090801BD2554FA7ACA13,
C03B02D910830E1CFF9A0530F10FFC99D065,
F222C85B065DC11FA2E30048CC3FF4B53982,
F41608670F6FF260F6AFF834F6FFF3BD0291,
CCADF271003DEFC01A061AA2F2DAEED7DCE5,
A0BEF58BDE11CE95C126E5F8E7D2C039F6A5,
AA15FFC21BDDE3D11B0719ABFEF411B404D6,
D2AED7F20878D71E05C6EC94F0891C631729,
1B27F0D4CD98E366EE67F158CDE1F61C0562,
EC1BF738FC0D033CBB6BDE13DE19E288EEC2,
E06F959905FBA5E00028FDE3EE72FD39D558,
D9D2EF43064CC5BA0E3B17C6DCA916C70822,
0B11E87CEF370E7F00CC000AFC7135F809A1,
DEB1095A290A03A519860FBAF5FA1B92F3BF,
CAF3E3A1FC01C56DEF480E67060FEAE3E9B8,
D992F6241DCAF33008B1F613EC88EAA5FE64,
ED31EA3EC9760B68EDEFD06EFDF21476DBB6,
EAF60EBD1724D329FF4C16BBDF870C0200A1,
0C4518F1FC73140D119EFD37F2A200B50F84,
0257EFC5EFD8EC530D6620FFE1961AD70E22,
05ED151FF5BC110CE04BAB5111A7E156F512,
DE52D9A0F0C7E684E21AF817081AE923ECAB,
08D4E9D4F30CF1FAE45FD1D42783FC93C94A,
F6D2D2780E64FB8D02C0F802F5A8028A0B48,
EDA9EF1E287FE948FA1E02C6DCF8EF210077,
FEC7EA7CE45309BF04A308891863FF06D8F7,
D2FF3ADA079CFC6732D614791D722044006E,
D8C8E659CBF2F1E2E00E0D850342E547020C,
FE9132570819AE150A27252FF26306B7FC55,
07B929EB0BB6FD251ACD036DF3C010BFF441,
EADBE877E251064304F412940C81FDE4FDFA,
08B512FC278D055F047FF8581697F3CFEB8F,
;   output 9
F341C9C2DDB9E7AEDEE7F6ABDAA3F7FB0D93,
FE7ABF9EC50E0115E057B46AA4CCD78FEC53,
0D722310E2D5EC42B56DC23613AF16C612BA,
E7EAC6C1EB70CD9EF868089216F6177612A9,
E162F8092961EB5BE2ADEC7BD9F53AC9E307,
FCC6165A0D6DFC48F862E7E512B4F655E328,
0769FE7DF66BF4870309025316111C3FF8BB,
099E21B2C394DE99D907E3D4C7B0EE87FB8B,
D238F8B70198FE1415D407FDEC9D00DCFC0F,
03CF139713FDC7E5C8BFF394062A16ED12C2,
E43502B600E31E0C0295E46501D0DDA5F661,
0D0DFF3A0892EC3EF1B9E2B3DB88FCCBF54F,
FB51F3010163F831F975E71112A9E652149C,
FCB70E7929D4063B0163106AF9D1F597DB37,
EBD61109F267145A0DABFA22EB7CFB1A078D,
0866F229E0461851D23FF52AE725F140EB79,
EE62F730FF5E21870A71BE071C21B6A9A500,
0CBBEDB90F99DE51DF1006F20F2E0DA3E13A,
04B8FE1C0B2D035B09BF1746078DEBE2E0D4,
E9BFD220085BEB4EEFCAF07E1ADDF0A0CBFF,
F8D7F41503778778DDC60615E3F90521191D,
D2470194FE4B0207071AE118E148F7FAE82B,
FA0ED8A8F285ED5DDF22FA9EC4E6DDF1088A,
05F4023F08B7F734E774F4A3E3DED8F9F789,
3060231410CCF428FF1505FBE9C3FFBA0021,
F941F50CF360F5DBFFD300B0F9D2041202C2,
07C2F8BCFF1600C3F635F438089FFE1D11D5,
CED8F73B0ADB152D09590F1712C000AA0712,
0116116CF76107F91648F5DCEB79E0A7E614,
FC3C0BA900AAFBC815FAE90FF94AE944E3B2,
F60BF2EBD720F8D7F2C9A8E20DEF12D5CB98,
1E08F87D11FCEFAFFD4812A91946027B0894,
;   output 10
1C23035B0145052C0ADFE1DC1CC2063D0290,
F120D44E8A47E69ECFD7095D0EE916F6D508,
064FE759E297FD5D0BE0FBC50D8DFCDC1682,
F747F14C0E66F6ACE93DEAEE058A03DE0DB9,
195909B91E7DD604D5E2C1A4FF3DA1C6C296,
F2A4FA48E34304D2FCAD182B101AF5C4FC1D,
0C1FE70AE8731AF21317F4EEF89E03E9276B,
DD79F6C411A2E8A4E7A8F141FEF2FC0CFB0D,
11CB1812F4C9F5C1E393E0060270F7290456,
F5A3D42DDD121516FF94E82F1AB110F917C0,
02C4023E094CAE1DD04EF899FB28E644FA36,
DCF2C8FCFE23DC4E8F93DE62F8CCEB34EEAD,
0210E4C9F8C200B9006DE28FE2E1F4F1089E,
0173E236FD9E1F99FA92E6E30B7D1A5CFE2F,
06550583DFD500B4F8B5072BFC45086A0399,
FB20FC24C96DEE07FB1CF1871B821822B195,
121F02F11F99F33FD8FCCA53F196EA41E054,
F85CFAADFB880756EF7BECB51C45103A2956,
0B5AF763103EDF3DD7D1C448F89B28980ECA,
D6A8FF43F29A0B26F057EEBA0FF6F62B209E,
1A97F576F57312940581FB0EE5DBFEA216F6,
FCB9EF570273EB0FF9E5DFE801A308B1F0A9,
04F8F72F2E920EC40290F4D50CC6F6700DED,
DC83DD28F0E7053FF93C02A80E99FD8E0567,
E6A9EC73FE58F2E0008EE0E2049FFC560777,
F893083808A8E922F047F5D1F570EF93FEDC,
1FB50F57E91F0174FFB4FFEEFAF60FB9285B,
101D0EF30A48ED76F9300515C419E81DF2EC,
04E5189A13D0FF1AD657F1FE1117E335C40E,
157A07391FF4E03DA998EF48056321D0F48D,
D938E4C7C2A1F48FABD7F013FD34F2FDC506,
15590BE515AFFE0AF2ECF5E9E9B5EA74019F,
;   output 11
EFA5DDC9E9080F41E403E13BF121D216FB09,
F32F092711FDFDEFF39A02950919089F050E,
F65008A30BD90A06EB08008A1076FBB0B582,
F9A0FEB8FBE70E3CF7DEDF8EF28E0969F02E,
FBDDFA52EDE2D0CCCE40DA3CE4E3E5160A47,
15742D60E1CCFC3EFBEBDE490081FF3A200D,
FFB70948F9E0197FFB93DE54FE6EEA33FCC2,
E418061214CDCD5B03CB0D67EBB4F617116C,
0AFEEAD6F0ECF818E267DF94FBB0DBECFD0F,
18410FA11D270C9602DDFB5FC3DAFDC4E2C6,
DFBD0F7B054CD5E5D192F09A0FE8F33614C3,
134D10F9091007620047EB080BB23975317D,
0D4B0E0904D20B74059507C8FF09FF1B2437,
FECA01D30617025BFC6EF445035F1CCE1749,
F996F53AF99EFA37FC05F677EC0CEA4D00A6,
0B6BFB830751E851F04709DFFFDFF4E808D6,
011AF933EC0EFB39DF5A070D0D52CD921C64,
051A0AB804F81A56F689C9681BC5F28A8DA0,
FBCA0BAF00D9E6CF02A6EDA9F9FE0E850C0A,
F59500D601DFCA61D7C2D22B118D041BFA5D,
10CB13571D38F973FF5EDC3DF4150978F0C0,
EBC9F65DCBD4031FDF93EF7EF699F54A01FF,
F486F15D180EF9A3F5F8E3BD0707FCC2F8CD,
0CFF16D8303DF92DD44614D207B8DF07E24E,
21F80E990366E56F09D308B5EB981B3AFE67,
ED44FF09F6BFF447068911EBFBE802D6EAE2,
04F5113EE71806D612C4E8D306BBFD82D9F4,
F719F2F1F4BDEA4A02DCFB3AFED5D4E4DAC0,
F36CF8D5AD90E45ECEECD60EEADBE81BCFDD,
047803D6E73FE465F46D09BBF9BB03BD1AA3,
EE890A5A04A6F6ABFD7805D1FF71048AFE83,
0CA8FF08FA30FC7F034DDE8DF454FDE5D613,
;   output 12
0B5622E704F7E2D2D606F6C0E3840F151168,
FAA60F73116E0F2FF5A4F26BFEAA076DE14C,
F801BBFFF04BEE0717F5241315820670F51F,
F8CDEA291476C98EE3BFF64D0218F5740D54,
24190B8DFD72E784EBC71BD8D4A9FC36F002,
BAE2F5AF0838D41201C510EE04AF09760CD8,
12AD09702DB51D340F66F8E804DBF9CA0462,
08D3013FDF91FB6BFDC5E7960CD60CAFFE7E,
1CD90A55FD0305E3EA11F14A0817E8E4E7DC,
C36BCD74C4F5F5D411DE00EF25251108FCE5,
EE52FF49118FC072E70F022AF2ADE5A80681,
074A091A0A31ECD5EF0FFFBE057CD634F59C,
0635F3C8FD4A0DECFA0EFBA00D37FB7A03C6,
D63DF4E2064F1445067D0509F98FF4C20347,
251BE7E6E01A0857FC90FD7FE05D08FF004E,
F0B1021117880199F1B40DC703D6077CD3C5,
F4D2F95CFE5EE426DBC8E98EF22B0004F056,
93F201DF0905F5D30DE1018FFC3F07460F0C,
13270DEB01E50D28EAB6EDCEF1DCF8D81A8E,
C756FEC21D5801F1E29AD201260CE9BF0185,
E7AABF4AE6790047F4E90203086912151BD1,
FA42DC0B0A9C05ED0AA4207AEEB806D7E707,
0B93FEECE93DE7A9F73FF09317580020EFAE,
E734D01A02F3A61DF6890911ED6726070596,
FBD8C63AD989042B11C6008C0AE4198A1F0F,
1DF6F7B80003FB4CEDF20E2CFE22ED9EF4FF,
14A115C6EED7F2FD178301D8DDEAE5DEEEAC,
108515271162E3C5E61CE6ECE755E8DC01E6,
09C1185D0F73EDF6F6F3E31B024DD68CDEC4,
256A0323E8D60515ED83FADBEE4BF73F0B1A,
09A9F12FFBE4F62FFA972A05162A0FD20CF9,
1353053102F6FA61E12CE5950A7EEE8EFE22,
;   output 13
F2AAE72FFB9A0600F74AEFF0E92DDC2DCBBC,
0F460EF7FB18D87ED857DA2C14AEFD3A0B91,
E631DDE5A799FF96FF04174102CC16800210,
E0B9E3A11AE5FFDB06E21BE307B407F6ECE7,
FA86F1610986F0BAF33122330E4C22ACFA8A,
109E1C9BFD29120E264016A20E5C0ED018EB,
125AF7FDF22510C9FFFB07DEEE4FFA69F871,
092C019CEEDE259406220BF40CCEF0C1F1E0,
F03DFAF20DE6FE63FE3BFB27EB0CCC4702D3,
EC00F398FF50E78D0BB908B6062C19930D4B,
E84FF41AE80513010549FE4C0DEC04E9021E,
0225021913390E1E22FC11B1221C1E340AD2,
153E0B511B47F18AEA19F1D1CAA4EE2DDA8A,
05EB0169F98DF739FA4AF88DCD86F320F63E,
004ED5C8F1AFFA09EE2508EEE731F972DD80,
FABC1ECEF180CFBFCC32F6E910C9E76E21C1,
0B9900770A740AAA07EF065FECFFF938156A,
E6EB0110E1BF1213031F042A02BB0D95FBBA,
41E224982930E128F11DEDDCF1880FF602B5,
1F310C6409C4F0A80C5E21A2F44CF3DAEEC6,
03FAFE8CD864F08DFF43FC66069AF9F218F5,
1DAA07EDFD9FFB24E52CEB38DDEDE58AD9F4,
D65BE07806C0F870F4CAF8F40090F552C750,
12951BD301C3FB4EE7A40A42EAA5001F201C,
FD5F0545F953FA1FE3420610FFBDF1D90F3C,
F046D864EA9ADB98D5A6BE78011BF3E0FAE0,
07110236F8DA244605FFF30FF9B901D701DA,
ED32061B0F34FC4CDAD8DD6F14AA0EBE0C4A,
E706F4A10A5207510402FC60F032F99716D5,
067DFFE50E10E464C915E31FD65113470F18,
EFDCF08CF967D340CA36ECB9DC50F31728C6,
EA0CEE79F4D6EB04DFF1EF3101C5DD1DFB3E,
;   output 14
0517FF1204950ADE0220FEBCF492DD5CE891,
F78C99D8AB25FACCB77EC2270780037BD6E8,
F6ECF9771B37250F0023F32606BBED3EE125,
F9470D931DFC1637042B2E26E9E7F0C71C62,
0527FE4CF384035900EEF4ADE719EA5AF172,
EBEFD1BA1986072C0C7017D7FE4EF660DA69,
0C11058F18C9043E0393F9AFF69505B4FD85,
1F07F233FE2CE0F5D74DF7DCA85FFFEAFB33,
19D3E116C2F501A7E5B8F595FA1A0F68FDF6,
EBE8EA8EF7F008D4EBF2FE491325EECC055E,
F36FFE60068F095606C90B5D06D004E5EA2C,
001518372F09EBA0027B1EBDC869120045AD,
1E92F839D272E8A1B25DE022E47BE9B4237D,
D4A7FB360E37FCBD00A2F3BC07AF14D60399,
E72FF063F07103940682F851E792F561CB06,
0350DD02FC2B0A56B91CD601CFF6EF1EFC60,
05F6FB57FECAFAF40781F65A180FFE0908A8,
DE79F58004F121EB07871E9000721844117F,
1FE2E8C3E5C30163D8D4F5E6D7A8E698F61E,
C9001A4302A9085DFC92086B04B005CA07DD,
0198E517EED10F01EBCAF70AD38DD38AEC3C,
EFDDF9950547F86D0B82F395023B187FEE2C,
1638FB390ED6040E1AC7000BE1931412018B,
EE4A0BC107E615C10210FFE7E45ED9370A19,
1030CEB827FDE5C1F7FEFB9DE778D773C845,
12A3E8ADD98DD2C696F7C3A8C006FA46D082,
03070A6C06D30D9FFCF701DB04F2DF4CEDC0,
EC63E126EC3C090010A715A4FB12F6F7E674,
07C013F1F2E80D150634FA3E0E07F2F1E2A5,
13FEC654E24CDD7ABCB30019E8C30CA8F5A8,
0E27BB5DCD8AECB7C507DD58E73602FF2359,
0D4DFADF16C2F3D6FF280F6DDC9DCEAED98C,
;   output 15
0038EE9F06980941E110DF16068EF81B0256,
EE58E5E5E0D6EBEAEEE0F48802ECDF22E5F0,
00A2FBF30170F00302EDF542F5B4EEF5E455,
10110AA10A09F813073423031C590FF21A5A,
17F8103A0110D5C8D190E4BE18A20491DD76,
0DEF0B6909D5105C14B11E23FB300C451257,
FBF901C107DC04F2FA652CA9D1590D790250,
FEC4E215F2C2FA4BD808FD091E130155B8E5,
E91DE519DFE2BDD1CA16D892D66EEA84E10E,
FBF4F47C0D8C17C2D3BBDB13F203016CEA24,
1866FD93F473048A004CFF3E188DF9780E85,
1BB913E2180F0061BD51E55F0B4A2C0AF879,
A7C4D482FBCCF1AC08130A35F246FD1DE730,
1940051314501587099A132BFDE1FF5AF17C,
FBADEFB6EC50DD3AE3281828E761CD620226,
EE95046104E2D279CD04F9D21338E083E43B,
0EE608030180FE81F9CC0D77E770F595EC4E,
2AB006BD18B7238F225A0DD8F40312D5151F,
D47524680F82EF9624A226A5CC69F84CDC28,
F5790717FA3BEBB602DDEC48D649DFE1F5F5,
1185E84EF546F86EE88BFDEFF810F419F41F,
E6970215EE2F00F5F081F09F1BB5F6D4FABC,
1F4DF5C11B2EF657EE1EFB9FF08DF6C00A50,
00C5FC451602FC54FB53F721181F19DB1855,
B21F981BD763D87BC422DAD70C35FA51DB2C,
F9A4E389F16AE71AB70CEC8C109D0323F09A,
0E69FAD608040722126E05B10B9A13F21A61,
1E1BFD2D057C08A305AF0826BEADE29400FF,
E7FBEA04B6E0F58BEFDDF303E6E4F146C50E,
E470063EEDC7F71BF72215D3FF31FA18BF93,
E93A142DE865DD3CD7DECEF50675E8D7D791,
FC17ED6FFEB00206EF800B4EF94EFB3B0294,
;   output 16
04F7CE08FC8EF1D0DC32FE9BE4FEEF70F1B4,
0EC50660CC2DFDDCDA58D5EBEA1DA71BFAB4,
EB3CF6D0ACD70938A90FB9A4FCA1D57EDB3C,
EDBBD492FB4FE55CCF6AFB5707DF1E0AFC48,
EE6BF08B17530649D217FB820696FB0321C6,
0A7AE29E0335E6E4F00BE126F116FB8CB6A9,
D58AEDBFEEC311C8EFE6E3DE223FEA3784F1,
055113940766E11A02D9BE45D750F756A286,
EE810403125AEC660DAFFC26FC64197F1371,
F60EFFEEE122DDA6AA70EA19E92601F3F5B8,
EFE20CDCFE1BEDCF1C41F3E9FE6A1C08E7FF,
FD53274CF915EFE3F7E4E231E947F73A1053,
09090B840A9214C7F8BDF2B80A05078B0047,
F33713ACF1251192FB90EC6D26BEF5AEC95D,
F84DD907FC850C05FB96E6133338E5DBE2D1,
0529FEC1AD8409D3099CAFEE0CC9D9CADC70,
EAF410F40BD1FB130B00087E0524FEE7B93A,
FD15F621ED5B08669891C29EE59BE23CF3AF,
DC591371F51C1ABE110DF86D02DB11A91813,
F7CEF708CFC1089EFE870C55027C12BCEB97,
148BB66300A3D547C979F7BBFA081438FFF9,
F653FDA8E48B0621F31906D20BF30E4B0928,
017C0677E78617ACF5460543D0CE1773F713,
1DE3F5C4DDEFC913D3DCE97AD99CFB7B0C10,
EB78FED412461541FBB1E70C0F50D751D126,
1A4E0B10E13C0F4FCFDCF4A3EF121D770B87,
204A0920EBB4F877EFAA0159E8BAF1A4D383,
DEDE0037FFCEFE66FA1BFD121B270967FDFF,
0B1BF392FB2CF9D4ECFCFE73FBFF097601D8,
16F2FC790F32F78F07A0FC3C0C4100F2F93A,
05C1F4A5BBEFF0C02D6CF172F97A0DA10A89,
1876E7401428FF8106DDFE44100206C203E6,
;   output 17
159B0B29EF31FD53C09FEE1FFF85E542D89A,
EBAA01FDE3C7F95B1022DDF30E01F667F801,
F87FFF28C043E312F45C05CFE0091FC21537,
22CD04E1F2E10453DEFAFBE6E3D4E066DD93,
0CCF1C4FDD8D03BA1B48E10BBF06C371D3A1,
0D460C82F0CE1896F5B3004315C313C7FE01,
E27DFFAEE167E32702E5FBB911D316A00909,
02791C0CFA3107CC0BDAF0FDFDE7D467F339,
043309E9F99EF7F6042BEA02E1CAF5E50A91,
FB69FE6CDF4BFC4EF87EFBFCF5DF1DD2DC22,
103FF8B0F5B4ECE8F6B40FB5E0630D93F92A,
270E2D6A216A0CC2F19F0120D7FDFCEBF619,
D56E09270370043A10C8018F050EF8EAEADD,
E7700446FDB2074102B3EDB613C013E30721,
E156E7A8AF85B946D737F2E3F3C3099A27FD,
F98DF3EBE6EBFAE704A3FC7800E90075DC28,
DBA9FB7BF72AF1FF09BFFA8C0F3E0619F3F7,
F98B178CF59CE225E658FAD1EAAC08FDFF13,
086F07320E7E192B27AEEA62FDBCFD68BC78,
1659FDA8FC27F10EF873EC43F7EBF674EE66,
F8B7C3D1DB07037D05EBF8B1353F1760DF20,
F1140279041FE633CFCC06020350F80FF65F,
ECE3F6A6F498077D035AFDF4134B12D9F850,
F4CB06EB0810DFE30C68FEBDCAE5F54AE86C,
F518F362DF07F0C20EE6FDF5FC0C0334F73F,
0A59078EE7810B9103FC15CAFC7CEA15D8F3,
CCB1F8931CA2FBB7E8570A44E4D3E89B0AC6,
D4A20D0110A4F0C0F480D031F86011B010BF,
12F20F3B2547E699F850C00EFAB00240F61C,
DB8909070ADA02B4067DFAC9FC2FEED6DD83,
F16C0AF4E3BA05D506A8F878F829E52D1D02,
1765F0C10D23EBEBD417E6FB02CDF05BE79A,
;   output 18
01D402D6F1B4097CD66FF766C2550054EE0D,
CCBFD803CD70E7EBE6A1DD660BFA06BC1FDF,
1570FEAADE63EE03F8CDDE37F41BFE6FFAA3,
F32D0B79081BE3A0E7AD0ABEE976DAA1056F,
0F0F1C12F0351BC9F5FE0CC4D30A147FEA0E,
E7A0FDD80C3DF3EE0509F2240062F444EF71,
F456FDD418BCF865C941F4D6D8F1FF46E33F,
FA6DEDBDFE65D650E995ECAB0D1F1BC3084E,
FAABFADE00F9FFD1FA1B15A8EDB8EDC7F4D7,
C76106440380D870F98AF1590432FD5CF8FF,
F5FF07ACFBCD1F420098EDBAF8190F5AEED3,
1D2120981727172DF4B616EC1052F7FD044C,
DC93F788DFA7ED0C0924F1A1F86A14A107C9,
18311049FFE911C8F13CF2A3E2F7F14CF38C,
02DEFDAAB6400E55D479F1B1C84E00DED15C,
DA3119F0F61CDA98F905E8CB12E32A2F144A,
F02F02E0ECBD120010E6DFDCE9FDF47AE118,
F6FA0240EFE6FCB0DDB3D8ABF156D343FA70,
035517E20237FDDAF184F7A6F1CF0703FB06,
03B1F63E0A0BFB56F9C2F897FAF6DE45063F,
F7D8CBB0F2E7DD7DF9020702FE93047AF289,
FB720ECD007FE7A0EA1EF37CCB7D064604E2,
FAD7D7E3E23CB95DF381D7A0DF20FBA6DCDF,
FD2E08220F2BF5D2E55EF325C76B0B0808B2,
E23408C9105C1DA9F0BCE313F013EA990B25,
0457EF88EA8DEE92E20FF864043B0120F90B,
08B1001EF2A00199FD44E3BEC942EBE1E6B1,
F9FE067D0ABB177B104606B5052DF7040300,
0D22176D14750C1A0E0610C3DFB5F5022114,
20B113DFEF62F7ECFBD305BBEB621854EBA2,
EDF41C92E26DF16C0B00EC1FF88715B3FE21,
1276159807AFF99E04FF1379FE1C00ADF18B,
;   output 19
0A9801DAF3B4DDEEF7FDFBE3F46D0A5518C4,
038EF5B313ABDF8BE090FE3A0051C37DEAC7,
0F0F0FF10ECD05190D30F16B062C0102D755,
0879EF3EB24AC283EC8FC999CA67EFB3DED5,
07DB052B0942E787FAC50BB4B62C0220F5D6,
086E07B41E3CEB56F6BFEB47F8CEE2540C8C,
EC24FEC5F369197AE9EA186328CFFDB00600,
13B1E6CE0BC1FBE6F1CB0503EF39FFF4C2E1,
090B04DBE6BC0181FBDC0E65F23D0D951005,
0119DFA0F50F0025F42EDE93CC48FFBB01A8,
E91FF7A11A10E0EFF487F1F504E421640686,
053C0548EC77080209BFFD3AF649E804F39B,
01DAF408F3B9261AEA020B402AED0C400646,
F353FA97075EFA8D0BE4FBB90B0B0B361830,
156103F7127DF8F1E985FDAA07760B8BF47A,
FFA9F893E6F10152EE3AF6D804A9CB33BE8A,
072AFB4BFE3C02E0FE30079E13E6F3F80976,
151B06AFFBDDF6CE04B5E685F739EF09FCC2,
291C089800E313E0166C096DE65AFD14E6D5,
093301A1093E0E0DF9A20708F2F002310170,
F34DF535E9F5E10ECEEEF6A8FFE6BBF80A52,
F0E7F7E0E88E0C77F681F2E015F213A81C8A,
FD680608D429DFCACE89F887F743062A0EDF,
CB260BC01475D55DF43AF189F6DED9D2E352,
E440FAE11130E9E519A905DCFAD4E552EA2A,
D732EF2FF949C5E5FEE1F1A7C4B2C4B216BD,
00C01799FFC6EFA9090C066DFD5B0812FB85,
0F460D2CEFFBE8BBF060F419F2EE08F61807,
FDDB14251562F6C4099C0480F2DA18B9FEB5,
F77B0092F46EFE25175F1089EE100452F717,
F33EF1AE0F9BFB4705B2087FEA09CF10FAB7,
0DB20390DFE6F108F9A3FD3AF98F09E5216C,
;   output 20
FC9903880732F16FF89C0CBAEA0BECD7E16B,
E682BF70C9AAEF6AEBA603FBFAE900620450,
E91217AF05A8DD5D11BDF503F78E0AD8F95F,
EF8509E105C30009F54DF97410C90B91DB5E,
0760FEC8DD14F3CEEAC9F5D3FBECF58E0928,
D5DAF5ECBB2DF7AFFC34009F12820A6C0394,
E5EA102B0D21F120F394E600F64DFEDBF59D,
116CE76DD18CD442D0AEDE37F07005F230B4,
028118C406B1EDE1E08A046FF8EBF0071A15,
D5720FC4F542E9711901F9DF2A05E82FF088,
1047FAE4E63D0F4EFB9DFFEFE4A5FE3A0B0A,
FB2A0EE619DBF6270DE91474F8792606155B,
07EAF887E5D6F74DF7D30E1C1DCF01DA25DC,
EBDDFDB507A3038001B30382EA55011EF26C,
E38ED5DFE80AE8FFCEF50C21DBB4F4D2DABF,
E6A4C1AAA812F4ABFC38F865F655ED1CF00E,
1CC22138F6F61C9A00B2F5DEFB46F141D7A4,
FFB61AA9109A0881101C1366E68DF09CDD5E,
06C3D86BE79D306108830CC6162D09142973,
DD3A0D5DFBC50B3300D5FF3B0C8DF46C06C0,
E16A23371B7FCB5B0FAEFE610D2B0A56FF50,
0447F133F97EFAC4EAB8F1E6F60DFE57EB2C,
F37D048F1607E6C0105E12BA03FB17C4DECA,
BA32FCA2029CD26803A1F941F2FE0181F428,
DFCCE3EA00CCD01BF1B8F750D8C1FB9AF43F,
10B8EDBB152FDFB6AC0BEFFFE96FD735F8CC,
E48E014E121E08B61A2F0023DEF30F91E8FA,
FA22EBE2E26807CBD7E4FF95D7B7004C098B,
0CD609F0B62DE3CDE505EE5CFAB205D01B58,
F906E27EC012F70CF489FCC2F0441F423528,
13B9128CD50A00C3F4D4C00B01950EFBFB2A,
18EA22FA311DDB62BF1EEEC70B1CDFA8F603,
;   output 21
FCED00CAFD20090F1CDAF9C50296F32B0759,
159F11F3D433DE79FEA7DF9EDFEFEC4B8CF0,
2775FED3C0E3ED9BE54CE38D07A203A90A3B,
179CE269E9C900E2FDBFF46C1FE212FD0A50,
1AF7F531FDBEDE76E7A1967020E8F6FAE44A,
19201E220F4025E30162DD640344FFFDC094,
FF2211CF0BC70BBC179F03CDF4EFF09E1135,
0E5613FE1A46FA95CECFCBA0F71806230935,
0069F436F6050407F5F1D1A703AF06592BD7,
076E0250C2BA06AEF0E90B9002D20050F65A,
06FF11FC0EADE8D8BE15EA16FF7FECD31482,
22410CD4D663AC86C356DF81EDFAF866008A,
EDF9DD52EB8EF439FA6DECBEFE04ECA61C10,
0B2214E4173618751781080CF39A021FD7B9,
EC47ECC6C31E0381EF5BDA95DB57F87F0691,
C157F26E0BCEBEEFDA44EBF8D1B9FB66DB9F,
04E1FEB30CEE0DFE1DD50591F51809930273,
F935E8C5D7EA110CF320E6371A8F0311FE49,
FAD306A50D3D12AFF838DD2E02D5E9ED0B2E,
1F95EC5C15A90D18F0A9F5F8F788E8DEE9C8,
0D040106F91DDE46EA85F7FB06F010A005C6,
FB45F99A16CCEC28C3A7C2CC0218FECCFF99,
0C7CD4D801D1F716F634FA96FE0505671883,
06230C46ED020541CE8D04CC2DEE03CBF60C,
0856FBEBEC070F87D4DFBDB70C2AD2F0D871,
10BEF73FF22CED49F1D6EC2522B119D7F34D,
12B4F97DCF0D010DEE9BF3F5F582FCAAFAB9,
08EA146318AC0AACFA6CF50CE614EDE3F610,
F32CEB45E151EDC9A770E417EB2EF7F2075D,
F1191D7C2252FDD60567DFCECF0BFBC612AA,
0E0122BEB1B0C17ABF67B9A8F7F0F367BB15,
EEA2ED1103EFF525F571EFF010F309D50832,
;   output 22
0126FC0BEA99FD43F48A0A281DC119C5182B,
FDB403EB0FDAE895FCEB02B31965FB1BFEF4,
128A0C6AFED9ED52EF45FD361AB501A4F75B,
E2BD0DE1ECCCF580B61D88440292F1A2DC11,
0650D49907FAFB40E62520ED07BB181A1D7C,
0253F447CA33FD50F37C121B217916B50E97,
E504FE741753D651F12AF5D508CE1744E89C,
0884029A0EDF06A50D4C156AF716035D1589,
FF96FC0B04A40D91FD35F411F1B3FF3E023E,
1AEE0898EE5B033AE5BE1E0CF40BDC9CDB26,
FF65F2B8E11508FEFD7DD6551B4ED4631026,
FDC1F262D55521FCF17701D50AD40F6500B8,
1104E15BFD63FEC8EB86FD38CF80F41BF42D,
F99C0C3704B517C80F351EF405170BB00358,
E46A063E1BB9BDB5E642ECC3FDB1E4A6ED29,
ED04084533A8F7F71819083A0A59ECCBECC8,
0DE5E821F4AFF914F909F2DE008DE96310AD,
ED6B0629F3EFEB86E5D3BBFF130407C70E4A,
12FA09CBFCDE178611191A4D028810D2FCA0,
0EC108BCE7D50C3A02B816C901EE0D4F02A3,
B3B1F2B6F326EC55F61BF94B069F0B81116F,
01300D3DF3D8150AE956F7CFECBB1537FA1F,
D59CE475E1CBE30FD8F3FB910D0003A8EB62,
E921E6A5F895F6DDE1C7FD6F4560FC6E0E1E,
1A841F2409E1FF13E90FFAE8EE13F22A03DD,
F3CAE47A0A8BE865FFE3EA7CDB730562E3BD,
F001F38DF35CF523039500FC1E75189410BD,
018FFCCCC104F84206D7EFF61E7101C2076B,
1FB6F80EFC0B1594E10AFB49F409F2FA18C0,
07E10302F00A055CF680FF82017AEB1916EC,
12CADCB00EB60AE2FA651404001204EC082C,
F02CE15CE9DDD505DFB2D54D02C1FA3E0506,
;   output 23
132C0F87F5E6085C000BC0DDE524F62D063A,
04F9E8CB37F0F8A8EAB90AAB07E1CC2A13B0,
17460716F437D978F329FA180AC710DD0E86,
0968E3A6FB10FC3BE5DBF86CF13EDE54FCC7,
F3C2F16F110F0A14F844D541DA6915F01F1B,
2A0D06D3197AE33AFC9C045001170BE6F6C5,
F30F000FFE5AF7210AA705902398144C042E,
E0AEECE305B9F36209B4F1460A31FC8EF125,
E66AD09CDA15FD3AE39D0D930F9AF5E90EC5,
ED97FFE0EE539AADDC03F216F51B04C41733,
0A52FE820D48FAFF02AEEA7FF059F7E01270,
FAF00CCDFF33E51E06CE35832D4B1F801B44,
DE99E5FDE4CEF811F2D7F8DF2E5A090003AE,
D942147B159B17ED0625FF26F64E07121476,
0EB21D2F18F9DE91D518F97ACC8614891870,
07B6EB13E0B3EF14D2E8EDF10EA6F5F4F269,
09ADE56EF706FA20F394E90D1FDB0B96F69A,
17B10E79ED4EF677F393068EFC47F59D054D,
9F16EC7C0AEEBDF4F5E1EEBAE06DE3600AA7,
F632EA9427BCEEA50574FC4903A9F5FF088E,
150AA0050216E415D57DE5461DD81051DD0C,
0E400FFF047B077CF38FF9A4F68E0CC0EA1D,
0AD10AAB1338FECEEF0BE46E263506FEF78B,
DCD5F3301ACFB110D7241DB1C8D6E00E0A1C,
E8A00E881572D71FE395E692E9770BD30CAC,
F7F9038ACC531B1CB1F42763FEF5FA421574,
0DCB2EAD0589F953F9B514EE0E2A0B3E0ADF,
E4F1FCBEEF8CB7A3F018E325C1FBFD27EBEE,
110A1F91081B1A070E9CD7E7E5BA02CFF73E,
FD8DF8CCE9A915DA0418FD6AF908E8CB0A53,
E185EB3FD0A500BCF61E0A4E0360EE481A8A,
1B6F181B01F514E3D5B0E787C607F6B8F351,
;   output 24
FFAEE2AC0AC7F686D2491DAEF8B9F1AF0BE6,
FFBCF67CD391033428B123C60850005C127E,
00AC1341EB7A0DD51320EF4E16D6FE64077F,
F58810BBF94D163214361074E4D6CF7BD6AF,
F8B5FEF70FD8E17CF3561768EFCAC1BA0B6D,
00BFE89CE3F909A3001F03D5FA40F2D108A2,
0864FF0DECA3F9BAF5F6E275E23D1524F835,
106C102CF4E012C9EB9EF728F677128EFBD6,
BADD040C06ACED65025B13EA0812E63F1630,
0FC1FFDBFD1A133DF726E240D42DEEEFC9E8,
EADEFC2E0B481A55D4E1103106CBF0E1FC3A,
068513301455108A15000A50F65FF7C702E8,
ECB60069E9DB0FA11D5DF331F5E308552263,
F5EB0879E202FE0FDDCADBA512E118DB0BCC,
F9D80D5AD7F9F5A215DFF879FEB60A3A16B1,
0A1AEF8B085514010476242FFDD2F4C9FE64,
F29015B3D373E44DFFC7EA0616EF13240C16,
058A09A9F5F7109406F60A2BD724E733FC23,
0380EB03ED30E6A3E1F3DEA0D406F7070D38,
B544EEBAD829F11EF74BEE7CE58818280B30,
0674042BD91E1D0CF3F1CCBA0A000C11ED93,
F403C666C01FE27D01E6EA850A5402CFF87F,
F74EFE35005F1784EFFC01DAFBACE1E5B961,
140709F4F938E733EA5AF5F3C576EA64F242,
F822EBD0DAA2191A19B7F9812018F8ECE780,
19EF016EDFD8FB489230FE000CA2E33DF7D8,
0E45EB1C23B5E0BFD01B09AAFC20F237FD57,
FD25F9AA2465B56DD5E0130410D0F712F8FA,
11E3EDB314F6141DEF3A01562241F3510300,
07BFEAE5F65C0791EEB8FC57E1FFE1B8FA53,
0187FCA9F669FE46CD3DF8711C2900ED05DD,
0538FC3106B9EB21D542F2541139F104018E,
;   output 25
023AFF46E299FB500748D9031F9B075203A9,
29C798C1E943319515DAAAF5F077FD7FA372,
FAACDCD2AA0AF94CF1CDF878011A09CA0CE7,
1BD7FF370A05FDA9F772FFEB03D7ED4AFC36,
FDBAF5EFEEAE115BF436DD5D064A005EA376,
1453F651C3C111C30B1CC8CEFFE00C99BDB7,
01C6DA96C8B0D90DCE10EDF70A61F76C3000,
E3810139C962FA80F2A0F0AEF25EF8640F83,
0210E7A9E8D3018CEEF3C8E900DDEED2C317,
E8DF088AF68FCA02EA70ECA70F14F5C806BD,
0E6B0E22E14D114007A3DECB15D4F7D3F5FF,
28401193037B2DF5F7B9F03E0D2316D506A0,
FA15D772A5ABF6A39FD3D81202B7C7F70704,
D08FBBEA0AE5CFFCE15DD494F2D9E3B4FB45,
E42EDD3FD5800F97DA9FFA4911EB00700090,
F1A2C5AFB731C83DE772D1A6D6890505CB6C,
F789F5EFE426FEE6EEE9FE25FB05D64DF441,
1FD6174FD1311D58F7B0D2E40EB5FB03F80C,
BC3AE7D3B6ABEF86D8B5D39CF4ABF38CF572,
FED0B258AD9E0B4915A2E2661A4AD483E32B,
FCD201E503ACF6BBFCB3067D0F96FA1C0EED,
D06EE937C6F0E7BAEAA4CD13230F0E07ECC0,
F957FC9DDBC6DA5DE7EDE54F1773F7D5069E,
2153F980FFED1146F2B0067211550233E97C,
FA03F3FE9C940509FCF0E8EA151AF2E80856,
FF3A0283088706BBF915F62FFB8DF62CF568,
E9DDEDC5A61D0241C245DCBF285CFD1C0F6E,
EA88EFE1DCC7213A12640948085CFE4D0E90,
2BCEF508EB1624F8EC51D951177F27BC12B6,
B95EEBD3D0BDE413E50CE722FADACEB3ED93,
0491D31AF5D1F78AE7FBB5E4E4A7D93DACEE,
06700EA70D26F961F5A806810646F71609C0,
;   output 26
0566F893F924D5F7FD69FBF0EEE4E5090F08,
DDCD064A162A10A7D394FA45FEA6ED19056F,
062A10E1B923FFEBFFCDDCA4BB56DBE3FF20,
0ACCF2BD0E38E0ECDD24F3AC0AC1FA8FFA28,
0317FA26FFF6E44D07F1E080D15FF5360F2E,
15082BC8E357FDB9D169D9FFEF63F402C648,
0556E530DF0EF208D1491269F5CBD9B0E721,
EA44F0FF10F41132082200C2F47309F000C8,
0C69014DE58D1459FB3FD5FE2215055AF5BE,
0B3109C7F1D829600775F068D5CDDF67FDA1,
F9999C77C2B4F7F6D8A300440F0B14170B57,
0A2CB64EE165071CD68DD96FFFBAF3FD01CC,
F7E8F70A065AF33411B91F96E356F2E108D3,
FB56D3CCC46F22A5075BFF00FCD7E7BC138F,
E6C0EF7BDD0EF6B801EB04A60839F4F9F3C0,
CB9DB49FF22BFF1A23390FEBEEEE0BEB06A6,
0D3E9393086A0188CB781D2C1C3A088FF15C,
2B64FEB4F78C1FF00251D7CDC0A6FEC50B24,
F092F5BB049617F5192813CCF2FD0D351406,
08BFC15DD9C8013DD672D75ED0C4DA2CF29B,
1318153F140D1379EF470A72D5AADEF7E3F9,
0DE80D67FC36FF8BF1B6091AF406FBF4FCBB,
15F7CAE4C86DE61DC938DC69E267F3490793,
0FEEFA950ACF0CC106380C2DCCDCF675F918,
E13304EB032A292216960593F7C9EA8B1BBA,
ED960D4715BDF107FB97042F0A46E9EC0AB1,
0E5E0FE2D027ED0CF8D716FBF81D1F3FEBD4,
F37E0173F6B505DFE853FDAA1F131012F2BC,
F576E9A2EC52F3A80E21072C23B41494E670,
EEF5CCC9D6B70A6E0589D0FFFC5608F5F9C5,
F0A4F0480D01022AF0E701E5172C123605E5,
F70408A71357C688F48005A00A6BF2C2FA95,
;   output 27
EBC104BE0B7B03E90C32199A039B1D7B1727,
F70F244CFD3EF792F857E6AF0A851C3BF343,
CD64F88CFD09F458EE06E734FBC10C54F268,
FE09F508F6D1F360037CFA970A2911562600,
F9170755058B02D0E8EFF9D6138E1DDF1B00,
EE7F13862C3413F311060BA0FBB70EC3F83F,
F5A9F480F665ED5AFC0AC3000380F2D6EDE0,
0CC0F2C6004E1597F8A3FB1E090E08690C87,
0A230328FEC9168AF0820B9809E806D30BA8,
01DDF36AFCB7DE58E7D5E8FCDCF406B4024D,
F4E6FA721514D9CDED52EE2D0C4C10F6FBA4,
FA5515292B5CEEA5178D0EAE17A911571DFA,
049E001AE2941387F57ACFE5F73AF686DE60,
19940E6B0DEB0EF80802F039FB04EB4017C8,
090EEE86EED7E48CF621F36AECF1FCA8F851,
FE77F155E9D215F9EB51E3BEFBAE0C63ED00,
0A8E02B9FE75EA6CFF800C7DF17DF0E5EAF1,
F612031B11BCBEB50CA82038114A167D119D,
050E17E2002C285615CB098DF1C8E3332655,
E60DFEF0EBCB02021953F3E5D316D7A0F0C3,
114007671D7304A5EB73CFD1067AED78EA16,
0E4602BB03F8039004F215B4F3CCFCD616D4,
086A077FF6CDDFE3EF48E9C0FCDD0F791377,
C4691E244873B5ACD88826DB3782017915D9,
22A9F785EF8C159FF129D25CF461084DEEC5,
1660ED7DC6D7F026C88FD01D1218E7A9F23A,
0E6B0783F130FA750B5E07D4132E08830B50,
F48C0DF51FBDE41BE6CA0401D381CDE6097A,
E201E7BBF8E9E391F57EE92FDBEF01A1F615,
1B3D1BF9F7C613F5F696DC3BF2C6E7A61878,
0E78194FF21700F0F4FD059109B6F7C20298,
1387E621F1FAE990B7BFE62B0A4DE9E00725,
;   output 28
F111E7F515D1F10BEFA2EBD5052C117ADC42,
F6CB10271201D6C10865E469ED59E96DE352,
2500F3F5F8AA07D31333EBACFF1810EBEF3D,
22420AD7FFAC23E802A2E0471413EF60E1E0,
0C9F0C181636FF13F01009AE03190915EA69,
E803EE261344CA34128801480F2F0FC50068,
D87EC7D8143B005E070B09830EC81BB600EA,
FC09EABEDE000A9522BA08191308F34A06F3,
11C8031213621C55FF8904F111B409F1F8EB,
1E141373ED9000B1C6A5F900299AD794EEA5,
DFE4B8D423FBC8C0BDAC09AAFF151F0200B2,
0B1523B7160429141046169A0B9AEC3D0BC8,
E764F8B0FEDDEE06082F293F0444000F0A0D,
1968C35AF05407EEF2BFFD621C04FB12F7A1,
107DEED9FF7FF4480184F80909451D460DA9,
E61D038AFC4BF0C1E3FA0C8FE247C59D04B2,
FD94BE9BE870FBEDF96AECE901E9FC5EFEA0,
1B8DF1ED29F70D74073CFDE2095F1229DBBC,
F8B90076EEF9190DFC861A3BFCB401270CDA,
00D2B1920E970753EBE9F91615D3F750CBD6,
1114FF17C6A8FD15F115CE83057BDA140351,
0530D488ECD6F6F9F8DDF617F10B0A76F2BC,
05F2D535ED0F0AC1F628E1971BAFEF26F2BE,
17B0F3B5F0181C6FEC47FDDD1CAFEE910F5D,
088511A1D079ED73FDE21451FC60FDA61352,
1012FDC10D4CFD21F4B003CDE0E9D9A4DCBB,
1C8CBF80EEF405D10952F8F3087FF6B8FBD6,
E585C2AD329ED6C8BBF014A0F8F4FF5914D8,
F525F3A31BECEFC5DB6707F6FEAB1234DFB6,
EF48DE9CEBC10EC5FD71058DFEAFFC6CF763,
C7850B84168A0621F0CF1776EDDAE19417C2,
0F6DFA7EFBA6FB73F3A2BE17F8E8C9C70819,
;   output 29
FDECE0AAE245EDE1E16C222DE61EED161BF1,
F9EB0A9AEE56013F0F38EBB8FE03FF720C77,
F5731A75FB7FEC3BF7F4C292FDF101BF0A3B,
077AFE8BFD13EC49F867FD93EF0FCA89DDB9,
06F40484EB4E04E3EFFF03130F04BFEC039B,
016E9834E0C70843EACF2CBD1010EFBD178A,
E555F6F1E6A8FA81FDEDCE8C01790E23F6B7,
09E21AEFD390F16B018CCC030D970D61E002,
1BE5071807A70D95F9CFF5A302FD073A00A4,
17D3183C042C17C609C5FEE7F92911610790,
03F3E03D07190A60DD951CFCCCE5EE5F19DC,
16260C66FB3ADD8BF509F15012EA15D6E26B,
0DECF764F43004EE08DCF75811260FD2F664,
FF9EF207FA64FC97F2070DD3EA93038A049B,
F748F5F4E9BCEDE8F794E38DD7AA1A06FEC8,
0463ECA6F116FB6B0254FF9B070200630B27,
2EB2DEC0DA7F03AB05ADEC1EE23809B003EC,
15710F6800DAF0FCF8EBE29ACDC0EC2D0F87,
FE790AEEFA3A067C0F3BF63BF2C5035103E5,
02F6EBCBDDB202E2FDCEDF3EE38BE4C00013,
F830093DFBE5FD6D0946FA02070B0E09E778,
FC1A05B4F3DA0A07E3C7F3CE0A3CF4A1113D,
007419740EA3F535F7851272154F0E9D11E3,
25001C4CFA90EB3B02B7FCF81572FBD90FD4,
16DA03D1E28CFEE9FE65DEB30161FBB7E520,
0A9911A404D4099B034FF90F0D17D991E5C4,
FEC3FA0ABFD5DA69E87C0E54F20109E311FC,
047FCB0E03D1BD97E11AE87FF017F8DFDAFB,
FA46F2FCECB5F636F1CB08E5FF57EBA107FC,
EC92033718BA05BAF90CFF4E0954023AED2A,
1185FFBAF7320124017BF0B8187C1530F354,
FD69F12AF98BEAC7E308FD43FE7CE2F3EE94,
;   output 30
E74501D5F2E6DC90095BE06A012FF2B4EC2D,
078A0462F1850D1B01A0C05615EA046FB490,
0CB8E836DCF003A6F68006D3E0B3FE1EEFF1,
FF951726EA27056ED3A2CCFCE460D8F71892,
FE86FDFDFE11EF200E23FC84FAC4EB491D04,
F968F108F86CEA8AEB9DEFAFE7A303EBEF7B,
0353FDEDE4D8006619C502C2E55705C11E26,
EF63FE3E15A2F049D2F80DB7B2ADF87CEF8A,
0444FF5DFF9411B1DE74FC721E82EC540300,
09C2ED42F171E50DFD96055F4AB8D4F700EA,
00550BAE1B16B786E8010ED8C67BE42E0046,
354C15020F4DCA22EC100D35C62BB28E02AF,
FD5EFEE70B76FAB0FDE200E6FC1AFDC6FBAB,
F5A5FFC617120991205C023007EB2144EF50,
1AB7FED5E879E7DAFC3F053701EC1A4800E2,
0AB10EDBF6FF069F10F0FA49F8730FBC01AA,
D092DC5C1C70CF31002C1B060F410AA9EFF6,
F86EF105E684153BEC74D1561627EC6DECF9,
0265FEF6F5A5130106470CC30351EFD90A78,
E054E94EF471D2E00743113E03331484FADF,
E87EF2B30DEA01B0F8DD045E1919020BF33F,
E4CC251A111E23CD0876E079F6FA1085D786,
F898F945F113EB9AF02FF7992B57EA320695,
FDD0EC4BECE4FCFE15480C7700181064FB55,
1CF307ECFCA717CCF66107B2E927F603F289,
056D0686F671027AF39509FAFED5EFC40320,
EE9CE4D6E68E0372F8E2E46A02E60F4B05D4,
0F74E2CEEA0ADEA6CBBEFC04CC8FF7CA05AB,
C64D00DC02ABE5490226F82C089CF35E0F55,
0F3BF244FE8FEF0BF00411E70353FF49019F,
FBBBE84FF8BE175B0672F206FAF30AC1BD71,
F495F988F151E8FCC0ECF4B9EE56E5791467,
;   output 31
FEECFB9E08B60A22250FE66DEFD511B7F6ED,
FFDEF4F60079FC34FE8709FA0A5500E50D07,
034AFF7B02BFEB72DAFA00C0E2F8FA950B48,
FDE4B3C6EEFE001DFC1FD1E70CC50BB20F95,
01B50707F3C6E2EA23BDF767072B0B7C0927,
09252FDF26E30C2408B00CE614AC10251083,
1554EF2FE2F40BFAE16AFBB4FF2CD334123B,
0FB5F713FBD209FAFF3E07A8F4E2FCCDFCF5,
FAEFFA18000AE22516F90C6CD3E8FBAEF080,
107A24A90FCBF359DCC30054BFBA27D90370,
FABD1FB3F65B089FE9BFCF53FED7FCE8FEB9,
0165E998EF7BF00308E202AB3A4D1C5BFFA8,
E22DFC200857DF4DCA30E5EAA6C6D296FE95,
17941CF7204BE8E9F80EF671ED870CC5FDDC,
EF310A15F11CDDF90582E6E5C659E816F764,
1060EBAFF4C921F4F10B0AA4CBC10B990BD0,
1076F4C2FD7A047611570549C907DD4513C1,
E57601B8153FC8F610B4F8AEC5FBFCED190D,
22671E4B1D6FEDA4F0120419D864DD6FFA3F,
01D9035D1A19F6FE2D92F29FDA7ED4DEEF5C,
17A01300F6260620F4A2DE4F0A2BF410FEEB,
FEA801B92EE40D1E0DE4F3E0CC25E701FDAF,
F766BDC5F2A3086AE0FE106EDF860E740767,
FA3BF25B0E3BEB44C9E805D4FF87F6B4F91F,
F749F40AFFD40BA4D6C603A8FE35C333002C,
F33ED85CF096F167F1BBFBDB112D07D4F79F,
F4E8F6B9D4F1D660DCFCF279B909F761FCB5,
077B1065CD81F929DFA9E06FF22CDFA5F61D,
05ADFF1BF2AEEC630B1F07A2E2DAECD5056E,
3109272DFE2AE48DF315096CD4790CF3F44A,
1697F33DE8FAE580FABB1656ECBF0B150CB5,
FE71F876DB2001A0F18DBD1908AAFCBED881,
;   output 32
1EA809E80B16F052E625E8BAECADFE4B0E93,
E888F4D8FE2EEB0805D007C8EEA0FF7BFB61,
081AF3F10677096CE71B1AC4BCE610A9FBC1,
F842C2B6C1F21A33EB280DBD021B0C61037E,
1FCC1D2D06A7024D011B0815E6A9EB16021F,
07B0EB6FF41A1138ED8C0B9FCD7E220A2F36,
0600FF4BE4F201BE0C0625D390C0FB9909CC,
09A31781066B15A11D57F8EBD54CD8B9D61E,
0B4FF6AEFFE1026FFCCC01D11768F4F5C34A,
1C9B06A012E00B3EEF62FDAC146BD978EA1D,
FE89F822FA89D78FC5C501EBE5E9D4E90B35,
BDDEF29BDF09DFFDE8DDEE6FE235C7EFF750,
F34E0A7AF533DB50FDED0B280F9DFD49DB93,
FE40F385F82BC735D191E452D0AFC9F90714,
0612E280DF73F348E134EC76F1BF04CC2FC6,
02F3E6E9F8B3EE460B68072DE3FDFC36EC40,
E3F8DD3CEDE82ABF02F70037E30710400330,
0604DEC807002C0CD8140FAB1CCDD996E4A0,
09B8079BE941147E0F83FF30087DE6A5BA34,
0D7A02A0F29FF21BD621E6A200ECD5F4026E,
1579E403E224FE69F8F3136202BD01C91353,
DD0AF294F198F64AF1B3FBDCF225125D2966,
063BE7CAF895EFE0E6FC0C75F148F84ED500,
0D5715EE0F9328370302127D178ED36DE55C,
1A12FAE7092FFB8DF9D00EBBE9D90F55F632,
175310EAFDB409810CEBF3F1FF0EDE3FE774,
CA90EFA13487E5EACE3AED83098DF2CDFA6A,
0552FF38F60E195CF0A9F257E32AFDFD0117,
0C2603020F8EDFEEFA57FD93D20ED6130EC3,
09DBF2CB1B1D0F57DDB9052FF499E349EEDD,
CD57EFA90D06DF54111A0F07FE2BF1FDE535,
0A67F3FAF272032EF34EF37A03FDFCBCF52D,
;   output 33
09E7E58FE5CA05F20108074D09F303CA0FC8,
ED45F882CE4FF21B0D57FB3AD888F01EF229,
1CDC054BFD13F3E3F952F497285011BBE94E,
EEDDE62B19CD07DAE159D9AC1CA309841080,
FBA8F0F91C698824A2FAF671ED01F3B2F4B9,
2295036E00F1F4070D7006E8DBB0F96A06AD,
0D6203A1F157FECFEBEBFAB3EB15F74ECF3D,
20E516D40D2ED7330804E217FEC8BB0EBF7D,
FB7E0107047DFB55F31DD3F7F348D67EE0CF,
067F009F0099F5BADBB9E6B7FDA300FF0EF6,
E0DBF8EBF688D2DA089EFAC3D7A00213131B,
27971F4D1D2AF437E8B30145E105C75C0DA9,
F7540B671038EA4BFB220047F5E1CE2AE4C0,
FADC1A1310EF80FE20561428F197116BDF67,
E8FBEE9E1C891101E217FE0BEE14FDC3E8F3,
DF1410880131E7A5F3FEE984E53CE7AFD3DD,
FAF416A3152BDDDD06930DE8F19BF2E9EDDB,
DF17031317D9ED83DA8DF0BB028112370943,
16D21FCF0E42F599FA07FA841381CCD1D957,
FBEFEC53E2559E8D1385F534CCA3BC16C66C,
0E400FE5FEF3F90E06DEF3330C9A18D21AAD,
F5F1E568F254D047048AFECF1420D614DA78,
F09F21120031EB1322002711F62EEBB9EE79,
EDD31D70173B0A9D0209FBD10A44F291015D,
191C07D0F8F507030DECFC5E18641E27E250,
FA20EB81D5AAF729EC5CD950129215481CF0,
0B5DFF06F7C6FCB6DD34E2D1073805F3E0A9,
FA2504F808EDEF31FFE7F44DEEB704B105F7,
052BEEB1DD3006D7D418F0D3E8EFEEE005F5,
12E730C3013ED65CF1A5E817033DE9FAEA34,
EE7410C6F602D202DE02FFC1152CF55C02F7,
F686CF63FA7FF87AE570E9F214B41ABC246F,
;   output 34
FB54115EEB4FFC290E942019059A1DD4FFE4,
FBC6E8C0E1B41062F8FE129501AEE0AA05EF,
057003E717BAF11A0B06186FEA880490F746,
F7040864F68EF773EEC3F188232813AF0735,
138C1BAB1EB7F20B15ADFA8FFBD710C7F0D7,
0C820B7621F4F0810ACB049DDF1D0D7DF832,
FB79E900CCB602C2DFB4D686AA54DD9BE481,
01B704B4174DEE71035805CE019AE18DE1F8,
0C83EFC6EF4CFE07C2E6FF9CF8AFC3B2D86B,
E8CDF7B42196FBE3D3FB3E1CC14FF1DFEDB8,
F6FE1DC802CDEC8D01DB0DB7DBA0159E0FB5,
350029500698FFD919F417E31A6112E4F9C1,
E25AA6E6C8E0C2C4E9B9DE5FC263B605EED5,
E0EE037BEABDFDE62797E4990732ED9F163F,
EFE6FFB9F41BF786FB53F3F8D0691E720479,
CE34D13FE1CADC17EF7BF1ADFDB5D45A00B9,
F53405E8DE83DDD3F9FEDCA6E417F85313F3,
E66000680819EF1D07800161EDC304A9ED6C,
29D6013A02B0E081EEAB0584BDD4E069E17B,
E9B5F14D1F3BEAB804C005CECAF6D121E8F4,
F02704DB11F8F5080F070576FE8FF221E74B,
180BF313FF84D4C1FE7ADAA224C912291ABD,
0A9708ADFFA81A01D089F362FF1CE318EDDB,
FEE80F090EEFDB880A4123DF4247F6FEF701,
F406D8F8E99CB34110DF269DE76DE13AF05F,
04091332D73C04F8FCE5D77AF60800240FF7,
17ACF533EB432B45F05AFC09EDB9069E1973,
E7C4FB2001C6FE5DF76617750F25F7340127,
F90EF20E24E0DE61F397126FFC62EB4BF483,
0F1DA6B4F2730372D4BF01BED7C9B6E0EF05,
ED7CF111058DEE69F04DE004FA4EED6F1AC3,
F4CF176DE5CEFCB8E800E7E209220A76FF82,
;   output 35
06E1057A0354F20CF774F6E205130CC3E95C,
F7FE0C570D3E1AD8FB20141B03CFFC960B64,
18B1FC7407F3F1F50D62F61513C1FD4FF8FE,
1D65EDA712341329182EE94EF3BA02CBB837,
FA65FE8FF155EB95E801E0FFE8B80B18122B,
034718480CC20544FA25D81618A614AFEE63,
FCB2F860F84408420702E4D6FA9DF9260EDA,
D9F4E0C5CF3AEF5A03D6F8D600360D740796,
10F8E87CDD5C0F27F50F0938F6A50FCC1844,
0B08C32BF090D433DA21F89F1138E734EF1B,
17EE0E091AD9FE11EDC4DFBF1195FBF8F995,
082900C907A2EDE6DE05E07AFC35F7A10BB6,
091D0586ED1508CA0A40FECE12FDFEC4270D,
11A1F4A9F1AEFF7900A60ACB117CF7A60028,
1497FE9DEFF8EEA3ECD9F3B5FFB4137A0AFE,
05B4B448D74DEC93E9D2221CFF220BA51A0F,
11472683F485FF25F2B5F96DE42805240352,
FBD704AD15520A7F1A98014721BB12E1011E,
F0E3D6750D8C1FF11273141E210AEBEF10FB,
08890C9113BC0385FFB705CA184506911A3F,
E619D04FED240258E94CC8B5FF7FF898CC4D,
0743FBCF27621D050B18FADCF938FFF0055F,
266119491911ED10EFF7E143205E01982F3F,
015916E6F2ADED83F332EC222568EE5AD656,
0820E517E4F6093FF643FFF81B2C0CB20FF7,
E28DB549D183D6F4EBFC0447EE82F30B1071,
E825FF86FD3BEDE5FE9710F4250809A80559,
1490FD80E32DF167E64ACE91E0D907361A03,
0460F83700A4F354F7C10DEFF9A2F0990011,
F4D4C06FAE9602AA1B890891FB1B091801CD,
ED05B579D006FE51039D335DE071FF9C2D0E,
F71B0A7BF49ADAF40F62D1D2F1A9E4A6F941,
;   output 36
05B207E11DAEF4110933F740039411E30AC0,
0CDD0EC0231BFDF7148B09DEFBEF0372CDE3,
19D20484075BFC5DEFDB0E800E7D12BBD658,
24EC11850641FB4D1949FB70E8E90841E606,
09CE0EE7F74A0ED2EEA40D60D236E1270CF8,
0BE50F671028FD5706EE0AD2137A032A0956,
F0DE06EDF2F70B9AF586EC382ECA1062F5FF,
0AA4122A05F801A002C90388D86B0C11FE51,
1DFE01FD17621031F18AFCE40B40F4A40CE8,
1103ECBC119715F30068EEC01DAEF790E101,
123AFF86FBE8D984E188EF96F15AEB2B06C6,
15B3FF8EF8AA0724F557FE260A6AD745CD3E,
02A6067102880CFEFCF304F20036FE53F606,
0524C69B0B510C7AF3F6F3BB1CE5F92B09C7,
F2760324DC1918D4F6BFF5A906CF09180929,
0584F7AF137AFC4E1AD60DEEF338015AFC6F,
07AF12A2F096F1EFFB1BEA5514B3F9920ED7,
0CBB02BC07B0F6E203320754EEF70C0B012A,
F52AFC71DBCF0981F819FF83ECF1F7EFF97D,
0427F5012690FDC5F3ECF3F81A7FF9F50BEA,
E351F49E063D0460F538DDAB0F9202E8C570,
F0E2ECC1FD2E0CF906EC1427FA39FE4D0E64,
251F07F32711EC42EBA2FAA50CC8F865EDD6,
F197E8550026EB84F683EDB731D90102F9E8,
05A6018BFCAC037A0949F67004B10AEFEDB2,
02FADBEEE4C8FB2FE82901A5E80CCAC8EB92,
C1C8EC8D037EE219FC740450F7700B751B15,
1AFFFAABF866FC28F8FDF80396A2C299FEF0,
07C8F05FFF7909B8E1FA0192F4F4E876140A,
0773FDEE0B66F83EE7740AB2CE41E6EA0916,
FC9903C826EB01A904612884E680D1FB15E8,
0482F308F9DABD90DDD3DD38E928DBCFCA4C,
;   output 37
13890FD1BBF3F444F03BF6EBCFCFEF9CC443,
EF4BF975EF920AC00FDFF05B093EF7141F19,
DDFFDA56CE3CD3AEBB72E532F269A5B4BD96,
EB3EF82BCD21EDE0F6EAF3B3D310CAF9088E,
0BED08C0009E05BD1265EEA5FF37F675BB39,
0FF10ADCED64FF7D06490233039F0E5ED4E9,
E9DBB7A6E28ADE8D09E40852C5C6B60BBCBB,
1959F13F13B319B7116019DE1015149C133F,
EE2FEAD806C3029FF5D708F60EC3012DF6E3,
B7C404530674D278D447F3ECA465C0C3EF23,
0139010AEA1DDF2DF4F1D58EED5003E332B6,
15DD09DD1476158EF553EBA736A81A2A173A,
240AF06AF9CDF2CCFE24F44BF41C0217F3A1,
FD2D07AA185E1CF11FA7159007D0017AE8B5,
D4CEFD7DF9FD09A214141C23B7EE1408CF59,
B01CE6DA0758F6D715DA0735EF67F0AF061C,
10EFE9DDF30DD24A0726ED28C43AEB07E0BE,
D609E00DDD76BAE10206ED4FBEC6D70EB83E,
21BEE425FA4E10D820DF1F05D9B105BB0DE4,
0D1BFFEA06F3F8CB06BC110B00FBF12CF6FE,
06B1D5B7F0B1FFC3FB10F9F91F7CF17AFC87,
E9A0F4B2F93BF62DFEC3B727D9F3CFE0CF98,
F736C8251124CAD0F69E156CB33FDC0C194B,
052CEBB1F91F06FBC70F0603DAA98F37FE2B,
E2E4F72E09A7E5950451F4F6F156F5B4E256,
F6400DA1F466070500A8FEF6073BE56003A8,
DFEB11FDE73EEA00DACEC3CDB211F8B1D6DD,
0C58F15F11CCF185F6D11C46DABF0AE809BE,
02620312FD1502BA0357EF5E01E9DC3E055A,
1350F92C0A3E402DF6EE1CF10F7800F3FFF0,
F50EFDE713E0FEC4080A0FC402AAEB1DF0B0,
FC01F849DE3A0E64C8600FABF3A7D9ACFEF9,
;   output 38
D8D501081999FECBED4EFB62067A042C0A32,
087B0A310D58FFB4F1FE12A5DA44C838318D,
E84710420997F84FF9BDD9EBF07AEDB50485,
0F28F9F4123DEEAAF9CC08E3014CF532F26B,
055E0E2817260D4B0F20018BFF440AA3F5CE,
F6290E1E0F0E11531296FD93FEA008951B85,
FBD8F9B0041A07CEFB61020AF5A40EBD08A7,
177F15350F381D9E1CC6097EC200D5A8E74A,
026606AB06EE0B14F4410FC9F4BAF5D90679,
0FC30E24F363E4A8160D0D9FC5D4DBE6EB61,
FE4BE48402C9D359D6BDFC1116EF01BEFB86,
F6C9F3190D2118CD2B5E1048000FF8E01589,
1166FB51F3B0FEC611DB1E6ADBF7D252F87A,
F043D628EBDEFD98F0BFEC36320310E5FE48,
F73BF29706360EADFD000F08FB8D151FF5CC,
0D32176C1B82F8F5FAF1F18FC565CB13EB46,
1779F9E70B55E765EE41F586E3570B8C0D01,
F74DF941F946F9CAEF1A0DF6FD6D06E11A2A,
0AC015D9173AFE84FCC913E9CB1ECDD9DF0B,
E7CBB9D0EBA9E40BDB41E6F418461B59F967,
0252F92E15ED0E88D557E0C1C6819942023E,
E144E003FFB7F95E0B16FBE5095005BE0867,
F7DBEF330510000A063DFD3B104A135D0EC0,
F74D0B0B1B87E3FF098AE04A0D921CC91ECF,
056EF87DF4B41EA811C3F5270DBFF8840226,
1DE20D30FFDB021CF6E801030598C0EBF53C,
E5ACCE1DE04BFB990CECE6E02907248B22DD,
0982EF34E12D041CF374FBBE128DF901E44E,
114403AEE869DA100595F9B7F625D9DFD192,
10DA1893003708EE01F6E923E262CBC5D83F,
120D0C110B5A010205060194E352F6F1146D,
FD5CF5DBF4A6E7E6D1F7F39B153FDED2E5AA,
;   output 39
0B97BCB5D191F254DF53E9F8ECF4AF6DE6A8,
025CFAA9E51DF9400C5CF6CDF2C10EDF1ECA,
F85F16EB02941BC30800DB79066A9FE7A294,
F53CCA67E09BE8D1A967E948DA2FE4E4E244,
EEFAE45DFE2EEE7F03BD14FA2602D9C41468,
FC5AFC463EAAE26AC0C1F1CD07BFE2C213CF,
FCFBFBC01C79F29E16BEF1D501520436DD74,
04CD15F2EC17F8CE0AB70A5DDA84FDA6F7B7,
1A16DE28EBF40392FDF7094D0E241DBFEB1D,
0DC81595EFE0103B02B6E977109EE7E8DFF8,
FB04FDC22769FC02DE73F0EF2146FD3001A7,
F1D3F9AA0D370E71F432101F25AE0FB61306,
E7C320BE0741DBD8F9D810CD02F7ED0B0A67,
FD46F20FF3BF0E5BFB72B68601F90252D5B9,
F614FE4EE523EA360D3BE9E501FBE6ACDEB4,
08100B9404B209DC08220D1FD8CCF17A0A72,
FE47127DFCDA0BCBF7CFC7C318A6F378DD29,
04F7EBA800F80A53BCC7B5D904F8E4FFD87E,
EC4CFBD4F18908251DDA05E10454FE780A92,
FF70125529EBF473E286DE7CE548E21FFF0D,
0B1AEEF60938EBABC7F704B7E629CF5D0A88,
E6E2DDEB0A7EE21EDAC6036F07E6DC05DB8B,
F534DF7EF5CCFD01FF65EC73EA35FB06FF23,
0D94129A00290AB5F90AF714EF1CF006E459,
01DC1D92E87509A00EA6196DAC8DE27AEFC5,
08DA0C9BFB2C0245017B039B135E1C9F00EE,
1320F2A7FB73009CFF6FE3660BF3F80E01B4,
EED7F094130307FAFAC5E1D108A3268CF215,
FD05DEE708B5F197121C024128670D54F0B6,
FF74E580C8C20A91118CF06DFCC5FE8C0A16,
05AF04E3F835ECF90F8F10870CC9194FFBCF,
104DF87E00640EF0C397FFE206D4FD19FC26,
;   output 40
0868F90BFD3F059A07B4FF52FB98DF5B0E13,
DA1AF2D7EDE3F3BFEDAC2361FC5114EAE9B2,
1A13F75AF4C4036D16EF1FA8FF27273CF7CB,
083FFD55075EEECAFBCF0287FFC7DEA61BBA,
F687FC2EF1CF01CCE46404CE0306CEFC13DF,
F2240078EE7809A9F18A1627F320F1B7DB8C,
125E0570F005E91EED6609EDE9B4FDE20387,
E924F62A116CF3E6F834F9BEE3EA0DB71AB5,
FD7441720D28CEF0C391EBC30C8FFCFA2BDA,
DDE7E741FE36000009C004F2E55FFFABDAD3,
CE5407E70165F073D3EEFE26150000A414A7,
0675F9BF0EDB149D0011E6C1F9130015F8E6,
FBA8E04EBC2CF72AFE2307C0F4930C7127AA,
22AEC381DD95115511DDD257EB6FFEF6ED15,
0166DB65DBCFE19B0FB1F3E2EAE613F623A3,
E3A20119019FF5AF10CE055CFE6B0391E307,
15700103F980F2ECC769FFF8F021F01E176E,
FBCBFF0A05A8F7EB06F5E95FF38904E01006,
F46ECEBA07DCF9770F55EA960B8B11CD05FF,
01C1E054CE081614F505D1E5FB2CFBC5F193,
101203B3FB40EE4D04B90EBE09740FE0013C,
34DDF34EF6CBF1E2058DE00D0C41F4D508A0,
FC4A09690BD30C5F0499FCD2DED40AA0D724,
F5D8B779F4E9110E2394DCF0EA390880007D,
DD6BB792EDB6121615BA03AC032011D30C72,
EF45195E0BE0E0F1D25A04990EFBE63EF6F5,
125F2482F332F47DFAD0F6B5E150FCBC0E35,
FB0721D12015CBBFC65AE571F546E63711D6,
05131089E26A075EA5250130117606D90FD5,
E818EBF914C61C8DE4F7E414FC601A93F11F,
D732EC6CF964E689DFFEF957EC14EF73EE47,
165C0F1C121FEC59F1FBF4121608B6B6ED81,
;   output 41
1C72E840012B07A1C78EF1A9F06F016A0743,
D2970858C759FDD40479C2A3FDE6FA1C12DA,
0DC4037FD63EF22CE5FEE93FBCFE0BF71D80,
0C30FBDD1618FDC295760B3B03C4DFC5F43D,
0796E0DB0813043EE9FBFC2006F6CA502C5B,
22DD0CEAD9841CBFFAA7F6C0FAE81FFC0097,
F856CAE4E1F5B54BF93A064AFBD90A9A0DC5,
D3B7012C08B00B8E1548F3DA0F510913F0D1,
04AEEA9D1925D26508BE0E09104CF4090776,
DAB0FA680137FA46F5B0EC9AE95D018E00CD,
2D0B050AD27A08E8CB5A136FDFF40DE5FAC5,
14D7179C1739156B0B321B5100000320F603,
0DA707781018CB0211680BECE59513B8F434,
03E1100BEABF0766FA84006A10F2F6C90FCF,
F993E576059407AFFDD9F8BFFA59FB16FBD4,
DE2303650A1EED11EA950BB6E781FA28DBBA,
313DE820FDADF26C0AE60307EA2C1A120DD5,
02B10FD2F4A50738D17E1D63F91914800DD3,
1179173310F81FAA016BDD061B16F9A80017,
05E71A0DECF4F52DF0E4EB03F7ABF079109C,
13A9EFE7FD0D00FBF4C20533EB6A02460752,
F575FD92EEF3F2B6FCFEF21FF31EF1B901C8,
FCE2E630092CFE8A1513F62EFAB30D040413,
11FA0138FFAEE235F4E8F9DB20DF1F471D3C,
D6B0FCB3131F0B5D00020B16D5CEFF51F937,
D2DFF4B1EDEAE8ADF2A808BF17B40B95134D,
EE95E001E59F1471F4742008F9C9FCBF12A6,
F40A9214146F15B4D80A0A85F1CBF35FFB9B,
1BC51453FA420101FA3CD4C50E9BEE00066E,
09A50A211992F840FC74DCE00615F467ED41,
D1C5EA400B45F3C7FBFBCDE612C50623071C,
00FDE11F08F11F0886D419250157EA6FFA11,
;   output 42
E900F8FE154A022CCCE9DA08188AF7D8078F,
02251272CBDC08150875FB04CE49F0FE0304,
FD9DE168DFAA02A5003F1125165AF8E71669,
E222F2D1F9981B21D377EC831F52FF2CD476,
FF1208CC1AEF00E9ED2B00661DAC192DD582,
18A90BDFFB8309E5FBC5E841FE60EEBDFF24,
07CEDE30FEE9103600D20BC0ECECE66F01E9,
FD7517C0FC92F69117580EB8172DFACE1600,
0B30EB23EEA505CEE57EFCDFF65BE3C2F5EE,
0901EC19EAD51E0FE3090575EF57D655041C,
1ED107A1265D008BBCCCF81B1AE7ED00EC08,
EA0F056C1379EBF80E1C0E56FA1E08D62278,
ED2B12670BCE03F81B551862F79FF6ED0D41,
0DD51412F9B5FADCDD6DF17A2A7CF250F3E6,
10F3DCDFDE51FA70FBF0FA3BED2D071816BB,
E6D6F7E3F80209E606CE090DF0E9E456FCDE,
0A8D08E2F7CD1059D67CE7C00381DB57F4DB,
07730369120B159BDBDD100738590C18C80F,
EC2C04BA134BE8960EE2E95E0B2712F20295,
1EF316A80668E9E8E8E603ADFADBD9B1E866,
E8ADE92B0BF5005EFD9D06C3F78906EEEFDB,
0BDED2CF056DDA3DF11EF883F891E2370CF4,
FA0CF8CD0652EF2DF158FB120A22DCEB1E79,
F25C0E55FCF90989FE2F0A7C1A5CFD89148D,
1D330F23F9F51499190711600DB115382BFA,
0C2E0FA21CE3F938FAADF5F1F2E6E6C6EB55,
1264113BF69D049D0B6BE7C31CB0FC89EB88,
2D7CDCD802EA0047900EB332D77CDF79EA4A,
1A2604563475ECE79AD9FF6D1310EE68ED95,
E101FD42FEA1CCB30BCB00AC05BCE849F7E5,
E6D8FA8107BEFD3EF70C13FAE5D2DE341124,
1A4FF50019990928CCAAC865071DEF6FBA12,
;   output 43
D2C4FDCA0D86D51116F0262AC47C10A91357,
0C30DA2ACB9D02D5EFACD83411F7BCDEBDBB,
EF8513BF136CFF69E92E1FA8E178E970FEF6,
192DF3DDEBA4AB440CE20F7EEF0FFFBC204E,
E0E2F6621176D57BF191108ACD9709D00226,
EA822CB9FD57E3A9EC01100B0305E8830079,
F93B0BF1FE4C065F0884EB12FB47F502FCBD,
032ECFE2B75F15C61461080001E01226EED2,
D545DB230661FEAAE13BE42303BFFB1BF06F,
F916C95FECF508FDF2E502F2D7F2E6060A00,
0E5E157EF990E1E61A6DFF7E2372ECB7ECEF,
194D29030700F057029BF225E6591891E144,
255F02AFE8931F090D41FD3A052521500885,
FBB7DC8A24BBFB84E6921B22196529AA281E,
08DF005C0483FE9E0137F808FDC10590F35C,
15E0F456F68900BCE3A608310E2CFB02DCF1,
06D7160F0355DF38FFA013BD0465FCFAF7C9,
0F880D7F0E7CDBF71137D6A50AC22149F9A8,
062DEAACFAC50624FC9FF10D163B01A31944,
090AFD75EE18F54C02C0E9A800FD2327E4BB,
D995DC1EDF26D46DE58507ECF6A6E99F19C2,
E9FBEF4CFD1FF088E470FC83EB44E0161872,
F917FC98DD2FFE6A0510EFA7F9360125CEDB,
EDB913882BD0EA6CE2A902C518B1057FFCD4,
0CABE8A4F4471176EC5E03C506C6031E0F97,
F5ADD6800105EC8EEC7C022029CAD11B146C,
DB2E069102740124F5A4F4100789EC75F782,
F91D39981C6BD370F9D30C9B0970FA6BFF01,
E840F59C0D5AE8A50C51F5F6F7080448FCE9,
D1E8BCDA1766FF16E43B1A1B0FA6118C0CAC,
F6FED6B30B6DFD65EDBF058A093C0B370745,
E3BE0291170AA9D5F8B517CBFB7BEA6F203A,
;   output 44
0203FB3E1B09FB9CEDD3F474009E07E3FFE4,
02E3F5A2EDC0F4DFE061ED1A0B98FF6CEABC,
E858EF96FC64E1F1F65A13C7E7B8EE73116A,
D9B5D74824F3CA74DD8D0E3CDA0C04DC0733,
E5E6F84C06A70A01F18E04B3E875CF6FF076,
FE7C0DD80E0A0168FB4E2039F6C6FB900561,
F4EBFCC8FACEF3F818C2FDF8FA99091C1136,
0B061435AB81FCB50AACEA030FA425C3FA4A,
2880FD5207CA0517DB3DCA090C13E124D16C,
024CF68411C707BAF1EEEEBCEA5609370254,
E5600896276E0BC1EA320D1CD660FFC9F06F,
D4C203F215D7F316F17A3045110C04381C80,
04B906B8DA9C0B3310CAF2A10216FF3BFFD0,
2A2AE94FDF8B131BE185D9D404B9EA84EBB7,
F669E8FFF852E6D6FC1903A9FBE9ECE10C18,
EC39DC92E346EA820507C7F5FA931207D3A6,
FD382C0A0B0ED986EC3CE6BC03FB16DC0B75,
EC99F51F20A9F368DE481CACEC5E0B47151D,
0061F60BDFDC0DC6171CF904F3B9FD9FF547,
2ACA1804E642226EFEE0C9F2F52BF95D07C5,
BE7DFFFEFD42CF16F275002C0AAE0B032033,
0B79ED1FFC7016B1D72D021218ECE369F1C4,
E65A11CF26D3DC1C070BFB76016EEF35ED6A,
E3ABFD8217C8EE6504F40F36E6DBF6EC24E9,
159F1858F2C608E2078104BA0E7C19F203B5,
0424FF90E7D0CE30EF6DEC7A0DA702A8F205,
25781055FE841C0EFE7AF936FAB11386EFF5,
FE11E63D172AF5F6EFD60F7FF268FB7F1AC8,
F856EACEF737FC14B1D7D75C0D41F48BE4E1,
EEA1C706F3C3FD3AE9DDC6AC1BBE02E1D55C,
F09F9AC7B0F4EDECC812CAAE02A1FDD0ACBE,
C231EF1F0C1ACE3EDB4EF3A2FC06F681F7F4,
;   output 45
FDD7FD7CF8CA006FFC3EFD6AFCBB0316F842,
F72DF61000EFFC08FEC5F898F9EFFB72035F,
FAB7FCF0FFB8FD5B0196F812F83DFC98FF89,
FF3CFEC00059FDDDF799FD66F9CAFA9AFEEA,
FF3AF7B6FE8AFA3BFE1AF862FEC80267FC02,
FC21FA84FC2BFA47FA60F83DFC79F97DF9D4,
FD3D00B4FEC4F94FFF65FB0FFE11FDCFFD48,
F76CF9950031FEA6FDF4FC29000DF910FCC2,
FB98FADBF53F0133F96EF85DFFD000F7FCE3,
FEDDFD3EFED2FD3AFB7EFC80FEE6FAB9FAE9,
FE86F8FC02090204FBE5FD8A003FFE9FFBC1,
FA08FB720022000DFC7EFD0D0390F84DF946,
FD0BF9DCF910FCC2FA440055FEE20015FADB,
FE98FE91FF7003BFFB2C0074F746FF740208,
FA750013FADAFE02F91C03B200E60014F94D,
F6A3F7F7FD36F8D400CCFD0AFE50F3E7FF4A,
FCEBFB43FCADFAE5FAC8FF88FE49FD5AFB21,
F9F0FAA9FE16FDE1FC41F8EFFCACFD33FDA8,
0115FC57FFAC0196F9E1FFE901700207FF14,
00C10044FB1D0233FC7100D6FC570104FCCC,
FFA8FF07FC9AFF9FF90EFB1C003A009DF6FF,
F9E6FCD1FF14F98802D3FA3DFF5302E4FE88,
F79EFAE1F9BC01EBFE89FBB1FF71F9C200B5,
FE2AFD7EFEA2FCE7F7E4FE10FE52FBC8FC23,
FB9DFA9BFEF2FCCBFDBAFBABF7B2FCFCFD8F,
FE3100BEFFFBF5F6F860000CF8D7FB3DFFFC,
F96D00CFF7F6FF6FFC48F96B022DFA8DFBC6,
FF03FFC1FA65FF87F509FFDFFBBCFDAEFBF4,
FD94F5AB010BFBBE00C9006200CA03D8F9BA,
032FFE31FB6B023AFE67FBE9FABBFCE0FA66,
FBDCF99BFA9AFE9EFEA1FD7DFA9EFFEDFE97,
FC26FE5DFAC3FBA6FAA301FCFBB8F89DFC7B,
;   output 46
07AC003AF8C1E18B149DF33FF7AF23A6E966,
EEE7FE1D0FC2FCC0FEB112DE0969111DFEC7,
ED7FF0E2EC78DB581C5E114CD3FA009EDD73,
17BED717FEDA0357CB35E3430E520DC71899,
FCD9057609C3E9D3092CE333E12014C2123C,
1521EFC0FEF4FA6C1EA7FED507E2240CF613,
E4150535EB9025C9E5DFF23706BFF353C1F4,
F7CD0562F1D5F3D828330C0E139EF4771347,
EF95E8F9E7A3EC13F6F50186F056E028FFC5,
037C0BC2FFADEE13F6D5069EE4AE016FE63E,
21C9F4530C4DEC3B184CF313A0BDFE63C29E,
117607B1DC640EBD27B5067BF90CE7F00D3F,
F3E0093CFE95DE6E03F9F2F3008FEB66D319,
F64410ADF6DBE0ECFB5FF67EED5718F1F685,
F585E929E41EC421F408F2B1B647F76FDFA4,
E9AC07E6FF5BF83DF2FBF93D0A20F140FE15,
FFA5EEC1EF72AEA2E4BBD345CA58D8DCD9C2,
0C86F0ABED54B7A4E39C0961DACC0937F952,
28A805171C8F099D027D0E6DF6B5FC77EA42,
20E00D212C2CE4AFF2CF0D2CD6F0E7511347,
F473F9DF0AEFFD82076C092A0D571B94EB6F,
D2A4ED27DD50E3A6DBF3EEAD8DA0DBD6E049,
DDEDE92BD571FDB70168C81EF81DF108F6F2,
EC40109DFA7AED9EF6E31AB4DCA202240974,
DD9F18FE0497E7801DCE1350E2FEEF18F929,
E6ACF886EEDBF52DF660EDA6F2C3F0BBFF9B,
FFE0E03CD35E1636E35AF0BCD6F50D9BBE07,
0BDCC5B7FBBCFA39075C1A07F2B816A60615,
EF3F0EEA067D09A81A2526B5C371002D10C2,
FDC10F230931F3F51B2DFA70186B05D20FB7,
D569FBE60AFAFAA3027CE1A1FE41014D0E9D,
FBB3EC141644027BD568026EF4D80B8B040B,
;   output 47
045E0CE7F7CFD4C5EF23C4D2F91B06330D22,
084EF2590D81F76DEC05E22AEAEDE4ABFD40,
19F504CB13CA01B1153712F502B414E50533,
1512F534EE9507E1DC6FD336D693EFFDFD31,
0C0B0AD3C7060076DF9BCECBE180208C15D3,
F27C10531524E3ADFAFEFA2CEA6E0BA01A58,
FBA90376070816C717EAF1A0F445FECBF824,
D759C5D110640D5B0F8F0BFF0C05135B0292,
0E72DABDC6C207EDE136FB360A84023E159A,
F42AF1A80B9914F4F7C621181857EFBDF0B8,
F9DC16220E300157EE82F6E8149A0A74132B,
1317F220EEE516CC0DCC251829FEFE6D2325,
0550F472F2040ADD0AA5FC32FFF8F3BFD870,
03770CCA17710208EF77001CFDD9EE0AFAD8,
0491EC2BE34AF197DCB6084DF9C9F1B31653,
F6AADB8CF6CC04AFFB74FE0CFEF4E54EFF67,
F7F6F59EF34CF8D71159EFF604670CD9ECC7,
F7F0061E0BEDDEAF0744E1D705510B630FDC,
0842B7B1EEF5078DE3F70C4401A5F7A8FA34,
FF7B0CB60CFFFD6301D5E7AFF0D0004EE511,
D188D7190EB0D38EF642F9EA02460676F881,
F4B9EBC1E395F8D3D333017BF4B8F5B3ED1D,
008BF39102FFFDFFD60ED1AC105F01DBF764,
F18A0D8917D1E659FEB8FDAD133902AC023D,
F4160FA91213E9A3177B1F61F099226A154E,
22D7F15CCDECFC510421F400EEFCDE88EED3,
E466ED33F730D928FF930BC502F1E95503AB,
1839EAC4C54B19C6E747F1D7EC9309E52309,
25CB274CF60A0455F7DD0BDB113B09F30567,
DA6BD459FF870824EDF01C37ECFDE1670771,
153D0461CFF51D7B004D077401BCBE40F6E0,
16DA1175ED160719FF39D855E69CF2E01C38,
;   output 48
D4B2FF84171CDFA6F79B119A0A67F9D7EA86,
D48BC87AF476BAFEF028D325A57E02180C8B,
A61E0F891504B7580E8108E0CD27E694E704,
0AC10D8725130B9A024B08081052FF63EDE5,
C4300442FC04E8E5E366FC0E078DD940D4E9,
FDF7E4FE0FE6EA93E8A51747C347D9D3F6EB,
EA87ECE80E9411A5DE6B154DFC8BCBD01C7F,
0A96C02ACE9B0AD7D5FFE4DFEC540BE108F3,
1484F705E95BF74C1370C5150F8C0A56D0C9,
0CB8ED8BF27E07B4F3AFE9090C99E7CFCF26,
F83FFA1D20EEF288F37CFEC8120DE3A8133A,
F7DAFDF60670D7A4F0C0004DEC02EDB50219,
1EAB0697060315D8057518A709C7EEC715EC,
082ECC3FFC8F055FE396FED80EB406AD027A,
E54601FC17050D2AED2D0F7709C3EA63E7DD,
152BD0D3F2C30BA10DBB0D640EFE1B3A0D05,
F56CEF71F01717FCD57505630CD405AF0B19,
F8891A16FDA8EE9DFDA110A3F0D2DF58EC7D,
127D04F28972284F05F3E5F710F0072A0D74,
2025E15CB93EED241EAE0F47F507076B0A21,
071BFE061238FF1AFF970A6BF907FFD40AE9,
1597F61406A5F9C5EAB10A6518B2F048032C,
EC85F00DF9CAF328DC50F19BFD10DB6A08CA,
F495D48EE3811F7814FDEE5D2344EA59EB2E,
F942F1D5D03A076BFFD8EEDB021CF042F777,
EBF8FE12FCB7E1FAFAB0F1DDE73AED7D034A,
E1A2E8B016C5F98EADA52010048DE018F478,
07780A29F069099EF40A07F9FF8503940E03,
07D0F4C2EBF8EAD6F96FE560E8EC0583F2A8,
0FEC039ED78F0900E82CDBF3F0F1F7760941,
FA5BD91109E5FADEE298FF8BFFA9F013E9B7,
0007052F0559EF1AF73A07A60456F9BB0909,
;   output 49
C9FDE7F3FFD1CAE5E77DCF0D9D6CEE0F038B,
F9E3E75CECCA0089F334E40A008B08DD0F7A,
DAB8ECA8EC7CF8ECEC78007FD924E54214F9,
1ADAE9B3ED73FB31D5D9D5EE0F070822EACC,
E699086404B10C8CFA41DAAEEB56E124E64C,
B3568CBCD2DAE0A6D543E417E723EFB40E23,
D7AE0CDC00DB00D7F6E6F6920E8515D22F68,
FD520AEEF77602AD0425119817F7FE6B0373,
1D0605DFEA18104912F705C9FD2CF2180548,
F9D4004FEDC5EC3F02F8FCDFD5AD1C0905E1,
E835151C18B9C4CE0B8220B8A6EEFED20027,
F0E8E875E91E1039FC59075CF587F8D2FE97,
EF3B07480746FDD600EFED8A2A8F1C5E21C5,
20DB18A0089B14A7043E139A04290229F566,
EAFEEC6A0BB31B2EF665F2F3FE50D4B415C2,
08DE00C2D5EBFA9C010F191E03E61BB30319,
02F8FE13F7AAE04AD41CE0DDE842FB4CF22E,
CD27BA73FDD9E3DC9A4CE0C6C29DE60CF856,
F9DD185605A20AC71002FFD510AF0A1C026F,
1C2016690D4913AB0FBD02890431F93A01EE,
FA310003FA7DFFA0F75DF9700FF8FFBB0AAE,
EA6EFC1710FCECDDFF0A1003FFAAF19C1564,
088704CBFBCE02E40162E3E8DCD11E92FC39,
02FDF361E0F121C50A420E14F568FE6CF5C9,
0630FEACD37804150B48F97B07C602DCE9FC,
0F6607CA0C48000AFCCFFDCA0082048E0483,
D1D7A0AAE35704E3E301F77FDB49D7A408C7,
ED8FE490DEA1E2FDF127E87AE850DC7ADEB7,
0C2B155819C2E3910CAC004899E2D5D0ED4F,
FCFC12020CBDFBEEF500FC220255015E0B78,
08BE0E280761F3BB005BF59CF3220BD4FF21,
026DF5DF053EE829EF04FBE60A29F78200B2,
;   output 50
EE0202110197FF8916310B29180B106E05AB,
07F80830061C02EFFEF700BF0319D5FCE27B,
05B1EFF3F2FBF70CD2CFFF33FBDD0B1B0796,
1749F2A901ADED51F5DFEBD3219C1F70FB7D,
11D30FA4F712F7950352162A1F371AED102A,
04160CFFFDF4197712720FAFF5A21ECEFF6C,
15B20633F530DF20DCADF191E166FB910B11,
07BB07AD085DFE40D5F005F4184B012902B3,
01C7E9C3F7CCD29CF537FA77E95DF5BBE304,
079E0C6CF7DDEC22E6FE0374E5F913ADFE65,
1B571CA40F7FE7CC0875FB8D13E1155B029F,
101505B0098DF44A12C128C627F73613E6F3,
27CD178D0524DFA4C83BF013B6EACC53068E,
DBA4133A1295DC7807500A66FF2E0572F664,
F6B8E093E894EBC81335E2BFFB170379132F,
FEAFFDFC1B0BDEFFF2B4FDFDFFBDE198083F,
118C0BD70E09F519E740E192FDC7D247EA9C,
0843025303AFEE2EF2FD148DF94310B00344,
E5171FCA1971E5ACFFB2F178EC9A1519F14E,
E4B20A6AF221D97A058B0827D88FFF6A04E4,
11490FA705E4F4D9E395E8ACF3F9EBDDFF24,
009EF6B2F841F573FF5B096BDBE5FD3A060B,
FE44E9960C80FD0BF09ED74B0C890F9D041A,
20732D9008FEB0D0146C19FDEF4E217324FC,
102D0C630D3A0585D27AF330DCF0DC0A1989,
1A7A0CA5FBECE94EF095FED418C8CB76EF71,
D581E558E76FFB86FC3AF728FD401A81211A,
0C4B08BA1CE3D803D9130183ECEEE7CF05A7,
00B812FEFC7CB6F7DE78C0940C8EF4D1DD56,
F6451E7F0FD3F13AF499EB04E8F6D92EFB8D,
0EA90C5EF03EE793F7F612CB0520F7D3F72F,
1DD20A2E0A4CE4B7D843D3DA1A4CF052F818,
;   output 51
FCA00F932E85FA9F05F41A330C1EF638DF38,
EA3BF6E9CAA61736F38F0506FE40073C0946,
2476F6D2F80B2447E6EBDBF60570ECAEEF6A,
0BD708843987EA5B0CB22256E7FCDB43C280,
D171138A213B0682173801F50297F3BDF052,
FE271C1DE599FBFE0929F789074DFA18FA60,
0019D462E30AF49DEEAB024FF9DEFB591642,
EEEFD48BC44F0552EB1B01A6FE0D0A260FA0,
17AB1DD103BE178EFFDB0017F65EB96700B0,
1110F36EF90D052BF93AFCBD216B0F91F6B3,
1014F98F068806AFE3A0E38F11E5E223FBEB,
E1ABF62A0B72C431E3DD01C3EAEDFFA10200,
E6A6ED8AD5E40951EC7108FA0136F9260895,
DD43F593EE04C1E2F4CA082EE900F9C90D8D,
FAE90B06E63AF80CE223DE02F22FF622169E,
1019DA67ECA80DCD0F8C0F93D9720B8A11C4,
F212F0D7FBA30650FDBD127BF59509E4174B,
1667FD1D0FCB0E1AF9ACE7EE0066FCAAE74D,
0D7B02470A1222EAFE01FAD015270A0EEBE7,
FE3FE071DBFF1881186406EAEC2E00A805D0,
05C6CF8FF07CF8B8DC34FED10B74FB5F0126,
036813BA06EFF849009EEF44FE2BF45C124D,
FF20F9A41463088EFD0BDD4D2622F409010D,
1823F3C717D4123BFCD12B6FF32AE38E01CF,
EED5F094D415F5DFDEE3F77A0616F097FFBD,
FCDA02B91225F7EAFF1C21C5EE0FE2E5E716,
10890861E51303EAEC17FAA81A9C06281AA6,
0DE2F2D4D6A41155FBF2F60E0422F0E5FECE,
F1E30235120D10A1ECC9F56AF56DE2FEE59C,
105CF7050536182D08D90000F882E759F76B,
F3CFFF3E092715A706171393F1B30685F1E9,
03FAED6E138E0108EBC0C0990A2BD7ECCBE6,
;   output 52
154A030ED198EB48DFF9E871FEF4D2C3FDE4,
1102FCDDAF99062CFF0EF44AFA22F81B01A9,
EB8DEDC703D909500D08E70308EAEE5CF1C3,
FE9A1658F947104C1202F819F7530A40F6B3,
0C7611B1EDAF09DF06B70390FF07EEF104E0,
FEACFCC1E64AF0B92211EBF10148FDDCF877,
FD39F714049FD60C04DA142306E30FBB10DD,
139FDAE9F4F51263190CEC8C0BB00602F422,
F59DD51809C5FCFC0A9D056AEAB00B5E0594,
D9C1F214F9F2F9100E540649F677FE58014B,
F9A9C632E336FCAFF5D4F750FD69F7B503B3,
0D19F9BED9A31BE31A5CFB6B12AD1A77057D,
F29CBCA5DB86E579E9C9DCF0EFA4F5B5F4F9,
F418191803D309761152F886E73016A70127,
0B1BF327BABEFC760AADF6B916B903A2153F,
F166E6E6F30503331564F19A04D2FF76DE64,
0AC8C0D6F904AA5F10AAECBCBA66EC230F39,
B5A6227BFD53F1B61406EFA3EDA3F5A2DB9B,
D514060DF955DC80EF0DFD142682FDFFE80B,
EE68145EDBBABB34E3D8009AC8E6E78FFD88,
FDFF02A00A040F75055F20DDEEB5CFB5D5B0,
DE06FC88EC8AE577088AE10C00AD0129FFBD,
FFFFE80BD851015D02F2EC3BFC7A01EF2636,
058804AF2124F6E40594F131055DEF1F01DD,
FF81D3D3D75C035DFA61F5520760F58E0163,
F6A1F9A300300A9AEFCC15570BD4E7A3FB1A,
E43BF11BFA3FC500E347E13EFE04EE9DFA1A,
EDE8000BFDCBFFFCDD5E09FDC1C20291FA6B,
1B7AE9DBCA5BF146F00AFB9BF99F1407EDFC,
F19CB23ADBC3F02F03570236FF6D0C30D034,
FADAECF3A3A00400F80E08D3025422E5EDB4,
036E0A8908B31613062C10C2F874BAEF01BA,
;   output 53
F8E0E86CF1530DBE0833F8381362FB8AC994,
0293189F0CBCFAECEC3AFEE90320FCE6FA67,
FD7E0753003B13C0EA3A038AF924EFD1E7C2,
1101F88FFF0FF735CC68F924E2ABF1CEEE63,
FD5D04F8F821F36200B1F82101EE04FBED60,
04DB1C551833061DF292EA6D0ED8FA3FFCE4,
FC311C8416E714040C7E1B21F53FEC1BE498,
1E9B0FAE047AEFEC022206D60009023CE7BF,
FCC3FF9B0C6B0AAEF5320480C999EFFB11B4,
F45D1E520133E587F44FFA6F181FE9C3EEBF,
EB1DE7A4192DFEF4F7A8E30B2990164CF944,
1DDA1D96075C14A7197D07AA1D821ADA02A5,
E57B032D1948E9D3EF6B0C70F3EA03B7E0FB,
DEB8DFFCF3470EAE15600ADA0BCE0422076D,
116805BBF58C1C9F15640035EBEDD063F43A,
1153FD971E41E8E1D885F4F0EFB5D480042E,
03D8D63E07420248ED8BFB78F85AEE2B0F09,
FB1203E602160856FB5AF8560E27020E131C,
021A04F60727D2C3CD60D8110A97229E02D0,
F64BFA750609E54ADC51FB70048D13EE0683,
0F6E0B6A081EE754F1D3FB66F80BEBBCF0CB,
E5E8F15DF93F083112CB1CFAF76523EB0E45,
04CDF55E028CF1FF08940873E436F600C669,
E1DDF75E0034188E1232F225113DF7371318,
00D60E5BFCC8FA670E061978EEAFC886C3F7,
F8081DEC1686E6BEE74513650B15CBEDDB2D,
DE1BF7B12650187806E80E8DFA04F5AC24AA,
F3D6FE05F0CDF067B0CABD5005D8D17A1358,
1BBBDA7BE51EED25DEBDD529FA4E09731790,
F4A90842F211F801EE6F034A08C4F6A502EF,
FFF9133200E300C6F8CA0717EA09EE19DA71,
028BF9E40BC60A93EB95EDAA06B7DE1303A9,
;   output 54
F17306F6FB1DEE53FB62EE0003AB156E0912,
FA40DB13E8D5FA33E6B71330FABF0165E58D,
0E2F109CD071F54604FA0DE42A49217CFFAF,
F015156E0864E24D0C94026B016CF4E907DE,
E78A0C1717E9DD92026B0F5BEEA8044408E6,
08DFC63EE767038C159803F7F7C1180A0D82,
FB92FF3720DEF7C1FC65110E0A1802BD127B,
0CE5E5C40F88F96CEE5B17AAE6B1E689E24C,
EAD00E21E587D5BEEDA4F67DEFF1C59E05C5,
03B8F9D4F7B929880699018FE6D9F629F262,
EC01D27FFF0ECD9A17930E94F7AA07950FB8,
06C2116419330DFE217D0887D85A15E90BCD,
03C6F3A4F8A417FA0803F0EBCB9ACE33D8F0,
22BD18C31357120A108DFBA8CB5AEED10F90,
F7C1071F0E60ED0E079E1352EBE5EA7309D1,
FE94091407DC007B0A1916F5FC1507441045,
FC20F6BF0548F0C907E7F9A9E203160808F4,
0F28F348FEEDCF2711D5F5780E3E0EFBF94F,
120508ECF119ED9BC17AF5F3B078D6131BA7,
F9F1E506F12C16870BA011BCDEE3F7E3EAC8,
E840E4F1FB750D5BE995F1191D7603A10F97,
16EBDE1FE9C3D762F12BF993E0D7ED7CF853,
E6531772F74C05E70912FDDA09F8FA2FE4A7,
D53906F1D880339BF1AD1871F6EC010107C9,
F5520DB8EB95046B01BFEF7426E200D8DE78,
E884E54411C7F73BD32BD3E8FE0DF1A3FD03,
F580EA8B07AAECB0EC69F7C9F0BB06FD00B4,
95F005B40615EA16FE7800A2F27900EC0DFF,
F38C09E7FF9ED079136EFA9CDDE2F07CDC4A,
24B40A53F9E8ED72DBECF747A190E58DF5AF,
F537DCD90DBEF843F2B2F049DCDFEB63FF27,
8192E92FFA9EF8EE03720AFF0B2B03650C62,
;   output 55
0F4DEB360F02D40EF308FF7BD06F106C025A,
0F0E0A26F7E40623E95401CB0A4FD1AE0C2D,
186004C2D8BEEF87C904E85C02281C1A1580,
EDDAED041FDDEB8405381FFBDDEAF31F08EF,
F731F35F1885F214EBCBF8E2DA91FD730FA6,
1CDEC538F01CCB07E47FFC59166BFA3A044D,
F83FCA4FD871EC47069A04981DFE0BF2F0DC,
0F7DF7F302652130ECC7EADCF6C7D728F0AC,
F74B2296FC84049EF89BF981002CE7E3065C,
FF2DF92109CCFEB2F609E161F5FFEA2CF1CC,
FA82FD5F11D10549F4F9F5B32EE70E30EAD3,
136421431623194809B7F8E9FFAEF56100FB,
07A500520981FC7C05E2F1B81DCCEB47E89A,
0B00038B16EE11DAF1B30E7CFC5909681317,
06C80430FE67F14CD854E6F4E38A1379FD88,
F4E2060C28D9074D1BEA12BB0D98E855F5D1,
022609EC0E610A1E016AE56B1F8D0314E4E5,
0129F47EF474ECDFE6051DFB134D125E0F95,
001AFA24FFC521A90EABF553DDB7BDD81BBD,
DE78ECF5E8AEFDE7E39C3108FBB80B292F1C,
F846E62AF9A3D715E6AEED0EFD61D590F2DB,
0877F6F2FA0CF77F0136ED61EED4FA910CCE,
F79EEF9B1472E69BEE81FF761C09050FFF70,
09F2F01B1E212761F8D309B5E40A08AB2052,
143E22330421090FE400EEBAFFB3E6F7E319,
05E6F90AF86E0545ED01F7C8094799A3E394,
F956E145FEB3E929F9CF0B361C872342F2CC,
D472032021E6EFC304C2FA83F08EFE270559,
097900060CC20B6DF420F1B2EDC12C800437,
FDFAFC9B00AE0080D561EEFEEC14D732FF15,
FDE9FE710058024FEB950EC20F09E31EFD54,
0365F71C0FF9A4E9F8D50B7ED7E7072C0F76,
;   output 56
068AFAAAEAA6E20B01AFC4F905B624E4ED43,
F8BBEF6006C3FE4EBF6E0003114604D61FB8,
EA4613280867FD22F5FFE7640653F1FDEA7C,
20BA0BE2F23C0BF5FB66BB00FB85F7F10438,
FFB2EFA818170737EC3EFC75CF15165311FC,
F3F207E21306FDEA00EFF4E5208810E30223,
FC31FF20FEF2FE51182CFC810792EBC2D96E,
F8BF159A05EDF887DE7418BADFF9E0630D67,
FA3CCA55E646F1A1151EFD2EF5910C5F2331,
F1B9EC1513EF200EE8D5D5BFD424CA5CFAEC,
0223F7ACE8130B40EF11D6DB0FBC0946E394,
03DA0A90124212E31A6AFA93198611F8E418,
13660EE82AE11A60FCEA0151079AC4B90486,
F3ADEED4FCF5097C0F5A13A7FE3AF900F7D5,
06DBFF7B00FF06E0F4C5F724102E02E0E6FF,
113AF28F15EC0A32F9B7F85CF0CDD4E6FDB6,
11FBF96CDC80108E100000BE189E15710623,
0B91F759F485F458FB73D80A120326C4F2AF,
F34CFB42FB420018FCC80886D382ECF7200E,
00D8096D0EA307D3EB8F20AFE05DF18A0D34,
0E63002F2CD6F389C526FEE406D7CD451E37,
0868004804EF0E29082500C4F88F03E71903,
EE1DE730E43C13DD03A5B1A4FD23A5BC022F,
C54515850F6204B9FD98092232570FD3FA65,
FE9B0CF7100A0D0E0A8CFB95EBFFAC5B0532,
0570026A25D0F8A3CDCBED80F1C6DC940818,
F3E1F708002F1B1513980A4307880757EBBB,
CD7ED870EE94DEA80F1BDBC41B4C0557E337,
F774E77EECFDF85BF514E888E5C218331D6D,
E7A0BD88DDEE1353F8BA01F4E854F07805EF,
0626DE56092F1A22F99E10C2FB10EA4707D9,
020CD98106DFE927D3B6FE3A054C043600E5,
;   output 57
FFA5FC57BF6BFFFCD41809C113D7DC340750,
FC71DE3C0F5806DBCE5609060C01F60CEA13,
1697F243E7680527F52B0578FFBCCF2A0DCB,
0BB307ACD41EFD99CD48E25DEAFBE54406FA,
009D11BDE713F19ADC57F7E0FC1D16E9148E,
EB31E250FDB90DD60DA9270DFE2EFABB13F0,
E19E10F12896EBDA032201DAF065E4D40554,
D5DAF86D0C251BBBF8D0158012281C47EC46,
FEF8FDD4FA320296D562D63E0C1FD014E86C,
D411EE87EE57E92AD82CEF9B0CDF152D09A2,
0E91DE00DBBF0BA6EFCDE8F8FE81F9D6216D,
01E0008C02D4F3242E5312A91916FC7BF947,
DAC8FBCA1F87073F124C162C1131194AE87B,
0CBF04B1223C06790763F6770533CCACEBD6,
FDC1F52205C4E4CEF3331031FB18CA23FE67,
F74EFE5B0AECFCB5DDD2FA46FAF31EBCEECB,
069503C70F87EA80F7941783046DE8CC0753,
14DB0AE3E0FE03EA07F3E6CC105AF465EB0E,
DA6AEC740DA6ED0D1651FAFA0BAD193BFFE9,
0ECA0B581F0EEE102585FF35E73B044C0B81,
F1C2D6CD02C2FC29CD5512A300A2F0391FD5,
FEE3FF45FAD30AE504FC0C86D1A4E336EAA3,
150DF7DDE222F604E4EE1FD6F1A0FBB2F665,
03F6E8720969BE63F8F0153DD30E1A770522,
DA6CECECF688F2B7E2050DEBF31106730114,
EB89D9CFFA9BDE2AA173E3E3FC70F5290785,
0B91EF2BF786FD791768E6AE0BC40BD6DA47,
EFAD1CFCCF32FCDB07C90375EEE3FFA21E6A,
FD6AFFBE039F1522009710FEFE6E0543419A,
E27D035206851699E79F0A0D1D1CF6BDE440,
E347F4E70BF7FA8BE594CF6818E0F72CE650,
0DEE0229E321D2FBFCDBEBC6FA92FD68120D,
;   output 58
052DDE1C033CF2B6E75FE090BA8CEB0200E1,
01FFEAEE0FBF0B24FBCBE55F11DA04B90E4D,
E898FEA2253DFD81FDB3113B13BC064410F3,
1809ED410C43F295C725F3A1DD07E6A3FE99,
FBECF271D539FAFAED650FD4013102E61191,
050CF61842D7E940E4430CF3FBA3E2C3074E,
EC2400870517F3AD036103DBEE210209FED6,
F3F505DABCD3FEC404CFED6F0911122215C2,
0DFBF666EA0B13750A5BEA73111607C4FD3A,
E094D00CE1DEF391F595FAA9F6ED0595FEE8,
EDE003AC2C77F3A1D1980820D929D54BF8C7,
F155F452006FFCDFEF12093C1F971C99043B,
E041049608D3FDBA06630C400363FED6F71B,
351115B4E5070F12E665EA9AF058E0ECE567,
0DDFDB91FE9FFC690877126AD2DEE1B300C8,
F3A8EF88ED46F4B618E4FF11218A05A50BE9,
F65C088D1A80EC67D398E8A5F446FCC2F1AD,
18B5147106D2ECEFED320223DC98C96EEAB6,
C6880BBCF82501BC0B32FEAE1B0D0F8C1280,
0D9A2D281B55FF38EA0DEFC6F8E0E24FDDB0,
F97FCF1CF46F01FBF653FEB30372EB011C64,
065810632400F23FD3D429FAD727E156FAA7,
0325E887FB7720CEF4E3F0C2F22F108413D6,
D1082161F799CE5CF6E5E2DDD88401F31DFE,
EE1CE226E31A280508900FD6FD23F5F20BB5,
F46F0D70CADB0F44EFE5FF4E0EB3F391F8E4,
1A2C09D81FA1F3C9D94DFD60C970D07DD831,
D755FD2724CDCEF4E2E5F7B9FD3201BDFB82,
094FF94524E0005EF9C9037603EAEDDCF6EA,
0FDAF777C0A7FA710071FDD2117412A80078,
098AFF52FA8CF8FFF383EFD415CC0022F68C,
0123E2530689FAEBC71DE9D2ECE3F0B8FE89,
;   output 59
FD3EFB6C15C90A55086D0648EF2C0A78EF90,
088BFBD9B9E6D60EE589F448DF2807910957,
06ACDFD3EAB3FE82026F04930B8FFDFAFE3C,
F06AE1D31455F689FBE203FF051A09BFFAD6,
BD2CF1E30E7D02260714042A0C95044022B0,
042B0F311468050614391F9EFF4F09B00BF6,
DACCFEFDF9DBF4DF01581669C632DC44F5DF,
1398E6378891E3EEBA8FEEADEC1408FE1BC6,
B6ABE316FD7CD764F06BE44A023411F00778,
E660E18EF383E187EC0F0D7B1297E44C0739,
02B2156F287A197EF63AF07D03340C130614,
09A6E0A4D57C0E09F17DEB5B145216B70797,
A875FDF0EB27B16CC99ED02407BEC7C2E6A8,
B320FE2AE1F51647028D195AFE95F7DAF686,
138308D6D786ECD00B261A0B00E3B5E1FD0B,
00600ACACE09C3F0B8FEB697F8B5DD54F0F4,
E89212C912B50484010911FCF2761107EFA0,
126BE932ECF0019E062613061586FAD20505,
F06CD70EFEFCB3D7CD10EA3FFB43FA29DD9F,
C5BDBDD8EF50F8C6EAEDEBCBFD8506261028,
01750ACB0726E9EBDCACE62F10A40C76E62D,
F9D2FF43E939E6F20A0D0F122021F8A7F647,
03D90F6216D30F47035801D102D4F4DBD993,
06A501D0154BF500E488EE1E0803F555E818,
F79B074FED8FC014C67EE2EB01A413260165,
F40EF0E4D0C8E8FCCDFCD5720CF10438101E,
1997FEBCECF20124078107CBE249D2ADF5F8,
F4440E1414E9290F1FC4101F0364F97A029C,
E142E14DE64C1136077A01BAF104FE2B128A,
E1B5FF95E24AD4A2E7B500980BCC045AFAF2,
FF1D0BA89ECC028EEB39F8A4104AE578095F,
096A067A1E8F01C2F58607DE0CFDF68205DE,
;   output 60
CEAEDCE8EC140D0EEBAB095929810B4AF1AB,
014103EFE7FAEA78E2A6D0E9D4B1E41108B3,
F546EA12D23115F7F2F6EA1402D3F8D0EFF0,
FC34C41FE1A00FAAE1D7EFECFE2AF78B08B3,
E4B301ACDAFFF8C8F04308231B83F766E84D,
01D0001510E01265F42C1AC40E0D03500504,
0562EA63E6F20B85FACD0D3D22CA002AF40C,
F7A71693F931FA1D1569FBC3C12CC691E28E,
D176FB50126407C204F2FE3C0046DDB9F448,
EAE5CC0708BAF096FF69F710FF40EEC9DC7E,
0DA0E9A5F485175CFE0403820FD218E7FF4E,
1B3C1239EF12045223A0244DFE79E257EDA0,
E81922C81D90DFDB1E7115EAE6D8B552DA3E,
1430F8ACEECDF5E4ECC60F63DD49E40313F0,
E4A1F4AEF2DE08B8170D095611C70322E566,
F388E73AFD91EFA012BBF712CB61C9EA1612,
2B15F32BD62EE512FE82028FFE740CC8116A,
F228F1D4C7BA1C2CDE22E2881546FEC8F725,
027915C4107ADE22F099EAB703ECD2F2FFD0,
1D5C09A605C5EED4CA95FB98FE9EE463E53E,
E407D55DE8F4CB0BF8B60650FAFBF1AB0500,
E9A6EF43EF86F15909232775E740F65023D1,
E59A0096E79A001814E4058F1FAF016AF1F3,
2C1FD74AFF272D1612321AB81932F582167A,
CF70F0F1FD4F0801160C09BE0B67EFE30B80,
FC46FEE7DD48CAA5DB6EEB10D6D214E305FE,
018C0288045E0F2E0CA4EB52161908FEF39E,
F5DDDA0108792A8BFC32F2B0288017CA1249,
D5C9F508F471FE98F9D3F5C3FA4F0DE21BD8,
E30000DB1E3FC07B1132EAAAEBE7E1C8EB36,
F0F512930920EC5E13420E32D092EA08FFE1,
F0EFC2AAE496E136D1BEFD6DFF88137B27DB,
;   output 61
F4D5090CFE3E026C00A7F393FA6A144E06B8,
13F609DFF968F7D2F5F11D431209F226FD1C,
11DD168518321B98052D09D7E227DEBA119B,
F8C3F744152A02D7D4D1DEF014A7DF372178,
CC4CD4F91FECFC8DDD5F0EBFF7FA039A07D1,
0C750F2EF758F88EE74DCE3FFB63E4820FE8,
0931155603DDEE63EFB91115F8F7F522FD76,
314E1672F61ECAA9D4D6D49FF9A814C1F528,
BC12DB2619DAE4A0D71016551A6DF8D2F60A,
131B075CF4D00F04E85BEEE61226EC231807,
192DEE3DE3D000AAED8DE4A40C760DC21D31,
105DFE12FEEE28B905B4E588FCA40CD4F849,
FE4D0CF2073CF14FF2860D3224CBFF8C0725,
F9D3DF37F109FE3919621D2A19E7F2970107,
FF9B03E61C3AEC6E02EF0A9C069DFF4C11F5,
10680B15D74DE356F21E11C5E6A6F7E30092,
20F9EFF001E9FF0FE7E4E1131039049DF933,
102B13B8175407D1F29AEDF0EFF9EBBB12E3,
F2500C41EA89EACCC53D1258C7D2E24CF273,
FAB6EB03EF91F396F94406EC048212D00881,
0ACB0467FE6CF418CF1987170129CC80DAF0,
FA13FF4E1CACFD0A150B0B10F717EC38F4FD,
1340128DE4B8E418FAE7B54105792199DFE2,
158DDE51D906E210DDD503A3F23F0D821557,
0B0203C4E3ADF6ABF87FF5320D27D14D013B,
0123C9EBF4D50289024AE3140D45FE7BFD7A,
0CBCF143EA6D1FB8FD85E870F9F4DFB009D7,
1DE221331C56E9F9CD37F496F9AE1096090D,
C79BDE510897249B0BB20CF31E6D10DE0D7C,
CFC8EACBF5B8DDBAC839061ADC71FA300A60,
02F2F61BE474FC90FA33F982FDC512331B0D,
E2D4CEDAEBC3025FD8FCF668F5490923F83E,
;   output 62
E39417D6074BF741F1C90179ED720752117B,
E5BCF0A70D0CE223BE50FE37F8DDE18DEF53,
E3669E59FC111F76EEBCE5C70AACDD8B077F,
0FFB148C23261E4F055900401D6EFFFD0A77,
0940EDACE085042F03D1043CF80920091915,
C01DE011E5A4DFE2DE52D30BFFE8EA44F327,
A036237BC68BD82ADE23E2DC03A1FFF7E687,
F243DDEE0A30FC9D14C80F62ED2E0DDFFDE1,
14BCE8E2FBFD4120D248FF390B0A10B701D4,
D81E04DD0A020D3900F61D9EF400F882F464,
FAF2BE54E7D198B6C195FD5FEA1E11DCF950,
FBD9F2F309E8FF1D0A020F6F05062339F69A,
F1BEE5FEE84FEB59E2EAE3FC2FF71E7502F6,
1CEE0C6FF5DEF83DF1F8D44F0450FE4901F9,
A5B80717041117F5F63D0BA81658FB10E08A,
ED5413D6FBA1EAFBE71AE6CE2AE50D361B47,
CE5D08DDD64BCEE7CD77CDFB067FFD921D71,
E64FFEA4F08D0D54F15CF84B14EE1197F625,
E572F6F4EC5E01FEDAE4F7D512461CD60AC5,
138BF0BBE8730F7401FB0A561F5C0766F814,
0483136414F4FE1FE897F7990EB2AB89C6DF,
14C6EBD704D8F4AF060DFF151646E295F82C,
02AB0D8F0223FA0601B90327F819EE9E0382,
B9870E6DF526F010E61AF666F948F77A02B1,
EE6CD6D3F701EB3E260BF660E26DDB1A0432,
118B0918146EE235ED7CFA5BE12F0C2EEC1C,
FA5E080DF795C175FB17F471F8A5FBFD0089,
F15DFD63031DD478BD79C5BBF0A9E9A515CD,
F498E98CCCCBE4E2109BEFB70D3B192E1662,
08BCE6E7FD6EFD56C3EAD72DD0EFF2F6E7E7,
F1D4FE91F507CF9FF4DEF6CDE265229D0860,
0CC6191F1C63EE3CF645F6B3EA3303C00C98,
;   output 63
E196FECEF9B0DF03DD10DC1FE54000EDF903,
1091F39A13341F80DFD1F923FCDFE369FBD8,
021AE7BF28D3FBABF02D2624F7D2F5640654,
275F0E530E2F23A809CFF483F824F226B216,
FC87052AFB2CCD39EDFCFFFACCFEDF660584,
DC14D9F51528D09FCED9F6B62AD0010DF9E4,
F267FDEEF03FFE2C07B9EF921807F9FA1677,
FC12FC64D717EB27D99EE019D6DFF1DF0885,
1DA6F252D93B17A5EAE7D4BB000BF64815EF,
0566C353FDE1C5AFE63D06E1E05BEE85D3C7,
11280F311814D981F96F1298F31AE75EFC7C,
0CC3103E2020E287FBEB03190F4137FB0F76,
11CE1E99E61B1F4713A7F949133303B30DD4,
08C1FB2E0B800DB1EEA9028C05270DFFF9D7,
263C0064015213FDD8AE02C1FCF1F5BD163B,
026FEF32F2D70388137101D5F4D0EC87F225,
F614155B00740E861EC4148AFD4722F5073C,
05FEEE9824FAEEE00A7908E7F065E933FBC3,
EE460620EF841E6CFAC2FEA4FB06F4A20DA8,
331321620B2E106B04FE224E1B77FAED09E7,
046EDD86149810CFC204051B1104D4D0CD52,
138CEDDA0B4520D514CB0748020500D9FD28,
0A06FC131EBBED7ECACBDE36E3B6DC89099B,
FA55DAE407B3E8EEF2CB068C31F822FAFEF9,
15BA04CCFF7400BFF2160E17F068FCE6254E,
FBDD19350AAC15CC191915C9F197F83FE58C,
09920A500E3CE2A8F4090579F6AB19B0FE30,
0B030347F904EF5EFA3FCA1BDCB3E33205CA,
EAD1E3D5E9DDEEADEF160043E04812D615B0,
D9FCEBAADABC06D2D38CEF73F465E6C2F642,
E066EE31F8BE0BBF10750039F272F0D0E313,
FB4FFF64EA95099DFA87B6B3E51DDE1DE05E,
;
