; IP:     Block Memory Generator (Dual Port ROM)
; Name:   mem_dense_w
; WidthA: 128
; DepthA: 4224
; WidthB: 128

memory_initialization_radix = 16;
memory_initialization_vector = 
; dense2 (8, 32, 96)
;   output 0
F794054200FBFFE40030F3B3F695F9A3,
0218034AF8370503F9CF0713FBACFDF9,
FFF509C0F5B5EE03FD6208A6F694E98B,
009709420201F0FA0605FA6DFF92FA4C,
FDD1FD430402F7C8FCCEFD18F9DF0BF2,
006D0C7209C4F6C0FC1BF6A4F7F1FE21,
015E040F0190000F079FFE9BFA560475,
0D5CFDB4042BFE7D110E00E602ABF4F3,
00B8FFDAF97700AE08DEFA8902B7F85A,
019A02F1FA760FA700C90FE4FFBAFD88,
FA85062AEF7E00FCF96518A200900AC7,
1013FA05F6CAF2990079FF9A07FC079D,
11BBFE64EB46FFDD0306FAE2057F00CC,
0037F8A8FFD4FA44005AF95C002B011D,
027D0205F88EF910FCBDFECAFD78FE53,
0046047AF94EF1020D470308078B008F,
F08AF8FB021B05E203EDF21F00CB01A3,
04240321FF27FFC8F19C03FBF35DF391,
02EF04E4ED4B0526FD1905E7EE14020F,
06E4FEC1FD9B0B7906EC0146F8DAFD3D,
03850299FD370122057F035D0598090A,
FDE20BE3F697F99DFE450FB10290FE28,
F90F085DF46FF353006F00450552FE2C,
FE92FE08FF62FFE80803FF97F834103B,
0F8704C8FEB9F1250A75FC0BFEEDF81A,
0BB1F2BFF603FEC50BA0FF1C0CD8FC5F,
F93F1364F3900354FE760FFEFDE7FF59,
F9C6FE22FD0EFA8AF347FEBEF872F9C4,
0A9B0DDEFEBFFD09FA2106C70CBBFD72,
08A5F843071CFD2804C3F24BFB5BF5FE,
005B0F6EF44EF7D10667007EF730FA86,
0F47FF8CFC01F9F5FE350B2FFB43FE57,
;   output 1
054FF67A07A1028802EE04E002330296,
0265034F01D105E102A5FE88074E02C2,
03E90CB8F526F311FEB00D6A01ADF82A,
F7B901CDEBA80116FB89FE6EF7740069,
F7E3FE75FC2805DBF548F1E2F90103C5,
04A5F9BF021C0988FFDAF881F48C01C6,
F6BCFB4CF636FF35FBD8F465FED40635,
FAF8FDB8FEEEFC66FB910ABBF6B001FB,
0265FF18064F1158096F09C7009C028C,
0CFB0380FA780C2904680276FD31F984,
06B800FCF620012A02A005E4FA2404AB,
1071003600D2ECA9022C07760405068E,
F897FC42F78B0D4200F6FCF50165069C,
FFF3FC89FFFCF5C4FFFFFC87FFFCFBD2,
0AFBF0EB04200074020FFD4D044A0A30,
FCEEFFB1F1A1086B068CFD9CFBD50091,
0CA40816030509460963037802C2FE88,
FC80FBA3F8DF024FFF0600DF03D7FAB4,
FFBFF8B2088D0EB8FD4C0290FCE2F99A,
F7EFF9B4F38C01EFF7F2F7F70F12FC18,
05FEF5250434ED930911FB8A02C4FBDA,
F887F7B7E30008CCE38109DEF803FDF2,
FAF4FD0C0324E8DDF827FD00023501F3,
06C5FD1A035AEF7509F5F941022DFAF1,
F8EC0477F389013500B905ABF9C20513,
FD2905DBF90610D503280669F69A043C,
FF5F0958F8A8014EFF610655FD5FFE9E,
F9680A7AED5C00FEFDD50097F78CF76E,
F111F8F30DAB05CCF0E1F9EEF3770151,
0657086EFCA1F7C70653FA7D031DFD3C,
FFE5FC8A08ACEF53FB680061F5CDFB3D,
FD3AFF86F045EA7A0714FA78FB26F6F5,
;   output 2
FEFAFB6D08190998FD03F9D3F93CFC67,
041202DF0079FF3FE5CFFCFFE686F618,
00710B63FE42FC44FFE5FF53F7A5F962,
047DFDC9FF91FFE5F9200633EE92FB94,
029BFD02026207C7FF7A0580F29A023A,
037607080017FEDF06C00830FB40FA48,
FD2400DE0202007CFC2BFB68FDFD0009,
0394F81B01F5042F0735FC4201EF0236,
01B6062DFC14FBE1FCA0FE3303AEF977,
0A4DF0EB06FBFD2FFDCC05E1FFCE0394,
00CFF1FA0289F351FF33E865FCBFF752,
060D0737014BFD59FCFB0330067EF51F,
FA08FEF1FFBB02F3F9DAF26601BA03D4,
0001F42E0007F9540008FAB50000F881,
FDADF82BF1050498FE27FE40F164EB83,
0BD2F15100AAF7E9F9D5EA08F10DF5AF,
EEA7F48F0C5D03BAFB3F0F35056706A1,
FF8B079BFD2F03D9FCC1FAB7F682ED4B,
00F6F9F2F5000B2803DE0ACEF704045E,
02D204FA068D0789F61B022DEF4DFE7B,
03B10207FF83F7730628F292082DF614,
012202FB0029FE0904ACF32809A4016E,
F500FA8EFECAF97CF502F378EFEAEE57,
FEA4FD3504C6FD45FFEBFC6BF7B2FBC2,
03B600F402CDFB0A0330048C0857FC7A,
07010726050D0453F5260579FF3E0677,
0BE6F45FFF98FD39FE4FFEEC04BBFF39,
F7440463FC7104B6F814022AEA1EFF28,
F77D02D70806023402E90CD7FD3801CB,
008004D101B6007E0805FF56FDD5E7A7,
F53BFB01FF76FE54062A0AA70676FD56,
0B4F044804CD0A4B01F902BAE3F8F46E,
;   output 3
00C4FEB7014A0181037FFC6204D90944,
FE5C03C5F7BB0381FC19FAB00530F2C8,
02D407BB047101DAF6E503CCEB39099F,
FF02017EF3F406EDEBEBFEA4F9A4FA8B,
FB5AFD3AFE0F0367EB5DFC2BEBF2FFC9,
0331FC4DFC0800E9001DF82C022BEED2,
0303FA13FD09028CFDFFF38F040A055A,
F7B4FA840809FFF4FD1BF37D076101D0,
018A0871041905A7F610FF1D04C30828,
03240468023E020001FCF6BBFC7A01D4,
055BF8F604E1024606A8FDF90250F7AE,
F621FAF9FB370528F7A0060006EF096B,
F672FFCDF560FEBDFB950044FAFBFC30,
000302C8FFF5FC94FFFCF55AFFFA01B6,
FD27F7FC0196EE42044EF40F068BF452,
00B1FD4DFD75FC21FF7DE7F1F7AFE0D5,
F9F102810460012A021405BD01FD0567,
01D702B10248062D0150F9FA056BFA6F,
FABC0028FCC2FA7FFC5F0051F523FDD7,
05E6FBDAFF150C15FCAEE556F68CF6FF,
055DEDDB08F7FD4707AFF03DFE72EDD6,
FBAC01A0F4DCFCEEF74AF854F56BF909,
01B3F7520742FF2D06ABF9DF01F2FACB,
FEC9FF55FFD30479F28CFA98FC9FFA1F,
F9950306075503ABEB29F31F0043F7B4,
F420085AF5C9FF3EECA80F43F2F2FAB5,
F6A0F69CFD5703BE008E11BFF553022E,
FE530552F3580AB7E878F761EE15FFA7,
F67B05500121067AFA05024404F5F643,
FD2C0395F9DE0238FC6C0340FB1507A2,
F92101FDFDE5F771F7350458FA2AFEE9,
063501B6FCBA02FEF63602D3EDC8FF8E,
;   output 4
0705052A068F0A9606B206C90B9CFFDE,
05C7FD8C02160241FAFAFC81016201EC,
0123002AFC1E0D71F82BFDA60408FE83,
13B2F5EEF6F1FD25F9A5FA0DF78F1668,
0379F902F2280243F7D6F31EFF4DF3B0,
02B00335FBB9015902EEF50A0257F67E,
FACC04B0FD7CFD0600E4FE5D061EF385,
03FBFA8502DC00650295037BE89E01A1,
FC7AFC3D03FAFD9A0681155DFA34F077,
0156E6E204AA00BCFCE2F32F0475FD47,
035E01C1F8A2F442FE5903EEF8E100C8,
FBF5FAB4FB60FA84FB2DF847FF4CFBE9,
03CDF5AC0155F24DF99003E401E501E4,
007903CC0019FEE7FFEE0517FF9D048A,
08981379F5ABFEB0FED1F8170388092B,
03EA045E056CFE230A9AF950FD4204CC,
EA48F3BD0528016FFE1300900140F743,
06A70ABA09BC05EB01D6074505070890,
088200A9F57EFFC5F380FDBA0C66FB9F,
F907FC4000EB05F50A0FFDE607E1004F,
004808480490043FEE4600F6F3440994,
04190A54FAB4078CF95BF553FD5FFEC6,
FF9301A0F4D10715F48F066A0A99FDAD,
FCBF0B9D00DC0270016F091F0AF806CB,
FDCEF9030259F2200BC6F820F8BF0245,
FA28FB4E0196EAF1038FF2D7FE2E0ECB,
F76B0B0A04B90B2D052712C9FEC30108,
030E0456FD1FFF01FB30F696052C0F7E,
051BF627ED300583F86B0198FC57FAC6,
07BCF87D049205AD01F8FB08F4850A4D,
FD23F89BF87A066E07B400E11584F761,
FB4C05FD02FCF1560AB007270452F019,
;   output 5
0FCEFD52FB6A088C0BAAFCFCF2D3F87B,
05EE023BF859FBFE04A5FDC2EBE0EA1B,
FEDB092202770549047307D801E7FB23,
02EA03990155FED8FEAA0BF8F3FCFEA3,
FDAC040A02C70090F8FCFC71EFFEFBDB,
FF98FCBE096BFB0F04480B6C06C5EED1,
F782F1CE0476FD09FD67EB6FFEBEF1CB,
FEF5030703A4074F00F5F34E0793FDA9,
051E00CA017BF8B6FBDDF66DF613FB20,
0BE708CA07810411FED40124046EFC25,
0309EFE604B2F8FFF096F9E9FC93E9CA,
F9B1FDC80AEF0157E9AEF57EFB9C0936,
FC53FC5E06D6F8500680F7680086E23A,
0000FE9A000BFDC7FFFD0D9E0005F8DD,
06940BEA011101DDFE88FE51FAD3E945,
FC36FF1D0175FAF90479FA98F56DF663,
00470A0702CE00E402C805E8031F0471,
0793FF96FD81F18DF9CD073002E8F9D4,
011E0410FB5705D807050399FB41FCB5,
FF600AD3FEFFFDB8FFA2FE06F5BEFF7B,
FB75F88401C901C5047AF157046CF012,
01E3FB09FFC9FDDAEBD7FD43FB92F6C2,
01D50107048A0388F8F1F28DEC46F799,
0A0505A307D4075BFCD3099EF96DF859,
08B400F609C60418FE600239FA41FB05,
0995FE06005CF944F76F0975FBB408D0,
F62A054B030200CDFFBE0EC505D8F1C0,
0272FFE701C701C906A80871F20EF9EF,
0210024AF8A8FE2DFAA6FD9DFCC005D2,
05AD06E7FD8B01C900B5F2D1E894FBD8,
FCFA0D1D033E05B2F4BAFD63F2F7FA42,
02F0043805A9FE36F3B4065DF5D5FF84,
;   output 6
0124FA61F8D8F57607D4F60BFDB1FF8A,
09A102D90A1D047608290E5D0BE3FE71,
011DF1CDFF4007C1F7D3FAFA061902C3,
061A055103EF134A0004E231F1550901,
0D7C08CF13420506FE92FCDF01920A46,
06C1FE0C036F0908F8AB0055FE5F094B,
01CB0375050AF6C0F6B7FAB6075CFD64,
04C802C2F654030F021EF598F4D5F533,
0FA50052F2B0F550FF44FA8AFD2BF065,
07A302D40046F9940C1B049002D9F439,
02BD05840785E90806FA00B30E06FE96,
0C2A058B040BFDD900AEFA980030FBE7,
0C4805290140F61CFCC90562052AFD91,
0006FFF6FF9DFD950067061DFF8805D6,
06C7012706890BCDFCF8F713058C0415,
FF91F764FD4CF9F2FDFEF43C03A1FDA0,
FB0E010FF95F04C4F1E6F554FB43FD1B,
FC0303430CD40DC8012401AB09180866,
F90802F80427037DE9D7043802E8F9B3,
FB6E00DE0CDE06C4FB090307FFB6F9C3,
0596F60E0C3BFD3C05760243F7EBED2D,
076BFA2E00AB014103E4FCF407AFF7F5,
03EF1294FEF806AB06290A1B0DD701F7,
0629035BFC9502210BEF042502520146,
04D10A380330005502C900C5FFA70757,
04A3F8200D64F3A50425037805DF0A83,
00B404E2034FF7E301490BDD0E96EB90,
F7B7FD90F56EFDE7F34CF7590290043D,
F5A60427FEDE03920F90F2F0063F0117,
022E076001C90037FE1D0542FD95FB81,
051C017D03011584ED9200F60D03090E,
050EF9860478F942FE430100FCAC0462,
;   output 7
FF25FE48028DFC89FAE8021C01FF02A7,
F4FDFEB900FAFF25F61DF30403E9F8F3,
0A23071905CA0CBA0002029CF9B1F60C,
083F036C0651FAB2F8C4F436F836F763,
FDABFE01066D06ABF9E7057101EA03BF,
FB4005C0F43205C1020F0159F4FE03DC,
ECD5044DED9A001C00AE01B1F5090177,
05FE07830277FBBB0E3801B90AC1F4FE,
04A1FBDD05550D17F17B1188FCBFFC3D,
096AF25DFDD506DF0166085DFC23071B,
F907032F0963FC4AFE86EAC1FCCDF9FE,
FDE0040B0E3D074A0E04FFE20615FB83,
0451FCC6F97700EC02BB0252F7C2FD9D,
0076060B001305CEFFF0023AFFD10848,
0C661385FC87F69F075AFCECF7F100FF,
015602BEFD0D0622F9A1FA94020AFDAC,
10060FE5FDA9FF65006A03A3FD23FD29,
FE49F436FC1D003D08CEE744FDFEF6B1,
07CB01500C92FCB7FF7E037CF37CFEAB,
033DFB8E01A604F5F928FED6F78E00DB,
FD0B0E49032DFF92FDF8FB270783F494,
E713ECAFF95BFD9C003E0930F7BA0104,
05D3FC940152FD49FC8D01B6FF7E07C1,
0416068EF20F03E6F89DF3490623F532,
EE7602BB0368FE180683F4C10543FCA1,
033200720216FC5C0CC4FBB000D3FCD1,
06980F85F79F0542FF8DF95CF663FF5C,
FCF30BBD0311FF5B01F5FDB202480948,
F529EFC2FE5704E0140DFD720CADFEF7,
F6F60722F8FA0115F699FAECFB6E00C7,
034F08030048F6B1F82F0772E817FEC2,
07CBFFBF09ABE89A05B8EC0A02D40052,
;   output 8
FC200B30FD1605BB0378FDFD02EB018C,
03BAFE5C061CF5EFFC68FBF0FD0E032F,
05BB03360652FDCDFFEFFB2706D40178,
0CC60311039B0D58F942032BFC9708BA,
04B201A9FE25FFCEFB4DF305F8DCEF10,
FAF20867F76F0710FD70FAE3F59109D1,
08E6F45DFF35F408091E01C0F8EFF3FB,
09E2F8F90282FC870271FD34EF4BFDDF,
FA86F201F39FED98103DF651F9BCFE50,
02D0F3DA026B06F603FCF1C1F1FAEBBA,
FB15F2FAFB56F287F5F5F6A9EEC808AD,
0FBE09960A21F11B046FFA23026B068F,
0DF8F4FC0B2AED2B0AACF46F0778F0BA,
FFEF010C000C060400090A21FFFF04A8,
037008BD00CD0175FF7D08B5F0BA04B8,
F3190654FB090945F38800AFEEBD0052,
0B500368FF84F2AA08BFF931F23FE980,
FFB6FBF5FA26FADBFE8F02ABE651F4C6,
0131F0FCFC900A9CFD52F4600893FD9F,
F9610345F99106F5FAEFFB3902E3F45A,
FF720629F935FE1702910BC7FFEFFC9A,
0405047CFCD706010500045B0106030B,
051FFFA90194FE8B0180FEF6FC97EE8C,
FFF9F4AF0147079008CDF9D0FFE9F4BF,
015C08FB06E5FF73FDE0FA7600F70084,
04E3FF7C07E7041D01C603DBF7680566,
05D9041C0761FA3A07F5FD71FA400191,
01EF07FC01DD0A280196104204940A8C,
09E6FA7E0438058C0263FE2AFE61FAA4,
FF9008C4FDBFF7DB071605FFF150F789,
F7CF03C3FE7DFD6F0070F86B077FFD5A,
FE4D04A20820FB71032DFC50FB31F124,
;   output 9
04AB0A3205471369FEAB02BEFCDF0073,
F5D70AE1FD7708DDF8A8FB43F6C6EC3C,
0375F8B7057F077AF5ED060801F7F799,
025BF83AF9E708EEF97BF97FE974F85E,
0AEA036D02D0FFB9F69207B8EA88FDA9,
03A5FF5C03D701860088FA40F1BCF9BE,
FB97FDF4F64EFBD503430092F944E7F4,
04DAFA4BFCF20BA803E3030AF1E4FC9B,
0427031C04CF0E8DEC730B1FF3080871,
0109FF02008EFB8206890CC6FACB0386,
FC190B23F704F4AAF179F233F149FB71,
EFFAF402F715FCD0030AF7C10192ED20,
F7820151F96EFDFB09AFF974006BF920,
0020059CFFF4037F0013FF2FFFFEFF77,
043909220867FC2D053409FEF5ACF6FE,
FD99F9AB038D024A0202FD82F9C4FC7C,
F54300CAFE8D0800089C0564FED2FFF5,
013C042B02920669FA12FD5DF959F877,
FEAFFF34FE8503C1F98E03A3F0540520,
01CDF30D0D2D0CAE06F80988F9F805E5,
E87AFBA20425FAE1FF9B041608410177,
0065F89DF38A058E0C1CFF52FF0F03C7,
0410F9F6FBF7FE4BF75CF886F267F419,
FB28019605BFFE21095E07B10AAEFF9C,
F65F0008FD9B045708E80019F49AE5DE,
E8F2FC41FF3B0066076C006200280566,
FA840567FB5A03A1006C096D023BFC1C,
08A30FC7FC4B0559FEFCFBFAF4C002EB,
FF8E03A80647017DFE200341027A047C,
FD64F9100672FCEC01E10295FEBBEA7D,
FC71FEC6078C0599FAC807B2062C03D1,
F21804F0FB3304FB015C0994F824F550,
;   output 10
04DEEF170286FD45F685FD95F72DF453,
01FAFEE803F4073A0467FC14FCF4F95B,
06C0F704FF0CFFFEFD35ED29FBDBF6DC,
046500D0FF680114017402BEFF420574,
FE36002E011B04C4F976F524FB04F76D,
F7B802E9F31C09A5F10CE7C1FE9B03E7,
0575F5AB05B3EADFEE10F4830327FA80,
F52EFE07F05EFC37FBDEF98EF2BBF846,
FCA30056FC55F4A710B0F558F85602A5,
0247044C047AFD68001BF7A7F324ED6A,
FF6D032DF599FD07F894FDF9F4BFF919,
FACAFBE00079FC05EFDFF3BDFB3CF3DF,
FCB30385F99BF934FFA7F62E012C0233,
FFC604F5009604370081FB44FFA4FBEB,
0327FE9401750113FD59EC18ED77F63F,
00370055F2910199F4E302CBFC62FA42,
08A5FDE3F89BF1100574F2E7F272F3BD,
FC2D01F5FDE0038CF1DBF760F168F95E,
078902A3F85D021BFC73E56F0156F26C,
F0AD03F5030C01BAF4D3F5C2FF7AFBE0,
008400B701DAFAD20787092F0FF4F6D6,
0611FE21056D03D3FB05FB33F929F947,
032C0019095EF9C7F602FD9602A800A1,
FDCA02F104C107A6FD8B040E03D7FFE7,
05C700B80536FC89F80C0BA805EA0381,
FF5C0C17041F097700E3095F089707B4,
F869FA74F211FBE6FD27003FF78CFD55,
FCC807A6FBB8F7F3F42C0A34F8550228,
FD50017A03A3FF7C01E7FDD1FDBAFD97,
04C0F8B0033DED900639F10C00B4EEC1,
F844EA4CFE7301B5FA10F9140A20FAAC,
F5250316FF76FB1CF895028DFE3DFAF6,
;   output 11
0AACEF660D630349FF54FFD506990084,
0629F604078AFD1205B40BC103D4FC4E,
050201D0071E06ED0144FF54FA45FB38,
F09C0660FA2A078F042E0613FF0209B0,
F58BED7CFF71044B0063F86EFDFDFFE6,
EE1EFEAFF18F059F04B1FF8409EE0341,
F6AF051203540488F8A500B2087CFF27,
EED1F23A02ECFDD0FC3F0409FED20A37,
06BFFCAA00400359F3AC097B06830000,
ECC2FA66F3E2024EF96F06F2FF8C052F,
FCA9092702B004BA03DDFD9CFA5EFD5D,
FB170322042F0A320AA4FE8A02990131,
F671EC9FF90BF5750068023A030EFD3F,
FFF8018EFFEDFF82FFEEFA46FFF10106,
087BF5D50538F2A40325021E02DA01AA,
F586FF31F7E10048032F03A80385FBA4,
F64F043CFF7CFFA0E72E00D1FB5B0249,
E464F53BF7F80149F8D2FE6B00A30113,
03ECFE310A7DFE9AF51A0AEF010A02F5,
F0B2F5D6FA380252FFE8FE320811FE3D,
0555F9DD0357F868FBDE0047FFBC0A71,
02A1FD29FF24FE10041505B00D480BEF,
06F7FF0308E2EF6000A902DB025D002E,
EDE4EAABFA8DF7E804A404DC063D05BF,
FC5FF9690D5100EAF98A018B019C040A,
EA301010E7B2015B003805650B4004A0,
EC31EEC3EBAB022FFD08FC3D037C0309,
FA42070AFB93050000BAF9C2FF7CF56C,
F6EAE851F5A00070FE27FC0BFDC70435,
F916FFFFFD78FFCE05ADF96F096EFBAB,
03ECF40EFC3002440CBF0AA0F87206AC,
F93AFD56F7FD03CBFD32FD19FDE2FA5B,
;   output 12
FE360E260384F5A0009602CF097CF867,
02AF02C1FE51F852FA7A02CB0BD1FD4A,
060C04FAFFC30B8EFE95FEBB0A600DCB,
FE7707E6F8D600C7EA26059AEDCD0D26,
FE29FD14FBA503EDFC01FDE9FF46023A,
FB9DF9C4FE1EE8E602C6EFE50C0A0366,
0C58FEB3FD750652F93F07B4FBA30341,
0B78066E0203F6DAFF6F0C4C016CFF9A,
FBB2FF5004300129ED75052B0DE0009F,
FFAE0BBB0099F8C7FFC20475F644F9AB,
FDDAFF3B0C97040AFD33FE6104B50627,
0192099003C40CC602ACFCA4F73310E3,
05ACFEBBFEF206C0F5DC01CDF8610997,
FFE7024CFFEB02FAFFF101B80004F175,
043DF91D06B8FA0E0053F4C90824F86F,
07AE0A0F0013FB07FE05EA62FA41F7F6,
00EF0FA4FFC4034C09A1086BFADF048A,
FCDCF6C6061B0086FBBC0194F726FEAB,
FBC9070BF9FDFCD100CF0677120FFB7C,
FD4D091BFE5CF731055EFFF6FC9AF8C0,
08FFF8FCFADDF9AF02FEF38AFB68EA00,
035208D5F5C9F669FBE9FB3AF443F507,
007300BA06C00001F8DAFC5D0BD1024C,
F80B07CCF3E4F7B5FCA2FB78FEBDFFD1,
075501C2E9C4005B0539027FF4B50636,
0CC802D1F696FC9EFF9E0551FCC90A75,
00560437F477FFADFDAB0D3CF25D0874,
FF8FF2B503C5F7F8F611F0DAF023004E,
FF00010DF605F8E8FE84FE5EF7A3F9BE,
053500DAF5D2071A0FDEFB680369004A,
04E70892EAEE00400A7F0685FDE00850,
034CFAA6EBF3FF9BFD6CF729EF3602A3,
;   output 13
F086084C064DEB66FA5B02FB0121FB80,
E50805EBE05B091EFF40FC3B090DFFB8,
FC520166F502FAC8FF14FFC6055AF90A,
0458FEAC0596023EFA470362FB8EF644,
FCF4FB0B054BEB8B05900673FCC3F5F7,
03FCF7910B99EEEFFBE0FCA6EA5E0C33,
07B40385FE50F9490C0C053F028C0200,
F195062BFE8303C7F897FC4AF983F6A6,
FD7101270657F91C0591F9100A3E05CC,
0956FCA8034AFA99F54BF738F8EF00F3,
FB65FD7AF78802D9030CF74BFCB813C2,
FAB0064BF90CFC7D0C56FD750058FD1E,
FC29FB78EE3BFB540BED0207FE3B051F,
FFE9FD1600060074FFFB022E00160820,
FBE20043F2E1067D055BFDE704C904AC,
F385F43FFB4AEDE6F15007BC045A044A,
080318CF01DEFF350470FB07F5B4FC92,
FE3B05A60897019FFF86FFBAF382E8E2,
FEC305D6FCF408A4FED8F0DFFBEFFCB6,
FE2D0192FC4C0637FEAB02D503B30435,
FE82F5CB029CFAD405D90BAD0AE70816,
F5E4FEE1FE75F3D40BDD031305E204E2,
FDB1F9290297FD1D074EF7CE080304FE,
0853F6FE077900C807F4F12306A4F3B0,
F3A2FD21F535030A03F10889FEAD0C44,
F745034CEF08009B0918001905FD0539,
02FA057EF1C2044F0A57EA82F8AE02D3,
FA3FFFD2FD9AFDE6029300C704C20585,
FECCFEB1F5A5036301A6030B05EFFD79,
F5C304A504FEFD23FE9505260133F1FC,
FAD8034D067CFCFE0051041102AE0519,
FB6B013D010B006EF780FBF70747FBFC,
;   output 14
FDD0F40F04F7F9B7E97FFE92F35C00AE,
FE47F1A803B6064AFD7203ABFE7AF4FA,
FF2D044C032CFEFA12DFFA0C090106B6,
0151FD93FC0C03CBFC47076EF51102F7,
0340F178FB910611FC97FA4FF8AA068E,
F88E06A2F9800798008803EA0556F8CB,
F31BF37E011305BFFF0CEF9301AD03AF,
FE08ED9D005F0729FCB4059C0173FD56,
FD20FB3DFCAB07A204D8FF2EF8B4FCF0,
F2C9031B03BC069EF91503C70664FD0A,
FA92FBA60386FF58F96908440C25FFF7,
F6FCFDE2FD2C0255F1EEF65BFEA604C2,
0466FA7808FCFA98F8B2E3930AACF328,
0017FEC3FFF000B900040BDE002E087A,
FA37F9DA04F203E801A807D006900389,
FEDA0571055C06FEF3C60BE602D801AE,
F13CFB3B07DA0468FA44017403CA02CC,
0198FE1D07A7029AD79AF33103DCF603,
FA99035CFE3E023C126D0AE1014E0523,
027406A1006DFE53F158EAE1FE12EB32,
FFBDF99102B6FE9300FC08A5FA6BFE60,
FE73FA410882FDE10DE209050064FE46,
FFD104A706D90ABA0762FEE9F60903F3,
FADB04F0F99101A9F07BF14FF71CFF28,
060F00CB0265FEAE02D4FA2FFE05FF0F,
F87601C508D7F680008801D408300272,
FEBCF4EDFE0CFD0DECBAEFCB0757F8AF,
FD1F0AFDFF0C04810EAB0A4206C802F0,
FD1CF27DFCA4FF3F067C05C900ABFE56,
FFF7FAA80697FE9CFF2CFE8BFDFB056C,
F704FF5BFA67061F0E87FCCB0D120438,
05C403ABFAF8FAB9E8D4FC79F80C0545,
;   output 15
0983F4DDF7F403BBFE8D0479F48BFE70,
FA04F46B0298FBDEFF0CF5D5002A024C,
012D0CF10F7CF5ADFA5C065F06A6EE5D,
03FAF877FBCFE58901FEE56E05D900B7,
0A58FE9108430439FEE2EE8FFE3B01C0,
FD5602EBFFCF0A8901FE02E7FC9407D3,
FB2AF7BB00AF0504FFD6FBD8000AF1F2,
06DCFF3A0D42FEE90730FADD02DF037E,
075C040A033DF21FF19AFACFFA75F65B,
FFBAFF4C006F08FCFE89094D0458004F,
FF42F792085AFE5D028DF2D2FA88FFDE,
073CFE91011800D50FFB01730C680162,
FE9FFCF609FF022B027900DCFEB1F003,
000D06E4002207AC001404DD0030FD7A,
FDBDF54F0285010FF6580085FD07FD96,
0748018E06C9022CFF53FF520554074F,
F6F903D6FCC5FDBAF738FBC5FA91FEC3,
0469FC51EE12F30903C30312F441F68B,
FA16F78303DE0074EDEF06A0F70AFFE2,
002508D3EE4F0A0A006406FAF9AE00C2,
F13309CFDA510201F9EEFF980317FF42,
01C3F4FB036CFB6CF35DFE03F5BD0575,
09A1F88FFEC0FF630181F651F89C0455,
FB6D001BFE9D0E420ACAFE5008A202C2,
045306340E8FFF02E93C04D2FFD40705,
02BE067FF6ECFF1003F109ED03AC0455,
009EF7110B3706D0078D0979024F0035,
056FF94A0870FC32FF030226033709C8,
FBCE045AFE63EE02F5ACE5160182FFDB,
0A06FC36FE03FFE2FD970839FC6504D5,
01E802B2F5A0F193FCAEF7C1F9B9FA93,
0217FE3D068EF218FC11FFF1077BFE57,
;   output 16
F62A08D7FD85083BFA7602B9FF050356,
FE10FA810812F47EFEB5114F059A0878,
F7A505600B080C4807D905BF01C204CC,
EF45F899F97AFCF4F6B708ACF7870AD9,
EB0EFDDDFEC3F669F7DEFE4100FDFECD,
04BAF961FB20FAE40391F7B70144FFAD,
F690FE15FD00036FFE73041AFACE00FD,
F8D4F112066B02D80B78044F0057FDF8,
E5E90DD7FD39027B080D10B501B90285,
006408DFF51DFED2F0F8048EF4DD03B1,
FEEBF39BFDFA09DDFE110665F8E30FBE,
01B601DB00D906EA0CEE087EF80E06A9,
008705E9FF4E057E0811FA0B00BAF967,
FFDAF8F0006E01A9FFD007990042FF2D,
0962FF8EFD1FF581FF99006BFDF5FFD2,
0393FE0803E506C8080800CC04CCFE14,
06D0F47A046F03A90317FA31FF25FFAF,
06F9FB27059BFE340276F7A500BDFED2,
F8FE07E604B2FE0A072A029D083DFC31,
004AF31FF43AFACB09F802FDFD5CFDDF,
F9F3ED8100F4FB3E095412250A5300D8,
F5E90723F3A2000D006B0320FD330988,
F74006DE107F059FFB730A9BFE7A04B8,
02FDF890F3D50041FF7AF970F28EFE4B,
F480E3D301F6FAEF0CBCFC02FC6D0FEA,
FC1AFEEE0239038C08D00628051CFFB2,
01ADF4B2FDDF00C7F1700D4AFA150419,
F5E9010F0269F8CC043707DBFAC4FDA6,
EFF7030B0758F1DFF898071F0013FB4C,
E3D0FF94F703FC44FD87024DF683F8C9,
FF31F324F422056913BD04BC087F0D46,
FCA7F49602490A5E0811F66B00780431,
;   output 17
05F2055207B5EB69FC7E0641FCC9F8E7,
0229FBC1E5400C1D04AF008F0754F461,
F7FC06E9E37905F60571FF34FF210A4A,
0ADDFDB1FD990B4EF08CFAFAF5FF0538,
0799FC26F3B1008900E1FEE1028500F1,
FF210A83095C00150641015B0078FF51,
F5D90877FE70F5BD023F03E2093D0CCE,
04BE0375ECE702CD0BCBFCFBFED2F7E0,
F8C202DCEFDB007B049CFE97091D07E2,
0616F7A4095001C1FEB3FFA5FFAC0236,
0218FCE3FECAF9DBFCFE04E40CD50C9A,
07F1F95E0207F684FC3B0619F5EB0506,
04B9FC4BF801F9B3063E050B0068FEFA,
0019037B005AF5760055049B0022FD60,
F76908C7F0DF09D2FF7FFB8DF8A7FF7F,
0387028DDDAD04BFFEDAFE8C0A42046D,
FBB2089F06A6FFD3FE9E004201A30021,
054C03C008060378001204DB0643F76E,
F336038C01FF140F010B0448F6B5F79B,
03E800D107E5F894FA9DFB0FF8D5F759,
FB880CE50675061CFF32FB46FBAC00A1,
F599F803FA6E037D000F034A07D9EE14,
FFEEFAFBF306F1AD049506F2081304BE,
033107BCF994F739FA410000F87FF5AF,
062AF738F58BEED4F66802B7F9A602B2,
FD72018905C30D340516093FFEDBFC51,
02F407340A41FC4AF91C0580F7BAFBD3,
03F2FB1D04800A5CFF8DEBC20FFFF7F0,
060DF59C114701BAFEB1FEE00C4DFED2,
FB83FF26FD03FEAAF18EFB89F9E3FEEE,
FB86F9410074FF210413FE82F6790B5E,
FDE000C6EBC1FF1EF9CBFB9CF167FBC6,
;   output 18
00FB02B0F347FE0C0474EABBF2BAF631,
FFD40960FFDDF96D02C4FBAEF8C1FDB8,
FD4EF1D6030C0303F6FE0085FCC1F872,
FD620AA605A00628FF6902C8FDAF0064,
017D039005FB006FFF6BFA49068605DC,
FC50F8F6035504C3E23CFF2802A409AE,
0359FDCAFEA1FB4D099AFA95FD1AF2F2,
FCA40855FEAE0229F7E0003D06920949,
FA69F568FEFD021F1472F939FA7CFC5F,
050604ED039FF8E50A19070EFF8900B1,
00B5F789056BF9FDFFE10481FA96EE71,
0774F4F2FAFC0229FB87FA80F9B3FFC1,
01A2FC33FBE80B9106F1F881FEF20778,
0011FBA20028FC90004406E9FFF6FDCE,
FB790F2DFDF003FBECF30877FB590385,
FE8D046602A2037BF0D5075AF6B7078E,
061B0686EF74FD26D7BEF65EF1DD096D,
FBF9FE60043F0AD6F974F94904B4039B,
FFC5F83C0875FE210643FE82FA6E0016,
077AFF6BFBBBFE790234057B194504B3,
037E0E63FE1E0B1807950F93F892FE81,
F931F5E7040FFD390095F7EAFE2A008A,
005CF909FFE7FF49052FF95E0E9A053E,
0140F74002D3FFBB0B69F7FD063A03B2,
0879069F0339020C05260E5202C9162D,
FC7FFAE40E15F9500DA7013C0281066F,
0230F9D60333FF81F844E6AFF9F7F698,
FC87030701460C5E03760CBFFFC20B55,
0364FE38087D0A270EA70F1905530851,
FE59FCE0F6A8FBDAFD24063FF87E009A,
048E035D036BFE4B011BFA5201580C1D,
F99FFF3507EBFE210386F72B064EF8FB,
;   output 19
0C550F2D009D050BFC3FFB0E0B290224,
0C540098F9E005DDFC4502BF02E50CDF,
011303FEF3F10149043FF5B703EDFD34,
031DF6D6005AF9FFF871FCC3FEFD0276,
0783FE68FAC00A96F3C20633044D018B,
08E20E940ED2F729FC16038A06CA0351,
FFD6F43A04F602D705ECF91DF6A4FDB3,
F642F963FF7C0441083BF4AA03CE05EF,
F0F60420FE4801A3FF5D054B01E2EEA8,
FEA104E310BA005EFC050ACB02F901AF,
010ADE580519F925FE68F7FEF81902FF,
E85FF323F8ED01A9F3EEE5DBFDCDFA26,
FA77FBE80553FDF8F1F3FDBCF19D02AE,
FFE0FFB6FFE3F87D0007F47F001FFAA0,
049CFEF0081301F4FCA8F42DFB00FE22,
052EF965FEAFF808001703250517FA2B,
F46BFD5101E906A8FC8EF8CAFC9E00FE,
FC7408760BB3005FEC91F9A8F812FC71,
025905A60A300930FE9D0310036E019A,
01FAFB61F51804F2038EF9980F950147,
F1C507920839046503EA04AE006A057E,
0124094F038FFAC408800799F5B104B2,
00D505D4F7A20274FA60FFA40162FF73,
FA200456050A0596F6F7FE81041101A3,
11DDEE280ACCF76809B5F43C02660906,
F82FF7540017034D044D0842F5EF0328,
F690F67E045B049FEEA0F1DCF37A07AB,
FBB103F8F89E0B70F5BCF740F3D50AB1,
F972089EFCCBFB06FC630829FF22F58E,
F925EDA6F86D05290087F3CAFCCC084A,
03D60544F9A1F8E00397FE2B0ACD0386,
048807A2F63CFB980DABFBCB077E0660,
;   output 20
F7650289EF6EFC7C023BFC33F45D0000,
F9E3EDC5FBBDF2BF0714053EF784F972,
FAD8FCD2017BF539035600850231EF40,
02C1F8C80A26E4AD052E0C4703A3087D,
088E03AA0A4B006A0187FEEBFEA30392,
024108FAFC5CFAAB0059FA3C138EFD60,
00360744014503FB0191045402A2FB95,
EEA60502138302ADE827FC1FFEC7FD76,
02C3FAFC056B0549011E0038097D0B5D,
F64F07EBFF750EE80069F49AFE6F0011,
FC35FBB300E00197FD6F00A6F6620925,
03C6F1A8EFAC0251073302CC0605EEC3,
085E02B201A9095208AE06B1F8E201BC,
002C0256000404A6000103050011FC71,
0AFD07B6FFB7FCF4073502CAFD550908,
08DA0F6E068C08B8FA93FFFE006F08B4,
FA670EB7EB76FF19F06FF609FAD4065D,
0325F709F0D5F3C60B500239F3D707A6,
072F0363FCA1FBE0FFFB0836046902A4,
005AFF9FF1F305DB01A8030CFE4C069C,
F8A0FD22E3340633068D01C3F5DB00F1,
FE9A06CFFB4AF057FEB50200094BFE37,
F6900B0E019F0F87067801D5F9BA016B,
06E3FC41FABE06CD01C8FEE8FB37F9A6,
02F7039A0CEE013802480519022D0ACB,
0AD2F56CEE90F79102C603A3FCB2FAE6,
FFFBFBE4F89D0477FB18F398F4D80068,
FE6506D30706FB8B06D10D80047F02F3,
F913FF6FFA22F73AFE60FFBCFD9B05D7,
0509005AFBBF0522023610EE0111FB54,
FC800352F748F03A01C3FD1010D6FE09,
0953F7A6089D071F027FFE7CFFAE0390,
;   output 21
069CF0D20169F2D3FE1FF427FA9D02CA,
FF1FD963008C038B049AF381FB83FF10,
EB91FD7A03BA088EFCFFF7760D28001C,
0925DB1A049A04F206F1F975011AFC66,
1178084AFCFB05BB014CFE3EFB36FFF3,
00E8FCEA08A1078BF7FCFC1A0158F9FB,
F2C409F7FC03F93A0D0102580D89FA6C,
FF5A0ABFFC54FB9C0423FD08FF1AFF9A,
F64305BBFA3CFF03FFB2FAF808F6FF2F,
FAF3FC9705E3FD0805BD0DBE0233FF41,
0BD6FF9808E2FE6FFF5202600B1B05D2,
FD31FD98FCB3063DF944083BFA46FD26,
F52B0A0302C3F4A2FD20FC0EFDF6FF46,
FFEB04E1FFE3057C001D0CCF00011023,
E94500B200DD0BB2F70A03B0FF7701E0,
08E0FDD4FAC0053CFBA3FEAFFF1802E7,
0426087CFD0AFB2202F5072D01D3017E,
0B8B08E0033EFE96053FFE95022600FE,
EF8C0556FC820272F43405D1FE8A01CA,
01B2087B028902FE00CB0795043701C4,
CEAE062FF68A03D9F47FFA24F7A7FF25,
F660F8A803BCF96601AEF77B084302D9,
F0B8FF59FA35024302F1FCA6FF3105DA,
05270357FE6801CB04E501140533FEA0,
FF81F4FF036302BF05DBFC7F04D404FD,
FBB6FA9905B4F9F8FE98F44501AFFEC2,
06CCF711FF84FE3FFB96F780FCC0005E,
0A25F78D026007BC02E3FD280C490888,
FFA5EF490160FEED05F804E60CEC06D4,
F815FF820875FF6207650794029A0013,
FDC1FE34FE5601A104560139FE9C02BD,
01F3F66FFEBC088D05C1000708FDFD4A,
;   output 22
F4C30627F345FACCF77C09A0F7B9FBA0,
043809AA029B0099F821FD6500C9FDCD,
07C4020903250674033F056FFB9AFE45,
038109400230FBA7F82B0C3A014BFAB4,
043906F2F9E4008F0287FEA10353FC6E,
EDF4FDAB08F002CB0139FEB702400177,
ECB90676FAC1FF44F37FFD2EF08D04DB,
F95D032301FA05770957042503320538,
068FEAC404CC00510449FA900B090CE5,
0058FFA1035AF729FE920398FF9DFC94,
F697FFF5FE91002BF565F631F3EA0A6B,
06F10923FE330455FDBD05EAF806FCD5,
F446F537F33603E9FE4AF0BFFE67FCD2,
000502450027FBD5FFFF09610005068F,
085003E2007F03C30385FF5AFB40F74B,
EA6EEB4B00C0EE67F275FE8D010E0078,
04B50EDEF757010CFA1406E6F74E0406,
EE4CF155FE8603F3FA5FFA7E0001F673,
0E64FDD70821094B034F0471F64DFE5E,
FC490B85002CFE4AFF4D055EF811FE60,
0751FB3EFD110515023CF8E6FD10F6EF,
018DF9AEF5E9FB6EF449F72DFA27F894,
0C76FFB1F45CFC3303650EDA10790CE9,
07BBED2502C5F89CFEDEFBA30A1CF84C,
FD6C0AC9EC31074601950AD6F661FEE7,
EB5505D5FCE80D7D0380FC5F058E0370,
F5450951FB04FD63F1BEF7050140FC42,
F9C5FACAFDED01390709FFA603550083,
F65B11EEF44F03E9F1150C97016107EF,
09080218FF7A02410F12FC19047603ED,
06EF07B50685FD77FD6611D50846095B,
FC010900FF920214F92213110727FF08,
;   output 23
0679009F04CD0574FDFC007407B101CE,
F3740655F7E3F8C901AD0176FDF1016E,
FDCD038EEE36F8CDF6F2F15FF2F0046D,
0B7B05F80BB1067503A103B400D0F723,
0788FFBBFDEFFAFBFE51028AF6B9FE95,
FA10FAFB0B1DFE54F7D806A30DBBFC72,
0696FB8D0045FAD9067905A6FFFAFA91,
0342FB52008504F20D8007D601C5FD4D,
FC14046CFAA8EC0211E403820476E9F3,
0512F1E604E8EA6CFB41EA960BD6007C,
FF0EF4CA0005FF15FFB7FC1507C80777,
F790FDDFFEAFFE51FF8CFEA7F9430874,
01FDFEEA0000FB5CFFFA06E8FBC7ED88,
FFFCF91BFFFCFEFA00261529FFEC0A6B,
059EFEE4039C02F105A500B30205FE32,
009EF8E3FCF3F6680C05FB1F0A38FD51,
EF03E9A8FAD6F0C4F8F7F18AED2CF79D,
0316053CFA2D04E603B8FD49F9290971,
08EAF899F530E58D062FF40F0908FE06,
FFA2F779FAE802740022066BF57D031B,
0CC10857023D00BE020F029DF6FE0265,
03C7EA5603CFF9B402EB0060F95BF847,
FA58038F04F900CCFC2E07FAFE35010C,
F91900D1060BFF1AF99E07AF015AFD4E,
F80503B8038B02860480F91A0831018D,
08D4F31A01D9FB7D078DF10AFDE2F6D5,
022601B504C7FC1302E70490FF2A060D,
FBC00800F7060D2BE73A115BFB0F0A25,
FD40FB95FB80FDF80A0F06330506FEEC,
FF01FD54FB7B040E00A8FFF301E80B02,
0054FD8605E6FA19F0CA023CF376F6CA,
04B3FA580D4B05290A86FF4405BF0819,
;   output 24
FCBFE8C6FC97F6D8004BF5B2F086F3E8,
0889002505D3FB1304DBFF300612F0DF,
0495FFAD03A2FED6FE44FCE40F09FEB2,
F233FD5CFA43FF35FA91006DF4050148,
EB7AF901E71F0B2EF432FD24F02B0626,
03910CD904D6FF3EFEFEFD50FEF5FD82,
FB86FB08F778F5320131F7C4F9C4F9FE,
1233FBF8FE6EE422112EFC62031BE84E,
03C80105FF2C09D900F30E4C062D0688,
0F4709AE0ADE0BF00482FDFE0CD300A6,
05DAFAB60CADF1570646000B0463FDD6,
08980594006B010D022506D906290150,
FF42FABDF034F0280095FFBFF63403A9,
000B02AFFFE6026700060257FFF2FF7A,
04F7FF89081002C1028000FA0667FB85,
04A2FB9805EF007106F7FD88058DF90D,
F95B0764FD02FC2FFF7FFC03F9B7FED1,
FB520163FD6A08A3F96E06D3F9921050,
05B104E006D80781002101B4017EFF70,
E69BF43CEB24001EF0D700D7E8F6FDB7,
03FA01D9F9C4042601A006550CCB0571,
FBF60057FA0EFF40FB77EF49FEE5FC88,
FFB4F40A092EF04DFC83F5D10458F101,
040803FA03850163FFEBFF550777F882,
FBE007E3FA9903AEF94A0100FC240134,
00300033FECBFBFD02BB059E094B07C0,
0040040FF976FC66028FF1D5FCC0FBDD,
FE73FD39FE48FC64FD2AFB92007D02B5,
FF341212FC40FFF6017D067F0BF20385,
00EC035AF56300310398FE5FF851FB1D,
FBA2F4FFFD33F798FE31F11BFF7EF049,
F870F6B7FB70FD3B0118FD89FFC4F6A6,
;   output 25
F771FE7302FFF057036E01B10003FF64,
F2D5FAC6F053FD22052809A2040A09D0,
FBF307EEF8CEF68E0CE503760647FF21,
F55B07F8F65A0246FEF6FC9A094302AC,
E6E7F6BDF60D026BFCEC0681FFDD00EF,
0154EDF4FEE8F5C7055AFFC7F331FBF1,
F716F8CDFE8F0110FDAEF69C0B1E02CB,
0B1DFE93FAFBFF890710043AFCECF92B,
00E60438006300A9FEDA0E69007AFE9A,
F55DFC86073AED23FD34FAE70178FCF7,
FDEC09A702C2FCD90049FCBE06BF02ED,
FC6E041E033BFE1C085B0E7701A1FF8D,
03ACFA1A0009F0C0F871F368FD6EF0DB,
0003FA46FFFEF936000305D3FFFFFF6D,
FACEF9B3FE47FA1807EBFD8BFE86056F,
078BF310FAC2FA40F1C90A0EFC4003C6,
F1B6FD450378F6790656FE8A0559FAA0,
0287EC4E04F7FDB6FF76FD8A024700A4,
0611F38E0607F28401DF00C7006E054F,
FA34F1DEFEB5F734F5A7F060FBC600DE,
04DF0765014CFEA90967001608BC0144,
F9D3E8D1020AE789FC2902AFFB180241,
FB7901AAFA24FD0DFC7404600275FDF8,
0581F4B1F399F258F98AF0CF01E901C4,
0099FB1AF04B013C010AFE2802BD0FDD,
07840311FE5F036DF3E50BC1FBB8007C,
FA0F0778021D0312F915F87BEB02FF5D,
001AFC5A015AF6C10ACE002B038AF19B,
E894F341EDDDF71D02BD05000135FF7F,
F45FFFA5F4D106D8064DF9C7008D0E3A,
F80F04E50C25F2AC07090141039AF81D,
FAA6FB0AEBBBF0AA0089FA0905C8FFF3,
;   output 26
E3C7F176FBBBF6B00881020702FCFA5F,
F7DF00B20455FDB0051801F5041409C0,
F479F456074DF6A201C4FFE80231FC1B,
F1E0F972FDAC0835FD0600BD0824F7B1,
052801280058F3CEF550F112FDACF9B1,
01C20C02FDED0A8EFDF701E308E109C0,
0C82F7DF03EEF851020DF5DDFBD3F67E,
0B87017AFC2000B9F79006E006240C6D,
022507C202A301041221F6C1060DFFC3,
048210DF0116048F068A1294072CFFB2,
F9CA002B0448F924F0F7F364F988025E,
0F990F85FC4A001FF89001C0F771FA74,
0018F910F515FD690527F7C7FDB601FD,
001BF8340089FBB000430CD300270369,
FD3CE8A1059AFC48F801FF32FDC9FCF4,
0471080A01A008AEFC8A03160C0EF8E9,
FF130BB4F868F96EFC440218F5D60404,
F346EE27E3A7FCD0F77F09D1F0FFFA4B,
F86C0831FF39FFB4FEC10090FBACFF67,
021802BA01DC0AA2F920FC26F5E603F7,
FC8F04B6010300490C3D0AEEFEB20E48,
0226F974F69B02B9FC680167FA39FE18,
FD4D062CFF6FF4F1017402F306C20374,
0587F45B06B7046F0524FA0B0B70F989,
FB5E08A0046E00E0F73E045E04EF0958,
043BFAEBFF2C0626059207FD023CFB71,
FA0EF77BF2A5FD02EF8AECEAF1CA024B,
F1ABFFA905350067F9900582071B03C5,
FE61164AFAD9FD8B0010F7BAFE55FC1C,
F8F70221EACB0415FA9102BBFFEC0322,
0182F1EA09970287FC7706260410FEBB,
0A21FCC50163FEB5051A051704DA0F35,
;   output 27
0382FF50006F053F045707D7003BFD89,
F9A005D707F2F7990181045CFFC90621,
044AF8D502F2F6BEFF800304F8F5EE7D,
0392F990FE02FBC6F75A041D0144F491,
F8A0FA4DF2CBE8A50532004402B7F6B0,
00CD027D043B00FE01840241FBB5F5F9,
FBACFE72F719FC67F883FEE6F4ED015C,
0021FF39060E05CAF93BFA02FEC50B85,
FE8D058D067F07720A1AED83F97001FB,
056706F006E5FC4B02E8FD09F33CFB17,
01C3028DF923FFC40AC6FCB0F0A601CE,
FF2E027EFD70FAA3FF0E0197039EDB52,
FB38FF2AFC630045EA3F0C8DDBA00444,
000CFB80FFDA087F0002FC5AFFE2E3C6,
FCB10A9D0E5F001D0314F780F86D062E,
FE8A0559FF1D0933F199F7F4FC54F996,
F99808720377010CFDE201400603FEC4,
02A302E5FECEFF5D03160690F4C9FCD9,
FD5AFD0B03B70112FF89FE2DF6580668,
05FB0156FE92F39FFD98FD9EEF190478,
FA280CD3051305A403AAF8C006DAFD68,
F9AFFE1EF07AFF0906CE03A4FAC40124,
07D0FF0007CE05FCFEE2F8C7F456FC99,
08A9066406A6FB0EFFACF555FF47F8F2,
F48BF6D0FA7600F2F82B0645FB1405C6,
056306D1025707C8EEF6FF5EE17F0459,
FB02FC9EFD6303AFF79D0919E5840454,
05FCFEE101A107B3060FFDADFDBFF534,
0384FE8F02590760FDB6FFD6F94AFB99,
FBB2FAC0FA1102E7091DF7ADFE55FB42,
0571FCBD0806F047FC8C050E06960093,
F34B0900FF8AFBCE009A036BF388F758,
;   output 28
043CFB99018503C2029FF718F365043A,
072FF0D4FE7DF60FFF1CF925FFEE02C2,
0C1C002A0A98FCB20194F975FC81F7A3,
0A30FBEB01FEF5E60272FB9F05DBFB64,
01EFF10BF6C6056EFD6B02F702850BB0,
F80A01D0F0EFFE85FE520210F646F64D,
F68EF2C3FCD4098BFE8DF707FC3306D7,
F796FAE005F8F2B7F5D2FB7A01FD0361,
0299FDCB0A22ED2BFFCBF4F6038EF19C,
FBC8F6F007E403E5FF9805B10A480211,
FA0D007C0903FF92FAB60866FEAE00AF,
F971027509340297F4C2FB52FEED09F1,
F5A1FD87FA60091EFACBFF0F043602A9,
003815F1005507CAFFCE0CD400710441,
12BAFF7906B809F1FF5A0042FBCB0693,
03CF041AFFDEFF11021B00F2042E0406,
FC9BF7070653FFD1E415060A0330066D,
FB18F84EFF4DF9ECF9E50088F8F8F7A0,
06B904AEFCA8F829035C08A3040EFF22,
F0D0039FF909F981FBDC0A47087D03AD,
F04800AFE3BE0930F4C908E8020E0148,
FE66FFB5FB1EFD880237F65300BE0803,
097012EA017B0803029EF90511CDFFA7,
FC97019E062003C6FDA401DA011203EF,
FA1CF18DF62401A205F4F86502F8F89A,
F6D2F4E5F925016F04C9F66E039F03FB,
FAA51353F7AF098C0052F81A03AE0184,
0A8F0D7C0A9DFAC507AB09F20597FC88,
0492EAD5FFA3F776F26EFB3109CFF089,
FCF3F2B0018CF910029DFBE00046F742,
F325FE24FFF4FD51F42CFDE4EC6B0070,
F1C50C44F247FB87F7810599F988FCA4,
;   output 29
04900739FFF904270367EAE7FEE1FCA7,
020B0205005900A505C803840AD70699,
FFA803BD0A46FC14061902BC09F2F33E,
FD410317FB92FF9F011600D3F3B70216,
FA34F748FDC3FCADFD04F9BAFD50E3D7,
02D90025025BFFD4F7060D6A07B6FFD8,
FAD2FBE6FF6CFD99F582FD3CF577028D,
0663057A00DBFE2403FBF34C045BF2B9,
0BC4FC0CFD1AF89D09E7FEA8FC7805A5,
03FB017BFB5309C0FD1806ECEAA3FEF1,
00690BBBFBEEFEE4FAAE03AF03DF009E,
0C9204470BEAFB8BFC5D0765ED700082,
0D4DFF16F800FD97FB74FFE2EAD3F714,
002800DA000CFFD600240BCB000E03F6,
06B301A003BC0161FAF00598FB3B03A9,
FAD101ADFC10012E0C170402F3330835,
FA531552FBBA0124F88403B9F865F8C6,
FBEE0575F653F866FF4F07CAE49A0682,
FD2DF457EE0F0342050AF9830032028C,
04130537F5F5FF87FD1108E8F791F679,
00E3FF02FC67FEAC064604EAFF8AF921,
FE60FECB01D300FE00020143FC53091A,
00A1037EFB29001005A1FC37FAE5F53A,
016E06A2F1A7F7650238FFEA0574FE0E,
FF8E0911FA7E03640077F92BFB67FA53,
FFD1FE71FC31F745F5110B3AED4E0C52,
0318FD26F62F02BEFD781C7FD50707C9,
00A1009007D6FA65FE750B7E049C0820,
003D006B05ABFD8F00A3FEFAF37CF511,
FFC6FE51FE290015052C093404E6FDFB,
F9450F7700CCF98FFD01FC89F289ED39,
01FB0524F60BFBAB09890414F87703EC,
;   output 30
F8E8FDFAFE4202ADF9F5FE0CFBA2070E,
0320F7A7FC98FEFDEF6406BCDFD6050B,
04D00CFCFEED10A3FD7804C0EBF5FB76,
00C906BF0716005EFCDA012EFC0CF9D6,
F73E03BBF8BDFC4A029DFF2FFFCA0784,
FA68043202AA04F8059BFC3CF6C2FE11,
FD66F14BFC900250080F00220FBAF9D4,
052DFF4801B601E7F151F49200F90C3F,
FF1AFE3C050E03C3F41A031DF13AFF50,
0795ECAE078FFBB2061EF4F4FF91031B,
00B4F16FFF75F92EFD73029BFEA4F3AD,
07840AC0052E047E001F0ADD004EF3D6,
FF86FC5FFD3DFA1FF838F374F70BF42A,
FFC503DFFFBE00D20021F4650028FC4E,
FDE0F9770412FEE00219003CFDB5F81D,
FF700A2D055205A3020CF9AFFBA1FCC1,
056BFA6F03CFFE81F13EF46809D0022A,
FCF4F14D000AFDFA0169FA04FC7801F7,
FD2CFC82ECB1ECB20695FD2E05030617,
FB20F821FE060439F97B018FF18C0B20,
FEC10169FAF40621071302410016FDA1,
F6F50323E48CFB0304B9DDF7FEF6F4BB,
0352F50DFA79FF64FA590F0BFA99F9DE,
EC0CF89AFF34FA34057AFBF402C1FF27,
EEBB0351FBD403D402CDFFC80484F4CF,
08C50F44012FFC460AEC1043FCC303AF,
01DFF6DF01A6FFCC06CE074002720080,
FD30FC96FA2F03130101FFFE0144FEA6,
03250207FEC800D4F2CA005E060D000F,
FD9BFD3FF95402F9026004E7EFE4F549,
F1C9FF4306F902FF0337072A095609FD,
FF7B048E051A00D1014C000703EAE4B3,
;   output 31
03C8FC8208091076015F03F100C6053A,
074A047209A50A3700ACFF440757FB0E,
F9F708F6FB20075A00ED067F1319F0DE,
FA2D0031004B0249FCB5FAC4FD930E09,
FF4E06CEFDE0E4ADF6310792F4CF0389,
FBC704F6FDA20919F92EFF60FB14000D,
FFAD02A8F32FF49B0CAFF249005EFBEB,
FB4AF658FC31F9240517F657F506FA11,
FCB3053BFC1C079EEF22FDD6FA49001D,
022FF85AFEF2F85F0384FD300AFFF5BF,
067CFABFF1330322FA2FF6CBF7EFF5F5,
FC67F7F80709014C0C160BF60101F84C,
01A804C5F305060E09ED004A0666F6D1,
0001F2F20040FC26FFFC0C3800020D8D,
01A2FB4308A30515FD40FD28FDE70319,
047EFB0A06A204AEEF9B09F6F75C073E,
0D2EEF4CFF38E7C104E7F40AFF66F4DA,
06B304F8F95901B6007D010AEF1800F3,
FC3E013408DCF92E01FBFB090B86FD16,
0645FD3D03DDF55B00E4F7891D1FF536,
05BC043500A107F5FE0B00DE03C60521,
F99AF4F5FB1907B9047BFD54010406EF,
FE4E0A5D0605FAB6074EF6DAF621F230,
068301A70A3303EF03A7015710B0014E,
FBB6013BFF4FF65B0485F6D2FAEF05BD,
0156FF19FC350C7302440697FD330C02,
02C50244FFE404FEFA72039CF818FB53,
FF590037025D0E0E045801030AE011A3,
01290B320212FA0DFF460A1D0873FA7E,
EF49088BF733F72FF68FFA17F5770158,
00A9028404EBEE3A081EF54FFF560367,
F799F617FC81FA53EF66FD06F85003B4,
;   output 32
0376EB32FBAD03C10371FF3C06E101FC,
025F0A45FB29F628FA7FF1FE05B805FB,
062307A70245036FF189011EEC75038E,
00CB022CE7460CF4FF1F0887FB93F949,
03B6FC16FBFCF9D406AF0820FEEFFC6B,
F3B5FEC5FE97FF57FEAA0BB0023C06EB,
03BFFA450786026FF6C5F6DFF6690309,
F49EFE38EEE204B400B2016E0A15F8B2,
069FFBB2FA62FEBF1120FE65FDB3077C,
F7CA0862FA6D01E20301158EFA97FFE0,
FE1B0261013FF92C064CFB8202CC04DB,
084801C6083B0329FF0805C20845009D,
0BF4EDA5061DFE0AF1C4FF0600BB0388,
00730611FFB7FAED0031F49FFFA4EE8E,
0B78FA34072DF066E8AF02ED0035F5A5,
F412050BF6FCFA79FC54038EFD8C03AC,
F4AE05E8F78FF372F6B108310292021A,
0488F55E05310BC903ED0385FEAD0311,
FDB3F5B205BCFAB6FEF4033B00A00189,
FB29F3F600E1F751FEDE094AF26FFE62,
081B046903C2F87505E1FFE90A2100F0,
0937F9C3048602C2F647FC8FFC260C74,
13D1F8FD027DFCFB0720F86EF6FBFFDF,
F327F76D0399E77E01B801A104AB0174,
004A031DFDB207FA09F7087A009F0045,
FEEA018703D50709FCBB03B7FA89070A,
F6C712BE0419F532FF47EFF707C5FDD1,
FA03FE37EA4CFEAF01DCFFCFED510A94,
FF96F5B6FAEA085001810741FD3EFE37,
099A0639FF4A0202F1380DA4EF85FC9A,
F813060E091CFEDFFE1C00B6070E01F5,
FA6E05E7EF49F9BFFD65026BFC8CFEDF,
;   output 33
024E0AFC059707C0FE2FFA16FFBC074F,
04FB058A0601FF60007E09E9FEEBFB8C,
0A16054E060BF16F0595FC42FA3CF2EA,
FDF609FEFE31040EFFCEF62AE9D3F977,
005CFCE703A8F89CF4FEEFBFF382F811,
FC710264F4450D1EFD14FE2EF897046C,
FF22ED10FA7FFFE2F4D4F36DF75DF912,
F880FD2CFFBBF219F577F44C08CFF79A,
01AE008500EEE6640F170BFE004705F6,
F844F34100AA0C9AFBB6044BFBEB0849,
FC90FAAAFE44FCB102930757F4E701BE,
E849009600D6FBE0F258F50D015CF9EC,
FC17FDCFFDC7FC5CFCE50C010351FE9B,
00010228FFFCFD2900050256FFFA0431,
0315FBE306D0F92B04EDFB53F9AC01E4,
00040216015D01490453FAEBFFD9FD89,
018EF64C006DF9B7EC41DF6BFEAAFBB4,
F7CAFACBF0F300C3FD5E042FED2407A3,
021DFA4DFF6A059CFF29FACBFDF00392,
0783FF57F1FE037C0299FC05F889FA8D,
097AF58708C7FC0E0570FF2E066DFA3A,
00CF00FE025104AFFC450631F5C80A43,
05EAFDA30CD3F9ACF8370268FD9AFC8B,
00F4FB59F8B3FF60029B056900CB09A0,
0A3F000B0595FD53FBC300A1082DF10E,
FD09028EF9430A3A038608D9017E0524,
F9EAFEAAEDBD046EF63EF984F6850160,
F30D0A28F16DFD38F60E012BF84A0A93,
F5A6007C065FFF84F0D408EDFC05FEF2,
FA5AEEFE01D0F74F0124F552FBD4E936,
FF01FD730079FF11023BF3D0042DF4CE,
0C700959FF0CFC1A095203220426EF43,
;   output 34
F408F02EFCD4FA24FB3601B1FA78FD4C,
F94DFC6EFE3DFD9301C6FE140617FB8B,
FEC904F4017E04B105180B33FC5501F5,
08D7F5DBF456FEB104FA0265E5D4FFA3,
FB8804ABF1D4F88BEBEB04D2FE2500D0,
035403350837FDCA002C01F1FF8F0970,
053AEC23FF42FBF500F4F04EFBE0FD01,
FC64E76701A3F98507ABEC8901E5F048,
F93D03F101E00CAAFBA106BBFA4C02B0,
02330E1E0A380760029BFC1903BFFF93,
0289048F00DCF6BA0907FA1B04A6F4D8,
03F7008D0625FD4B0C5FFD67021FF568,
FA97FDBAFCC7011602D0F67B062906C7,
FFFBFC69000103060007F1AD0015FF8E,
05AB000B0079FA2408BDFC1DFF900C11,
FBF500BD071AFC3EF3FF00A5EF7F05F1,
F464F9CD01E1F9E00073F6060002F981,
F972F2F7F8EE00B8F80CFD2400DB0BAC,
FAF90A9402A1009B03C0FEA403DCFC68,
FB89F471F4C7FCEDF4C4F5B8FCB4F70C,
F70A070C073F02CC0399073E06B1F712,
FC3501B2F309FF1609D501D70166FD91,
FD04EEEAFC920139039BF7950FE8F58E,
F44C011B0463FBACFC59F8C006CEFA2C,
02DAF3A7F48B05F40730008D0A930D08,
ED6C03DCF9C600C50668FC76FF510BC4,
FB280D63FC9F047EFA70E36D0741F2BF,
02DAF4E6FFA1049E03D2EBCC076BFC8B,
FDFB05FDF521091A095E03A804F2028C,
FD88FBF505E7FE7607CB0116F3850343,
05CFFEFD08F702EB04D2F7E11A6C0675,
EF970089F66F0175F6760090FBCAF5F0,
;   output 35
0260F334F290054C02A50A15FE67FCF7,
E9E6E8C6FC08001A0072F70301B3FD6C,
DFD3035AFA82082A05F802B00331FF69,
0011EDCFFDA1013E001608F5FC19F980,
FC26F7550217F8D3FFEF0DC402190390,
F809E8AA029406E5FE6C079C01D30434,
FC85F7A3F8AB00EBFB04FD29FDBD0038,
F5A800AB073B0524F3D2F7B60444FE25,
E54501E9036DFA3707750DF4081109A0,
F475F7E80759105905E5FFF709120568,
FD48F02B078C02CAFF7901B4FF6CFAB5,
F46AEEC50953FCEFF9D0032E056C018F,
0433FA42FDFB02C707A309B700EBFF59,
0000EC38FFFCFA70FFFA0721FFFE05C6,
E9D70155095BFF5A071EFBB1054EFD4E,
EF26EF18067BFE72FCB5FBE000D2FE31,
071F030FFAFF00D50147FFE6004B026D,
0430FF44FD6401EB05C7FCF404FB0AEA,
018BFF06FAE807FFFFF0FE4F0628FF3D,
FF64F8ADFFEC07BEFD98FC4FFAC401C3,
F0CDEDC6FDD1079A024B0A03FE96F608,
FEE0F15EFF58FA3903CAFEB401760305,
DCD5F9DDF58C025A07FFFBA90323FF72,
FB8CFF3805060742FBE0044CFE74FC61,
F929F86F014A01F40380FF9C088DFFA8,
ED9E05090541F59AFF1A0C640252FF48,
F899E560FFCE00D901500167023A0150,
FAC1EE8B0039021504CDFB9C0306019D,
F55200B0F71AFFF500CEFD53060E040A,
FB9CF362FF7FFE7C012CFC110316FE18,
0448FD0A038801A7089E01CB05FF0161,
0B49F0F60B75FB9EFF12008302C0FB9E,
;   output 36
F6EBFFA7F9AFF22EFAD2FEB4E866FE18,
005805B8FD50FF760602FBF501260B80,
FF5EF4EEF9D0F85FFEFA07F1EEEA0122,
017A04EDFD4300AFFC33FAF3028EF4FA,
019F020BFDC1FBC8FEE10165FBA8063B,
FDA1001AF2C200BB05A8EBB50485F9FF,
054C01CF080CFA8FFA120588F73EFED2,
01BD05A4ED28FE8EF816FD6DFDE4F8C4,
F7430429F7800081EB47FCD3FA24FF84,
05630C81FE7F00DD0A24F8C4F0C504C2,
F4D4FE90E48D01F0E4BE05F6F758FABB,
1521FF50084DF05E0C58026E07640481,
F865FD0B065AF7FCFB17FC07FE50FC0F,
000502D8FFFAFF1C000903FAFFE9FFFD,
FC250447FD7007DB0937FE40FBDB0390,
FC3F0617ED3AFBEEFF4408B1FDA805F6,
0035080CF617FD00068D00E4FDD102A4,
002400BBFE13FD11026E0522FCB50004,
FB90FCC20A990F450016044403AEFCEC,
FB310E6BFCC90100FFAAFBDC046C0906,
F8BF11C6FCD9FC4F0761F79D06F50E4C,
FE9205EE034E001CFA9A0C1AFF1E0ECB,
04F3030E07490546033C03FEF9F0FBBE,
00F5009F08DA019BF918FB15040F087A,
068CFD92E8FBFD8903BEF6E2FEE5E973,
0ABAFE350C56036C06C0091B0FF104AF,
FCA506B0F47EF31EF875FD57FE62F8E1,
028603D9FDBE07E5FAA2F845FBA0023A,
FE520167FEF008A7FA2BFBFFF47403B8,
FE98F9F70332F686002FF867FC36E0DE,
FF7C0B7B02050902ECF804D8F49C0572,
045FFFB0032F02DA03BA0CDD0CDF02C1,
;   output 37
023A065A02E30BFFFFF20473FD7FFAF3,
018202570C7EFEB4F9B601AAFC85F46B,
042D057EED2D0693F855FF29FD680209,
0862FC0904FEE2FB023D00C0F93A06A8,
FB38F1BFF7F6F44401F5FC5105BE093A,
05500082030F01AFF18CFE13F34B06B8,
07750005F79F037F0A3703F006E608E6,
0C79F895FA65F1ED0364085201E5FCF3,
0BD2FEDAFC8304E809CE14B2F5D5052E,
01F30437FD19F83CF8F70618F45200E6,
06500C9EFF10095E0154F9BE0042FE8D,
0ABC0093FAE801B10B6F007A024CFFFF,
03FF0349F7140E0B02490341FBB7FCE2,
00560174003CFEA800020426000D0263,
0185FD43142F018EFE5803F3F78CFE94,
0974060DFA54F04D03560372FFAFFE92,
02EFFC9FFEF7EEE5025A0185087BFD71,
03A3FDEEFC5BEC96069201DAFB64FB8D,
EBE1FEB409940DF800D3F02F04BBFDDD,
0144F7C5F6FFF4EB0B40020DFAC0003A,
F8350389E27003D4F2BD0D53FC69F6BE,
0236005FFAAF03500871F605095FF57A,
01D40ABF07370ADCFEAF0E92FDF7F8F4,
04EC0359EF2BF00400F20B2FFFF20BDA,
F358FADFFC09F1A2FF61013203AB0195,
19B00744008D03860556FDC7FD4AF8DE,
01900F47FB59FFD0FF750265F754F5E0,
0C7403130397FD6DFBADF56508DB016B,
0560FB35F9DCF7240132F66A067009BF,
0A2207CA0271FBEE1049027502E0FB17,
FCCD03A6FAAAFF8901470632FC7E0232,
FAEE0673EFA1FD9506A8047DFD07FDB1,
;   output 38
046EFE6700840737FEE80243F9820921,
0CD205F8028B000B0E77025AFCFDFEAF,
FCBC048AFF12FD8C03A3FB25FD060818,
004A00DEF83801AEFFA106AF0298EF3A,
0598018002CD024702580162F6000A8D,
EBE6017CEFFE04AF0165099A07E1FF21,
FE0100E7FDEEFC4BF57EEA50F81B00C7,
011D076E03A2FC05020A03D907A30DB7,
FCD7FF420385051101E6F5E6F6FD03C1,
0FDBFCA3FA4CFCA7FEA4FDE207CD0396,
014C0715055B00ABF796F6E003F3F5AB,
080C0458FC4001B8F221F15802F408B4,
FC6DFE68F8DA10ADFC38ED320016FE92,
FFE3057EFFEA02A4FFFBF1FCFFFFF009,
FBA2F91B041FFD43FCA4FF100581F626,
FD1705E1091608FFF0B10E6BFA5005AE,
FFDDEBCFFDF6F862EE9FF88905D9FEF3,
05B104B4F5BD0A3BDF48005FFDA8F8B6,
FFD101A1FD43F3AA00AEFDD1FF5706A7,
00DA089F0A99FDA1041BF7F5F593F3B7,
057AFD4002E1FF3C0AB70C04FC16FEFA,
F6D2F463FCB3FEF6FFD60B5F03DFFBC8,
10BA05FF0054008E06B4FBD2F433FE5B,
12FA0333000BFB08F40CEE9CEB3A011F,
FED901B20150F0FA0CA800B5055FF89A,
0054FF0F03C0FF54FACE060504C4F6C0,
FCDA0791F948FCB0F8E5FB250A6304BD,
FFC807ECFF0F01FC0DD9FEE30146FFB2,
0730FE87FF6EFE7BFAA00BCB005FFF4F,
E7770712F51F0789FE4802A201D1FC60,
FFCDFF97F6FB0495F88CF768EC13F70B,
FCAE0239042BFDF7F9CE04E2EB080CA2,
;   output 39
0761F55C059BFEAA02E6FBB4FA32FC5E,
0BEC0850F5C902C2FC3602BBF4F106A9,
0C810062F16AF95305FB0444FFA1021D,
F9A804B7F7C802F3F3BFFB95F5F30EC9,
FBB7FB06FF44FF51F3B3F2E20282015B,
F886016A01D1F52CF7D2F1370A88FFAC,
043BFFF30641F2D00786F5D10D34F274,
001AFDF300490522E0CEFD76F8B5F8F0,
05F2F24DF8F0F2D2E5F10984FE7101DE,
0A10FAAEFD42035405A006620AE500D2,
028403C900F6F9F2F78007080AE3038C,
025904A4F95EF997EDDC01F40129FB57,
FEC8F2CB00A6F4AD04ACF9D7091B0267,
FFBB063EFFCFEF63FFFFFEBD00000456,
0FF502DCFA6A01C8FD6F086306100A2F,
E9BB0C7CFADFFC4D04F60571F81A0BAD,
FD7110A7FF840227EA13FB60FA3CF96E,
F6FE0338FCB1FF15FE4207F8FDA01513,
038A090FFACD081D05AE032DFCFEFE67,
03C6005803EF056F0264053FFDB6004B,
0943090E0039FC4D02C8014C044607FA,
018AFBA503BE059703FC091B06C5053C,
0D1501BD0987FEC5F7E3020F06A3FDC7,
F5D0FEC105700205080D08E906240295,
05390E16FCBA03C0FD21F78BFE7AFCBE,
FE2EFD2304E1019B04D4026907710816,
F16A1638FD950023F13BF11A057DF954,
05DE02D2F5DEFB200AE2F64C0E1D012E,
079BFCBBF91F09EE066001660102F20E,
07DD0ACA0520FBD9076601C1FE88029E,
F82305B202BF0C9B069401700260F730,
F7010C6B017C0547FC6A073EF38708EA,
;   output 40
E5D9F275F164018E027D03DBF889007A,
F2E600AEF106032E049A078A0685F475,
FA13FB08EC180DE1FC09FD38F12AEFFA,
026CF51D014A05FFFB0BFC590463F189,
FE5C0C75FEAB04EE00F5055D00B80771,
FB210294FFD5F5E2FBDAFDA5021CF8EF,
FF33074DFEE9FA53F2270621FC69FB7F,
018F0487FD38F9D8FF480838F066044E,
FE9D04E1FCAD10301013F7DAF7DCF982,
025F011BFB5701960E5F0A8C055CFDA9,
FBE809FAFD29F98908BBF78AF7E4EE1A,
0A1C0BA6F5F9FFD307A50BF8F6D5F954,
EFCDFDFAF6C5EEA4F91500C2FD2E07CA,
000102FD0011EA3A001208BBFFFF095C,
053409B807A6FD120702F7EB08D3F9D8,
0600F21F00DEEDD60028FE16F3CCF0DC,
FE7DFAB5F95D06C205050420010B031F,
00EFF1A3FDA10C32020E0180FFEF025A,
06B701B003E0FE9500B8F99F04CDFB14,
042AFA2805A108FBFD9705B6F9DC05DB,
F878112D0598FD6C05F002C90967F91D,
01D6EE36039BFCFDF2A1091FE9B403F4,
FA71027DF43C01C5021A08D901A6FEEC,
00DEFFA8FAA20A2305F9FB080061008E,
0127FB3202F8067503700BEBFDB1FE90,
0A2211040BB1FFE802F40FB703020910,
0914029100CFF9BFFE15078DFD80F4C9,
01FDFE11F3E704F3FD5FF918FBF2FB90,
F1750959F4D909A603E0030C041701E8,
FCB2FF880866F8B3FA3FFF89FCDEF8B2,
04B0FF4E054F08A3041D060DF0D7FFCF,
0545FE6A05F0EE4906E3FEA0045304B1,
;   output 41
F4BD0647F71BFB580720F670059804AA,
FD42F77AF84BF6F608AA02FA070B03B6,
0090E94307D5F7FF0399FABC05C00115,
F797FFA70985F308057E06A300E10BAD,
034D00D80180FAC80311FF11F8ECF981,
F5E2FF30E2C60538FEDAFC90F2A404E3,
06E7FD8B02BEEB1EF8AE02FCFEF2F5DC,
0617FC84FC9BECC6001CFB86FBEEF2B2,
FC22F7FDF8B1F51FF7A80929028FFE5F,
ED0D0FCEEB19051F03F8FE03FE05FCA4,
E642018FFCD50230FFF70AE8F30802B0,
FFC7E227FA05F6AE0272072D08700639,
FD7DFA99FEF6F72E02D201F6FEBC05C0,
FFF4F105FFF4FB7B0009042DFFFA00DC,
F624064EF86B03BC05310112020AFC43,
F5D2FEBC072B0A98FD9F056CFFF305C7,
001E09A6EFFDEF23FE180175013FF27F,
F8FEF2C9E0A0FE1B09860374F53E09CD,
0401FFE602EDF5E5FEE600F107BE00EA,
F98C091EF3DEFC83FD88FC0C00D8F7B7,
02120067FB010216074DFF9C0512FFD7,
06C1013900A80302FF48FF0F03C4FDCA,
0001F795038903A2010C01FA0251FA4E,
FB4E0749F64804E007D9086DF8D6106A,
FEC0FD96FED2FE01FD88014D018B0376,
09D80A7702D306CD01710471FB78064C,
F438FD28F7FDF45F01E207D002DA04E7,
FE6A04A80446FAE7045102350251FD03,
F4F6FEE80081FAAE06F4F146025CF873,
0864F365FE90EB91FD4201D1F417FDE9,
046FFAF302BBF7B2054201BBFE18F3C5,
F563FB2F0292F0B50312FBF8F58201FA,
;   output 42
ECCFFA48FB2C02BAFE9DFA68FD73FDD3,
EEE1FB64F42703FB0134FF67029B0705,
023701B9FF7A0532028B056F00750606,
F9AAFE34FBFEFF69FE43070D0329FF27,
F276FCD9F40102AF0524F806052000C8,
FD3BF3350480FDE1FD6AFF80FE92026F,
0104E051030704E0F9A2ED72FF350518,
FF1AEFFB035606D3FD1502E4030503B0,
F58700ABFA260B7B00E605F2011D032A,
F81E0102FD0105CA0417047102A601ED,
FE7CF8F0FFEFF7810050048007810433,
DEC9FA6105DAFCCC009004D3016F0806,
FD53F2DD0A21F7ADFC78FAEE06E40229,
FFFFE8830000F4670003FA08FFFF0042,
F120FC9EF614F428F30405EE07DB0081,
0120F74307A0F74A040502A507A80186,
ECB4F6F209F8043907C10685FFA902C7,
EF1BF25B035404ACFAE902ADFC19FA6C,
0500E597FFD8F9F60346FC0E011C0557,
FF57ED8C041AFEE505CF057200B0011E,
FE0202500879FFFF070202FD07CF0252,
056AEAAC01260098016F088E013B0006,
F15AF18CF24A0253007CF8250112FEE7,
E6A3FC46F8A9FD2C02E502F7024E03EB,
03A9F5EF0761F92AFBEF062CFED2F99C,
08230DF80510008A043602C3011FFDA1,
F9CAE70503C4F659FEDE054900A6FC92,
0B2AF412F5A1048B075FFA2E004BFD16,
F00C09B3FF4DFF9DFC2B01960089F533,
FB08E98B005C04BBFE1605410237080C,
05AFFF40F1FE093D08D10172FFC9FDBD,
03E4F86B090BF5A401240415FB33FF20,
;   output 43
F9EBF39CFBB8F761FFF705FF0635FD99,
087BF9D7FB0C07D8FFEE20C7000B0B87,
02610159F830F44302810861F21B0A89,
0016FACD0257FA94FC1808E6FA77FF98,
086CF8C50E2AFAF9ECDE00F8F4BAF28E,
FF56067EF9FB069B076FFCA4FCE6FF15,
F8A0F455FB10EEFBF503FD2DFAF101B5,
00B4F653FC46F7C3132403ACFAE9F95F,
0265011DF94FF42EEB840F040168010F,
06CC050AFB2905E30626FD3FF96701D8,
FA0D0696EF1009FB062BF732FB9F07CF,
F533F5ECFDB3EBB00523080400FAFAFC,
07A00280F22005D4F4A9FB4FF6AF008B,
FFEAFEF50019F4F6FFE7F115001EFC98,
09FCF903F99E038F01B7FDB4FBE702D3,
FF85011E034CFC39FDD2EB87FA30FDB2,
FB270798FFA1FD66085606630664F937,
FABAFCEFEC2CF74C045B0139FC17F6C7,
F20D05CC004101F3FCD40C71FFEC022A,
00A901D80EFDFFD7FCC8FB33F949FE5B,
01DCFCA8F612FF020177ED0E06DFFF08,
F893F8B90D820826F8CDF61DFB53020B,
018400CA085DFB09FD9BFAD4069AF2E4,
FD11FE8BFA110226FF58FDE2FC4FF9AE,
FBF000C70826036B00F3056BFF5705DA,
0AE9FD4E17BA03D2EF360122F78E02C2,
0BB7F2A20648FD300422FF30F9AF0E50,
02DE008801D60157F45BFE7CF9BFFED0,
017A053E0585F9D5F93603EAF2F2016E,
FEB80F120385E7E8FB60FFD40309FF27,
0636F737FF86FF610365FFB2F6CDFF8F,
F58505F00D55F86FFB390BEE074606D7,
;   output 44
FC56F6C7F7F3081B0741FC3A02930089,
FE670524F933FFD4F595FB62FD0BFDDF,
048F0464FA0BF2D2ED920A32F3E1E667,
0B4E0400033F0302FEB0F944E768F790,
03EC03D6FCF5005CFB23056EF221FAE8,
0BD1FEF7041B07AB02C8FA01EAF30144,
0686FFA20012F9D8FD7D10CFFF2F050D,
05FBF7C1F4F5FFFA023100DC01E8FE17,
F9A2FD6EFB88FC4BF993F7630456F29B,
0558FCE5FE1D07F6006602E3F00DFC3C,
FD4300FDECA501290E0DFA7CF3E60661,
0214FF65004CE4F3075506030050FA10,
0163FFA801960BD0034EFD33FE2E0B51,
FFF8FB050005FDE00000ECF0FFFEF7E6,
0808078FFE9806E301C9FCF7FA24FDF9,
0377FB92FE94FE74FCACF1530380FCC5,
F7ABFFDF0224FE81078D0FDF026EFDE8,
03E50151F80BEE8600E1FA9EF957F1F9,
FC4B0910031B0BB5EB11FECAF656FF57,
FB8F06C103C209C7FBA70AD6F8AF02C1,
069FFE03FDCE0007057DF9C60A2AFD16,
0646FEC109B60A86FB34FDB0F2F50099,
00B504FFF809FDADFDF4EE8DFA69EFAD,
FC0000CB000405BE05CDFBE2F9F5F2D5,
FF3E086D08D406A1FE3502CCFF62036D,
08B5FA5C0D63FEB1FCDD05B9FD10010E,
01CCFDBB04C2F8F10850FC8AFD780239,
0365018F05A6F565F415FE65F2CDFA3B,
FD36007F03ED0604EFC8FD2AF2F3FECE,
097002440709F3900032062AEEFEFB80,
016404EF06590144E9630903FE92FBD8,
FFBF0E7E03B0FDABF165FB83FB08E772,
;   output 45
FBB60F7CFEC7FA1DF77B0A92F6D3061D,
05A302EBF89205BFFC92FF7AF2910414,
FFEFFBE409040E9B00790313F62EF841,
FE23061D0A9FFFE5F4940222F8D3043B,
0587F3A1FEA8F96FE77BFE6EF85CFFF4,
0A410E30FE5DFC980860FF100578FD14,
FBA8F370FADBF742085BF475001CF753,
FD9808CE04E701780168007CF80A069B,
FEBBFF9BFD430977F7F30AD4F850F91A,
F5970937053D07DCF5960326F51E0A05,
F0FEFA50F25CF9D2E56BF716F0C0EFF2,
030D007AFC280270FFC70280F681F175,
092DF6B7FC87FB1C0623F619FB2DFCE3,
FFFD0438000CFE59FFFAEF42FFF7ED85,
006DF755F3D607A60B82E9BDEF68F527,
03FA02DEF44100F4FB71E7DEFE16F294,
FCB5FE40FBC1074A09AC0945025C06D4,
01ADFFE0FBBCFF0E0022033500D70E3B,
F28DF699FCCC09C4F75B014D028E09B1,
02ECFDDDF8C5FB33FCE3F613F70FF82F,
FD6AFB80FEB90342070AF92F0EB601F8,
F1AE0180053701D0F3D21130F0680729,
FFAEFCA90166FD9EF541F062F9BBF859,
0562F5570695FB9DF9EA00B0FE470254,
028A07E7FC5FFAF2FD3DF37FFFF4FB9B,
07C40839F9D8031802A1F8C9FC1109D6,
FB16FE41FDB9027706DD01DE039A020B,
FA73FF5E04E90718F00204FCFB07F0A1,
010D00A8031FF59DF859FF9C015BFDFC,
01BCFE9C0545FE2FFA33F4B7FACDF935,
FF5111A100490126037C05B1FD00FF7C,
0407FCA1FFF20097FDB5F15DF7A2F645,
;   output 46
FA340E4A0528F3550657F8830EEA0651,
00EAFF7BFDC3F12EFF3BFF190B1BFD66,
0810FEF90187F4B703BD03D6FAB70497,
FA61FF3CF4A20085F5EDFBB7FB58F633,
FB78FC9CFF58FBC3F448F246EE80F9F5,
F9E4053FF411FEF3EEC8FE88ED67FF22,
FC3F09D5FE5202BDF9FD0581FEFE09EF,
FD4A0220EABD00C3F7FFFBC9EF9BFCB7,
040BF97201230A19FB1DF5D20C60FC0D,
01A8FAC5F6E3EF30F66202BC0739ECC4,
010B03430160FEF30A2204C509FE0462,
061BFBB6FC38FC33162407B2FE260715,
10AEFB890406FB1803D7089903DFFEE5,
FFF909150012FB230013048E0003018C,
F651FE230150F60BFBBA048507D0F081,
F7960985077400DCFA3D06BE0C00FEB1,
03DFF1E90137F5B605A2FF89F4A9DC54,
FFCAF5DD010EF98DFBB8EB390034F81B,
028000790027F7BFFDB801EDFBB3F7A9,
00770A4509DEF010E086065AFD69F667,
021F045BF934FB8F02E7FD570273FA01,
0000FEA3FF58F99B0264023BFDC5FCFD,
FF10F844079E0B810916FA9B02FB045D,
FFDEF099FF72FBAA0622FC78FDBBFAB0,
FD8AFD21F53EFB5F06F6FD9803630274,
FFCF09EBF5A9019CF5CF04F1FF070735,
00BD0D81FC11F5E7F8D3F63AFC8E00D6,
03630245FF68FBBD0BAB013604090607,
FE10FFEC013EFB07FA370016FB9FF05D,
FDD40ABEFF08FA9704F0078603A60B79,
00A5FE0AFE75FF90FE9F0444FA72EB5E,
F4750101F90EF89209DBFCF2070002C7,
;   output 47
09720B8AF4B3027902E5096608EA0126,
F9DA0BDDF08FFF68088B086007DA0137,
006BFE520C35FF21EEC9FFF007600863,
FFABFE6F045704A7F93D0453045A0787,
024DF9E9FDCEF8380117077D06A0FB63,
03F501D8082EED720083FCBF01A80121,
F3E0FD48FA45FC6B07E3F6E2026EFF84,
0029097CFF57054DF67B0BFB01A20391,
0358F9A00A51FCA5003AF782FB86063D,
0DBE09140E22F29004D3F0CE0858F7F7,
FEE9F2E80247F98207B4EFFB0523FB5F,
FF82064202DAFC63F4E6FF0CF96107EF,
F761F39AFD02F037EC8AF8E7FB95022C,
000AFB990008FE7C000501F70004072F,
06FDFE84043DFF9101B0F3C5FC27FF8A,
FBDBE531FCE0E6960317F7AF0281F146,
0E26FF30FA1001F905980094FA4E0080,
FE7BF9DF05A303A30282F97006D804A1,
019DFF1E06ECEFCC07C4F1870382F594,
0977027003AB0187FBE2FA3B004E0797,
043409E600A502E0FF07F725FC2BFF98,
E7D5F930F323EE03F15D0513F6F8FDDF,
F5E8086AFF64FA080AD60044027A01DC,
04EDF04300F6F0D705C7FF76009DFF91,
063F04F2FCF40549007601DB04A705A9,
FAB208F4FB99FC0EFB5505FE03E1020A,
F8FB0AE90354FF8FFBE41006FFA603AA,
F79F0857FCEF01AEF3AFFE0FF8320267,
F071FCF1EDF9048C0C11FB42F847FDDF,
F9C50331EB4706B7F6CE057DF18A026E,
06D100E30975009BFB2E01ECFBE8018D,
0C690F2C0AD40626F9F000B4F9C30F6D,
;   output 48
FC7002E100C9FE4904FC029B01C709E4,
06E8E9FD0441FBC9FE1C015100FAFED9,
FCCA039DF5FF033C097104151219FBE1,
F912F62F01290588EB4A07F7F1440329,
F59CFF7A0CFE06B2F297FE0005BDFD05,
0A08FB56FDFD039C063FEFAF0AF3FC0E,
F67B04D2ECC5014111290072FA730187,
0AFEFBC903F8013A0922F91BFEBE1044,
0380044F06E00379EAB0FE54F393FB12,
F31DFBEDFE69017909A3068FF949FCA5,
FEA1069F060AFE3FFE96F537FEA5F871,
076E050905AC0A4501C907B3FFAFF987,
075101E8FC6CF98009F100A1FB78F771,
005AFCC50046FA7500010A65FF9A00C5,
FF6601B705B609F407ECFE4DFDBB0501,
045F084902EC0A9DF097FAFDF6EE0048,
FBE4E9C6FF2705D807DA02AE00340242,
FC4BFB3A0483041901C4FFD3040C078A,
011EFF80001E0AF0F7B7099400C7F7CA,
FE51F32207A402AEF742E0FB0631FF87,
F83E07C4053BF7210103FCF8043BF046,
FD50F224F69C05A0FEA80281FE110219,
FD0F04D9090206A2FBDB034808D401D0,
E343FE69F675FC10F6DBF9DA0427F670,
F825F430F8B40A92F4B6EEB6F7DB0A05,
0AFD03760740FB89FDDDF9CFFE5401AA,
083005FD0D8000C1FEA41253EE2F00EB,
05E1F9D0034F03B8F6D6F895FA7E0640,
008A0560007EFFC30E430493F7960449,
00F7F26EFCBFFCD000420A36FE70FE72,
FB0DFA9505D0055C0AC3F848F55207CA,
049403100664FC7FF18AF556FE7F012E,
;   output 49
FAD808ACFED20277F9E104F10117FC9F,
02D0F897023FFE2CFB26062E03F4FA8E,
FF66FA91FA1402D5FE7CF2BEFB1A024E,
F6BB0313F79504A7FE81F7420242FA28,
FCB2FEF4FE23FA8DF6C8FBC9040AFD34,
0375FA18079A05A702AF0262F929FFBB,
0032FE92FF340748FF4304A202890B04,
10400703FDD501390B34FE93F2E8FCD8,
030C05BB04250F23F3C8FB6E008AF66D,
F759F232FB81EA27F528FC85FBECF85A,
FD85018C05450558F0DBFD6503CD0665,
F2F3F54000A10000FCE8FA6BF81B093E,
FF8AF8AD0A540209FF17FB8FFADFF73E,
FFD5FC78FFD2FD5F000DFBA500220291,
01A6F9F2040A0044FB07F191040FED10,
011EFD5A00420218006209ED05FD0003,
F25500ADEDB9E65100000755E552F0DB,
FC11FCE708C70213FAA7F76E0519FEC9,
0268F9B203ABFD70EFB9014AEC3CF737,
FEDAF4540A39F46AE740F4B0F86CFFD8,
0479F8920188F98E07690291090CF6F7,
FD890810FC2D03D0038C06DFFF4F012B,
044B08F2063C03620341084D0C5F016E,
F0F5F12004EEFDF1FECA009CFBA8E68B,
FB8AFE6F04E803140750F72504E304D2,
05FF05A9013D041A09EE0419033D078A,
02A5FE821000EC52FBC4E95E0142F085,
FB91F68FF30BFCDA0030EC5C01C103AA,
F5440622024F034A00AE0415FB8706DB,
F3B2FA2BF83D0275F596F2FFF64B0583,
04C1077C024F0401F79FFACDFF5DF6F4,
0DB0F3A3000903410128FDB109560807,
;   output 50
063B0FBCFCB800D8F6DEFCDDFA430586,
0643F72A013B058D01B702ED038DFB72,
07B20898010B06FCFAB70628F5530155,
085B078B08EFFDEAFE66F626FA540D55,
03950675014F02CFFC97FF12004B0E81,
FFB4FEB90422024DF6C1F8FC051DFD38,
FE250472FA73FFA00BFD07970BE30505,
040CFD42FE9A01DD0897F6FFFD6EF9CE,
FFB7FB4CFBDA0338FCC5F6B1E8610394,
035507810669FB52F7CFE723030BF679,
0D30FF4A0AC7FB860F49FFC80B96F9EC,
1477100403A209BA072C120908DE0465,
0D43FFD3FFBEF5530399F7BD046BF28F,
000E0393000002CF00120B3CFFFF0192,
09980474035D01D1FE92FDF70542FF22,
FEA0FECDF654FFC6E1D607C7F0B3FF34,
028AFB57047509100492F9110412F9E3,
024CFEEC05A1FE82007DE45F0B24FD3F,
FF78089E03DBF3C0FCEAE3BA0E4FFD81,
FCE8FC960389FDBFE83100E2F79B0089,
FE41FC9AFD4F0687FBB5FC09FDA4F381,
007D040F086DF93CFFCB0460FF7AFCA4,
004000AB01B8FB6001A2FDB5F84FF88B,
019EF8AAF892F334F405DD17FF8AF9D9,
0427081E073802EBFE8FFF0DFDD2FCB8,
FF71F85101D0F573FAD3FF1201FEFD3E,
FFE9041F05F9063DFB72F6630567FAD3,
019DFF9902E3FD5EFC2B077A040E0695,
02FBF637FB33F706F110FA03FD2403C8,
EFFD0C50F70804EFF01405BF01BC0308,
F8FA035EFFF205F001E5FE0F043603E0,
FF4A09DC056103A3F8BFF7CFFE4BFB70,
;   output 51
08C0EC4CFB68E975F9E9FB31FB170443,
08BFFAE2F3CFFFB4FE53FE63FD31FE77,
00EBFB60FCEAFF190B24FF6609160A61,
0529FD57FBF505C3012BF8F5FDFAF299,
09EEFB3FFF800276FCF4F3B6F5A5FDAC,
F317014BF5A0F54C09C7FF3F0CB8E84D,
0CD0093008DA08C0F7FA01D000030282,
F8BEFCB0FFCBFDF1080AF908F9D3FCA9,
0266F7B3035302BDFFC800C30662F5B3,
FB8FFDE2F354120002FF0BA2F5E7042F,
0C060535F58606AFFB27FFDD07E10559,
F9AEFCD7FAC5FC6E04A0F718003A02FC,
07940160FDBF0293018AF629F5960962,
FFBA057D0072F6EF003DFB01006DE378,
0AB206BEE2C5043EFE910143065205F7,
004C054BF947F43CFDE80688009EFD5E,
FEE5FF84FD28F694FC7806C9097707E4,
F7100800FE9C03EFFBF1F93BFCCA04ED,
FD38F2ADF5FAFBB6F60206DAF4DA01C6,
05E30569FE91080BF14D006EFA8E0738,
004405550570FDEDFD82009DFD2BF234,
0F2CF95808B2F5DB06A10303FD71FE85,
FF8BFF130711077EFEB806DAFB82FAD7,
0678FBA50362F4B7F3A1FD53F658F875,
09ADF8E9FBC90190FFDC02A1F71603A0,
08C0038A051FFC740682FD6D0256F23A,
FD0B058BFA79FE210AEEEE06F7A0FC6B,
FBEDF5440054FBB90503FA88FC14FE9C,
FD3AF487F2540E59FA7A0AE1DC4AF6FE,
0A8302E0092EFF7B0DB2019A0EE8F653,
F7C30195045DF9F50007FE01F4C20141,
047303D501CB08BE002101E5FE94058B,
;   output 52
FACB0E320D83FA800343FC6505D602D8,
04E0FF78FB590755F48E0208FE60045B,
0B17051100771613064408F4097D0195,
0A0A053AFC5402C4FDCEFFD4FB6C08E5,
F8D3F8DAFB62010BFF3603C8FF70FFD3,
02D1056207A7FD130306FFF7F8DAFF77,
FFB6EB70FE03017401B3EE08FFC40D41,
F98BEF80FA62FF58F499ECFD023100F6,
FDBBF6E9FFFB011CFFE00B4E09D7071B,
011F0595086401E9FAB7FB96FD8B02EE,
F978F592FDB40485FF9BFA54007C0554,
F67003CD0056FB4C09800341FBF0FD99,
F9F6EC4DF639FE4DF8CDFD1AFA79044C,
000B03AE001203DEFFFB06120002FBE9,
0D740460FC67040DF96303A6FC170BE5,
E7D911F1E5EC077D033F00F8FC80FDF5,
F8E8F95D0F13069FF9BEFE3508DCFE67,
EEA3F4F00548F1DD09C8010905C1024B,
04B6FBCAFE91FE9D0917F9C000AA037F,
F1B7E97DFAF9F12503B0032A081B00E1,
03DD043F02560126071DFEF3067A018B,
FDE60BD2FC1A070A05DB083DFF09FDAD,
080FFD24FF13E825FC6000F1F98FFD7C,
EFDEEF91F718F51002AC01A3FE3BF818,
FC95F98BECCDFC11062500CF0366FB47,
FCFE0897FE7CFED504990531F3F40170,
EC0A072BF91808B4FA4708A0F2C605B5,
0AA809D70796055D00A3F77E02FAFB04,
0D4BFAB200F200A601A907F4FD7F05F2,
F943F80CFFD70555F9600586FA8106F7,
FFDCF4C1FE51F8A00306FF3401DAFA89,
E7EE0483EF35056308ACF175FE62FD38,
;   output 53
F57300A1F486F94D03E6FD900B330580,
007F084FFC0B03FCFAD200D7F8A50CD9,
0A83F04CF462F6680930029E07BF01CC,
098E07750D90FD0D022E073E061B1693,
FDDBEC4406A3FB7DFF07F0C9FE17FD77,
FE9E0935FBE7FADAFBE905A5FFAF027D,
FE7E061FFF77F936F52DFDF5FB86090F,
FAA6FF6209FC0647F93DF8080483F445,
07ADF32B0185FEBDF54BF70508340DB0,
06ACFE0A04F01858FC7FF95406F900FB,
E52BFDD7F6ACFCC5FCF2FC5303EC07ED,
FE3BFD21F96CF71DFF3EFAD20387FCA5,
0364EFBFFE41FECDFA39F895F9460294,
00270AB8001FFD590004FB58FFFB0A74,
0BA0025DF016024C05A20C6A05910109,
F880F6DD0506F178FF7B0AA0F66F06DB,
00410E05F8020258F5E2FF0B02F9FC20,
E44EEB31F95FFC900321FB000402FB4A,
0195F953FB600371042F00F60E31FF3B,
FA6C04C8FF3D0CDCF997F76A0FC4F888,
0553FA7CFFA0FD6400540574009900C0,
05E4FC46F89B036D020FFD6AFC6CFCD8,
09EE0730EF63FDF9F52CFC72F97B03FC,
F7A8F85503740BF7F3ADFFD805BC0627,
118C04CD08EEFD44FF16FD7A07E709DF,
06B40216F73DFAE2F946024BFF4006F6,
F702FCAD021809DAFDE3F6F003150A47,
FE430730F848FA49FCB70B13009F0E40,
FF03FFC1FF810306FA93F4D80A8806E3,
0514FE70FEE001BE0425059A02BD023F,
FE5E0C1F0378FB00F2CDFBC6153E051E,
11AE09870D43000BF92E0A56FBDA02B6,
;   output 54
04C20644019605E40885EED60853FF9F,
00EE0847FF9A0743FB34E5750243F4FD,
FD9408F004D9020AE9A1065000A403F7,
FF8705C6021AFFC3FB07E426FF75F59F,
FEBEFA3F08B90881F193FDAD03EDFE78,
FE00FFF4071F0720FD6FFC31F68D08F9,
F9BF0461F9B201D6FF0EFA57FDC80073,
08AB0026F2BEFE8B0253F607F968F0D9,
FF730701EF8C00DF034303CD060E06DA,
FD450A5801E106AD053A09C7F7DDFAF3,
07310617091E00E3FE0701F205360049,
047F00D2083AFB6CF5170005FACB067C,
0098043BFEF20093036A00F20164F8F5,
FFE7F070FFDD0428FFFF03D2FFF40507,
FDB90B13F76A05BFFBB7FE65FD8E004A,
FF72FF3103800632F89201C4FD60FD4C,
07AF044A0758FF11FA74FEC9006EFD55,
001107290324F872021C07A208C6FB2A,
01B001D809270489EB19E7C0F14AEFFC,
0173052CFF1C01C5FB35F5BD023CFA7D,
FD08FB660B23FCDD089FFB31FE9AFB72,
FDFA0783FDC20BFDF7E2F6E9F734F7C6,
FEC0F351F17AFD38043FE64309D2F27C,
07100676F98E090A038200DB001A0430,
FF7FFEECFEC3ED6EEC0DFA09F5EA0450,
012105D0067F06E8F7300A32ED3A0680,
0255F7BCF6D2FE7DFC08F348FF96F824,
F94B0680025B00E7F5CAFCC4FD08F84C,
FBFF02F8FEAAF696F543EAB103B10073,
EE1BF9C5FB71FF3DFEC4FF4CFAA5079E,
07580464F5C0FC5BED66F42CFB82003F,
05A6EFAAF791FE64ED9B0035F92BF39D,
;   output 55
FBD30867FD93FEBF07DDFAD2024D0376,
03C6FBA9FEC908990414F065FEA6F904,
03EAEDD9FCD001F0FA530B0EFEA4FD03,
04D1058C0055FBE202CAE45E0804EF20,
0380F64CF8E6FDBFF8C8F1DBFFFB074F,
E767030303A70494FAA602DE05F400B0,
0B39002F0847F86302DDFCFEFB66F652,
04ECED1C0036FB5105D0FC33F840012E,
04D2F2A2001411A600C5F81DF93B0017,
00D9001C09D3030C0F1EFB05086CFEA8,
EC450B26F83AFFC6FFC70292FB57F95D,
029AF66BEF11F6BC04060090FF330022,
FBFBFD49F6F80AFC027B0294F7C508FA,
FFEA0A460003036CFFEC05DB002500E8,
091A0383FB9C0837FAF3F7BB020F0455,
F7D5FA95FED0FEF6EDDFFABE0019FDE9,
F4FD0561F1CFFFE5F1AAEF81FB99000F,
F9840115F94502F3027D06FCFEE608E3,
FAD6FF44FD490A4EE542FA55F472FB47,
FA8AFF780100F954FDA4FDA80D1707CD,
FE65083C011E07BD08E2FE71FE5B041C,
0210003F08E40929F562F9E3FD2102F6,
04B8FEA2F870FA1D06FBEF42FEB0F642,
0657FC4D0976FE4BFF8AFEA205A40034,
FE80FD8108AEF7DDFC950278F6FAFE5B,
07DDFB34FBB80154FA200A91FF5CFCD6,
F8B40888F9B506510A7FE16401A3FA41,
02A8F3DB07CB01BEFFEEF339070107A5,
059503C3021D0529F412FC18F237F6B4,
FD92094105F4FB0EFB2CFDE2FD5DF8F7,
FE25F86FFD9FF0AAF263EE6EEEA905FA,
F9BB0269F32FFC8FF95010A2FB1CFFEE,
;   output 56
F40C005BF514009F0147FDD1F1DFF7DF,
0064FF2003F2FAC806F40019F119071C,
F8FF06BE0058EB40FE9D0355F0190810,
02C9FB76F42202F1F96BFE05FD050DE1,
0019FB19F49DFEA204EF05A80180FBF9,
FDDD0530FEDD024501C00026E832F9B8,
FC04036EFE41F0B4E890FDDD0307FB71,
0A1C0DDAF2A4F707F9F5FB09F49102D7,
FD8C015BF83A09E9054A0493FF22F9EB,
0050F924F9D2F5C80B6A0E37F9CF0735,
07900108F916FABEF9AC0261FE37FEB6,
0B9003050269F05CFD2E051D0FEEF2AD,
F82203D5F993FCE2F8070049F8BBFA09,
FFC0005A0066FACF00D1FB2E0044000A,
FF6204EE027A01CAFA2AFF93E7AD07B9,
051D0566F4AD09AD04C0EDF401F3FDDA,
EA880323FCA1F4C201530CA2FA85007D,
0716FF42F6A3FC59FB17FBB3F15E03EC,
FF80FC860CEC005AFB9F0CE70653078C,
FEEDFFF408CC027B0442026512EB06DB,
FA180C660746FF42FD72F8EB07DDF8D9,
04F5FB5206820C9F057BFB99FDA804D2,
F807FFED0DA8F8FBFE25042501D5F267,
F988FB60042BF3810190F9C50BBA013E,
0706017FFCAEF6D6090405B40E3711E5,
022300CD0541008E019AFA01FCE615BF,
FE61FEEA00B2F726F2730522F8A104E0,
08C00494FE280655FD1603A308A60312,
FFCB051502B803DD03B5FD07F74EFEB4,
FB6C0070FEFCF479030D0B4E08E3EB2C,
021804B1FE12FACBF03CFC3F17150381,
FC36FCB8FCCD00C8FD48FD6101A0ED36,
;   output 57
03DCFC45FFA70082007C0433FAE5063B,
0668006CF8D90A080174F9C903A3FF15,
FFB301D5EDB1F16B05A0FE0900A4F49A,
FC50EF49F2C4061102D8FDBEFDD202B1,
FBEBFDA300FE000E013FFF09F75AFB49,
FF4C15BF09E9003B0189F76903F50423,
FB8907C0FC11F122028608C1FFDC03B0,
F9B0F938F521012801A00143F9CFFD32,
FE7B0376F0EC03F512B604BB08A8FB50,
F0BEF689F90B068806D70629FE52F77C,
035703F1D988F4F8F3550410017607B3,
014DEFA6FF7DF71400A3F5C9F286000B,
01BE0B1CDD45082B051F0279012C0B0F,
0004F220FFE7F4B5FFFF0381FFF00BA3,
07B6FAB3E966F9C302C20019F997FFF1,
001AFE53F36FFF4707BA046900040146,
FD4AFD70FF51FD45069FFBF800C3FFC4,
FD1B07F9F3C807AA00D40826ED3E019C,
FE6E0EEBFBAD002303CDFEFFFB3DFF82,
FD260370F9EE04AD0319FF7E01A3F64B,
F1DCFF3202C3EBCB024805B305C307CC,
F81906A3FBBA0518FD0DF98CFB3BFDBA,
F60DFEA1E5EAF852003EFA980075F682,
00E306FCFDDAEF500119FF210B39FF79,
FF5EFE3C02E7FC6EF86600ADFA01F870,
02D10D17F7870133053307F304B60574,
016CFD2D0029F91B074C06CF0050017D,
FFD4FE2AEFD708E9FD65000AF7F908DE,
0B1304B200EB03C601F90BD7F8AAFC54,
F92BF7A9F8BAEF3000830426F99702C8,
07B6FD870738FC2602C8F878F9B1FD1D,
F83DF868FBEDF267F5890638F83102DB,
;   output 58
08A2FF8CEF98FBAE026B033F01C1F64B,
015AFEB2061105550615F9A7000B0225,
0150F331FD66F49B04C1F4DD00A9F4BA,
FD11F93001330C14F9A5FD590294096A,
0427FA81055BF063FAC7EF4D0A42E84B,
E8F907DEE552063FF78B05DBFD2600B2,
F6510236005DF61BFD39FF89F3E3008E,
F7DAFB71FC460C3A07640542FFE3FAAB,
018AFEA9FDEAF7B207F3FE16FC2AFA6A,
F74E0810F889FEC1FE0F020DFFF4057B,
FFA30201F60A010E00B5FEDCEF7F0030,
067DEC84F05F017E00FFF92EFA2EF7F9,
FB50FCA8EE77F0C20619FBB8FE10FDB7,
FFF8F9ADFFFCF8E4000AF71EFFF3F4A9,
FF0504AE05A005E4FF3BF5ADFF56FCF2,
06CF03A000EE0742FE1B0A7E00F60390,
FF49F59EE548EF91F2B1F5FEF35B022E,
0490002BE1A6F5020260FCC1ECB203B1,
03AEFD3105690517022EF489FA1503B3,
02E504870661F7B003F9FE5D06FD0133,
EB6D003A05C305A50AD8055C048C0B33,
FBE50610044509BCF47007C10069033F,
025D030001D0FF0700DFFFFA0AEB03CF,
FF6E0864FC70007CFCED0289FA77FE3C,
02B6FF95FC370B86020E0335FEBAFED5,
01AEFE0FFE9B0D9D0661045CFE1E0000,
FDE40071E4300416FCE60587F3A8076E,
01AB0699037602230AD100BD05D3F7EA,
FA3AF990FC620932FBD6FDDEF072F71B,
FC36F01DFF88F5FBFF48F4F5FCEBFCF2,
FF0DF325078CFE6CFFF1F5DD06E2FA3E,
02E5F8500C3C00E4FB84045303CB0111,
;   output 59
FEDC09B2FF1F080CF8A60F4E09310621,
06F302D1FEE0F9E40669088B090705B3,
0125FD4F02650E92017AFF4C007D094C,
07070281FF4C0866008EF65F03A9FC9D,
001A007DFC720333EB9804B9E910003C,
01B7097A04CB07B30B0DF1660FCDF6B2,
021C0215067AFF2D0AF901D6085DFC67,
05E606C2007AFE2B0665FFAA00F904EE,
0A1EFE6B05FF0355FB5F0C600175FD8E,
0220FE3206D60A2C02C2FCFB0838F069,
F541FD0D04C1067CF6C5FDB9052B0A3F,
081CFE3DFF8FFBD103EC0225FC2D0638,
FEEE03080080030D059A04250627FB4C,
FFF4FC490017004FFFFEEEF4FFEDFBE1,
05B50BA2022109460CE4DE750F29EC2C,
00A60421FEF9FBB80C6AF2B90558F831,
FC800269FAB3F7B215F2F888FD20F2E7,
F8AFF851FB85FCE60272FA8C02B7127B,
013FFB1F03F9FD53EEECFE0EFCD0EF43,
FE36056EFCB4F629FC3CF4EE0BACEF39,
019000C1042804B1FC13051EFC940C80,
01890299018E05FCFB49FE98F46CFC62,
036F0C70FAD6027EFAA40FBAFBAF09E4,
FE3102EA0596FFA3F25900E4FB7602CE,
04CC051DFB3309910B65FFDDFF51F467,
06E3FC89FEDEFDCA0621FBD50237FAD8,
023400BE002EFD6C071C1A7F0909FA9C,
030E088FFA00012E0368F0C6EF9C022E,
FF100322025104FFFF4C00E8E45BF263,
04D7FBE5F93E05740291FBE8F6DB0F64,
038208DA0500042EFBDB0312FCDEFB6D,
FFCD0663FC960676F638FEA00370103D,
;   output 60
03A8F018061604C9074BF915FEAB01FA,
0114F229FC570543063909BB005BFB31,
0609F9C2FE3D0624085C06B606C9FD3E,
04B7FBFA0C4DFABF01EFFC3901EA06C8,
FEA40A5DFCDE089DFC4AEF9B048A00F9,
F935F065FB4901E2FEABF8C902F4021F,
07F8005B04160062EF39F7A5EF44F9F4,
FD09F2B0FD3FFE000455EA51028DF656,
0227049E0330FD7AF12AEF0A003AF819,
0860F8CF080D07D60307F8B3FE3BFF40,
09A0F09207A601DAF743E049FC200181,
07D103130844FFCBFBC30822FE3AF73B,
0C58003D047F00A1FF25F26D015CFCEE,
FFF805F4FFF801AE0024044BFFF8FF21,
FD09F32A0473FB7F0722FA0DFFF7FD85,
040BFB3BF964F074F9D8F68E01B3F3C2,
FAEAF1F5FA9C00BEFD7D00140255FFE4,
FFE50288FBCFF32400CAFFD0FB91FED5,
0C97016CFC4BEA2D0579F3CCF711FAF5,
FCCA007A015C0325F38DF79AEF910199,
FB23FB48F6F4000F105EFC6905440065,
1648FA530299FE35F809FE7102F3027E,
F72B053401F304250040F843EF7800DE,
FE750094058102CEFF6B02CDFE9D0468,
0C5C00E80235FF06FFE50240FE82F921,
05B9F3DC023BFEB5FD5F08BF07AD00DE,
04C109F0FF9F04CEFE21003809C50146,
FE3603E8FED6FAEBFC5300FBF04D04CB,
FE2802F1FD63FA56EA2E03C7FF86FAC4,
043302C408A3FE63FFCC00AF04E3F422,
EF000A9CF66C000FDAEE0104EADAF986,
039C050607EC006600CD10A809850D23,
;   output 61
0458F58EFFD503CE031E01C8FB4BF656,
F6E8046BF044FD74F0BDFAE0FC020745,
FC38FDF102A702B7FF02FBCA068B092D,
FB53024EFC8604910342F0C6022EFF70,
00B5FB6F0126084CF1C1F9D1F97B0901,
FED7FF21095F07BE09B4F2CC0322FDA1,
0348F60AFF80FDB80A740EF5FF91F56E,
FF8805C9068B0083121D0AF3FB6AF974,
FB77001A02A1FF61E876043AF54102AD,
008D016701940CD705490E6505010093,
02CDF1500339FBDBF633F22009C101B0,
023204EC0AC903ED02ADFF1D025BFC9A,
03DEF96402410A5709F0FAC80380F9B8,
0016FEF70005FDF6005EF715003CF9FA,
01100EEAF491FA04FB820183FF9F0608,
0690F322F436F22F0A8FF50AFAF9FDB8,
091AFEE808EA02B108E20B5400CD014B,
F60E063EF6CE046BFE68048102FC013C,
FC66F5C5021F0246EC25022BFD55038F,
FF2EFFF3FFAC030507F2FFA60C82F8F2,
FE7BF7A7FDA80852F0E20078050207AC,
01B6FBE008440180ED8AECC109740297,
00B6FF30F7D9FB73DBC40459075DF86A,
FE4FF80305CBFCC0FC7A03D0052507A9,
FA12FD3D02CF02DAF4EDF083EFCF06AE,
FB2F04050B9508E7FDBCE412F9FC0201,
FD9601E70332FF5A071101AC0265FAFE,
016A0679FE02083DF6DFF8B701861336,
04BC02600C690A2E00C80547E7CC02BE,
03DF05A1FED6FFE4049CF1D3FD07FB0F,
0727FD4C09CB008F10F5FB6EF86AFEA7,
FE15FC0CFD03FA25F54305B0F545FBF5,
;   output 62
084B04B2081701A700BB0054FFA6FCBB,
0317063300ED0351F6A2EFCEF87EFEC6,
0426FAABFB1EE0710155FB64F8DFFFDC,
E7A60609FCFAF7830655082A03DEFFDE,
F3B0FBB9EFE4FAD500C306A7031EFE5B,
EDDFF9FCF3B30294058706860780019A,
0C8AFDCE04EAFFC503F4045E00550743,
FE61F980F6C1FCED052406B007B5FE48,
F8D6010F07B2FCC70B0C058F024FFE4A,
0476F8B9F9FBF574077F011C075C0249,
02BEFC83FDF40D5502C1FD7305C6FCFF,
0278025903B2F611FE4300ECF7120B80,
0A6B02F3F98A05E9088904ABF860FD6C,
0006FCAA00000094FFF1F996FFF6F44E,
010FF55906690743FF300598017C05BF,
FDE2FBB0FA6D0C33049702C101B9F8AF,
0062F4F5FD77DB42F72A00DDFD5405E2,
000705C1EE42F7A4FB8103A7FD29F911,
0B07FABC05EEF8F00DCF0783F4FE0719,
FC8AFAEEF453E2F5FD5006540E2A00AD,
0614F93FFE590E6FF9C0026CF46E03B1,
02F2F789FAC90B140874F24D0068F019,
FDDFEFEA0B8BFF78007C04BD06AA06B0,
02B100F0030BFE5BFE67084E019A04A5,
FDC7FB07FC08F6C9FF31FEC9023FFE0C,
012809DAFEE0125804B9FB730313F79E,
FD1001CEFFC2FFF0002202470069FE99,
EEF4033D034D0504F98B02C903E302BA,
FC2804A504D0E7F8002E013F08DEF802,
F47B0512F69AFA4400BBF2BD04980E1A,
FE86010F00AAE63F06690540F77AFB4C,
FFE9FB36FE53F35D050008BEFF95068D,
;   output 63
06D8FB99FD16FFF9FAE4F768F9C9015F,
14E801870E2007690038FB5E008005A1,
042407E1002D078103D3F89FFFA805E4,
0333FF60FEACFCC1F91D05BD013303E2,
088EFCEF0600FC0D01F4EB4C0293007A,
02230C7A0BFC03D00347FE4C0041003E,
F960F999F739010DFA31FD86F943EC5F,
FC3E002DFF4B025DFAABF76CFC23FFB6,
048E0187FCA50662FBB6098E025D02F8,
09290C4FFF2403E6FA8BF9DF0DFE0041,
03E3F5E3FD110279F06105DCF76708C8,
018D05AD007E02D8F820F4A3EA7CF985,
F4830136FD260074E6E3EB2BEF13E563,
0004FAEB0000FE510002FE4B00000078,
FF5B09F10B8E046A006F02CE04FC00FF,
FDE602BCF95101B9F63B04CFEE3A07EB,
FE78F752035301C7052AFDE104AA032C,
04DD094100AD0669E365F6A5F3CCFFE1,
F3A708D9F2B4018E02F706C70742013A,
07EC054502420484F8A7F515F7D0F32A,
013E017901B7015E0590FFB80654FE83,
FE9A090CFC040AD9FAAA052BFFA50824,
00A505180A5EFE550897EDA803EAF863,
054BFBC6037DF9F8E9BBED0FE8BEEED7,
0496055B08B3015FFC9EFD9BF9F0F5C1,
FEAD037903A804D3013C07C1FDC10069,
F807011F06D0FD51E3F30933F68901F3,
024AF909FF2C061805A007A20227FDFB,
FDA6027304F9FC47F0AF0987FF7201D6,
F8F70839FC54FE8BFD87F7D6052DFAF7,
0222FFBD04B80815044CF550FE1BF54B,
FE84033F0A01043CF805FF7DF54804E5,
;   output 64
053A001E02CFFF5A0499F4AC04A8FAE9,
02C00B66F9FB017A010FFA9208AF0628,
01F5FEE0FFE50A2605CCF6CE0B69015B,
FF28FB5BFC36F75802EDFBCF00A70507,
00ECF727FAC1FD5EF6EAEB910084EDCC,
00020467039401EA015406C5FAAE0A5D,
07FBFE9308BAF8DEEFAA04E1F6D5FA0B,
F687F3C2012AFE360625F79CFD95FB95,
F8FEFE84FE64FFF2FCDF07EF03F6F33B,
FED20DA1FB54167EFC590D81F18601AA,
FCF5011DF93403310D1506F5050F0AEF,
FC76ECE8E9ACF9C3F9E4EF72EF290812,
F933016BF1CA0F63046705C9FB010326,
FFE60702000501B8000B0822FFE7FD60,
FF470694FDFAF8B8F517015FF5C80754,
FF7E0397F96B04250063039103C30945,
082BFEC3F950F9EC02260B71F135F44E,
06DC0C79ED010142064D0A75EBE6029C,
004BFFFAFE330917F953FEEA022A0602,
F88BF98CEF7DFA40039504CE076EFEF9,
02BA0197FB72F8D3028CF8D9021100C1,
01E5078E07B00559FA07FFE504F4FE78,
06C2ED03056BFAA506D8F3AB05C3F16F,
01CEFEFF03D9FD42070E094701A80267,
FF06FC680157F612E68F01ACF9E9FE4C,
03C7FFB004C7FF69F1B6019BFF4305D8,
FE93082AED1B08450371F690F951FFEB,
000F0C7B0110001D0385044910BE041A,
085301B6049C0B2EF94A01320036FE69,
0331F727FC98F8FF0194FDA90431FA97,
0A8CFCE6F6F5E7900261F15B076DEAD6,
FB420195F7EAFD51F96D0BBEFBDB0986,
;   output 65
0159FDA4FFD50115014E0880FF0B0570,
FD1F0443F9F2062704150A4C002BFB3C,
F83606BDF046028F12830161FCB9FDFD,
FEDC0204EF7005BCFE26FDA2FD1CEFF0,
FB7FFDDA017E0A92022F025401F10861,
03CCFC9A0358006D078900A0F54D01C7,
098908550462038E0135FE19F98300A9,
11ADFD63FDBF00DF0B2E076A047B0455,
03A30050F80F02D7FD3701E7F9770D83,
0841E007F9D0020E060F019DFC0FFE44,
FD42F40F0F45FBAEFED5E941F9D1FD90,
FD29FE980E2F0285FF6FFD5801EE094B,
127AF9BF02A9FC59FA6FFD4CFDBB0296,
FFFAF8C20017E899FFE10592FFFB08FC,
0089046FF43AF73D040600710108ED5F,
053AF5BAFD63EFFBFBCFF8D702E8FB49,
0256FA6DFFFB0C1F0AB1046E00E804AE,
038E040E06420328FDB301F8094CEFBD,
FBFFF46FF674F9A90D50FF64FBEAFEDA,
026D0837FF3407B5F856FB37F51E01E2,
0C7CFBE801FAF65001D30A0C007FFBE3,
FE4DF1CAFF89FF0707FAFBBC0431FF6A,
FE9405960843F2E5ECC1094801C90118,
FE5FFE6BEBC00394036401C8FFC50516,
02C90079F7E600C105B6F3C806DE030B,
04F4F8F1F86408CE0141FA280C8DF886,
FBDD0C29032EF52FFEC00B4D019A020F,
E480FC44E61306ABFF9BFE6CEA13FAC6,
0055FDBA040808B0F7D1010804E2FC20,
031007E7FC1DFE28FDCCF5F00880FB7F,
F7A30A2C02D0063104AE0671EA4FFFEE,
0CFA039F00F2F17D03A007DCFC3304E0,
;   output 66
FE3C03290C4604880C1FF6CCFE10FD83,
076A01B1FD0A00B5061DFFDE0135FAD8,
051BFF1F016B0AC6F0AD0115FB630B93,
00CFFDA2F72C0272EFAAF894F24B0898,
07C4FB27FE79F5AE0419FFE300C1FEF3,
0A7F02CE0612FC3AFC0202FB04DE0202,
F35A0062F0F603BCF2C804D8001005BD,
F9B6F94601E10786F8F7FA60FDFB04F6,
06240255FB47FD73051DF06CFA95020F,
01050D23FDBE01F8085301DE0472FD24,
0500FEAAFC31F47F048404EF0732FC9A,
F74CFD39F9C002CBEAA5FEA5F5D00822,
FC3503E0FCC9FC18E9AE042E0612FF51,
001900640012FD65FFE8EBDCFFEA00E1,
08B2003E025EFBBAE9A800B3FEE505D1,
F9D7EE47060BF2FDEBBFE5960416FAA4,
FCDF00CFFDF00336FD5E05F902E6FC68,
FFF90757FEC9FB89034D0741FFCFF6E8,
FD440427F2D40AFAEE0AF3DA0B47FD55,
FB5F045405F1FD08084E05D4032802D1,
060F0104FDADF5A602E1ED1A0D3DF9E3,
F710FCF9F17508CFFBF8F76701B6054E,
0440FDE1F6C102D60735F0ACFE0DF908,
0231FAA5FE2CF8D60463044803FCFDFE,
09B80305FB47F8CC03200516FE4F0AE8,
F2A2FD9BFEC90614ED2A00B30450044E,
F991125B036F02AFEF5EE9F100DC0281,
FC35F63EF778FA59EF72F8F104BB038D,
015B0C930B88FC2A00E9FAAD0240FDEC,
FD62040BF89B009504E30A07FE000B5B,
0168F4F0FAFC012CF115F8EE091E096C,
F923FF8DF4DFFDE1EB3310B5F7430360,
;   output 67
FAD909940B270772FCBE01EE05E3FE75,
F88903550817FDFFFC77FEB3073AF7BC,
02C8051EFCD2FDF6015008670B90FF95,
F66A06BDF42800B9F0B4FC60E6DC05AF,
F52B0A2FFEF40700F0E8FE5CEEF0F9CC,
0781FBB7FE45086B056BEE06E5240741,
0490032F01F6011E03C0FE8507ED0B1C,
042DF956015C0018FEFDFFB7EED9EC38,
0140016704E204E5F38CFCFF0390F8AF,
0A29F30D00AA08EB0550F92DF1E0F3D1,
02FDF9A903DF02F3071BF50B0A8002E0,
08400B5302D8FEB2FD6C02CF026106FE,
07F5FD82FB4208FC05FBF4F4FED9082F,
FFFF036300050498FFF7057500030520,
0442F27804AFF8F3FEB9085CFE0801EB,
04F8FCA5011E0117FD530A2DF25A014A,
05580F43008903B10C310E1403DEF99C,
F6EDFE8DFC5CEFAEFA380781FDE6EC50,
08FFF96EF769FE70097D0972FC5DF413,
FE27E959EF140700F481E7A9009CE989,
0017FC0FFD4102C2FFC2FC6D0274FCEE,
0A26F9DB02A70AA00484FDFE07E307B7,
FE7D0180046A01A0F54DFA4A0795F2E9,
EE2BF6FC0091F1B7FE6901150609033B,
FEB0FB73024A021B01FAF923F606FFB4,
0785FB51072201C604620460058A0F09,
06FBFD9600A9037902320124FF11FCA9,
F6BD02A6F7620709082F020C0E4D08DF,
F581FE8EFC40014E01F10267FE07F248,
FA400247F1420146FF2FFE8BF72DFA30,
F19602A4FB34036D00BD04F008E5FB76,
07CCFEEAF50AFB77F66D0364FABF00A6,
;   output 68
EF1205C00744FDC5F2A5FC97F7690568,
F3D9FC7E09C8FF0EFD7E03B9FBC3FC17,
0C95FE2C0465FC5B0227FDD303DBF8B0,
09A2FC700391009C06B1FE1D051606A9,
006F0504FA76F6D7F98205B0EF14FB91,
024907B9E9F70CF504D5F70700A2EF00,
047DF4B4056D01CEEDA1FBDB009B0608,
0BDBF37BFBC5FA71FD93FE14F887FDFE,
F0A9FE68FCE2F8B5F6B6F528028AF2CA,
010700BA05AB02630D460806014A01C2,
066DF582FAFDF681FE91060D0722FFFA,
08FE04DF0F71FB5E087D0432020109A1,
058402860CAD0599FD6FF113047A015E,
FFBEF54B003202BB000409F2FFAE021B,
FD55126B045602EF08DDFD030888FDF8,
04B007F2009D0BE500A8FA6F078AFAC1,
00320817011BE9C6FFCEF9B7F97AF57B,
F68CEF2FFB9BF5D6F5FEEE4EFD3BFB40,
046E025C0806FA910560025A056CF98C,
0547FD0A013D0433EC7801EBEFA70073,
01560666032A0CEC0280FBAAFE61069C,
07F9FE6D06CF08520C66F44EFE80F701,
008FF1AEFB67F69E002C0CAB00E0FE79,
F35FF7AF0600FEB30D70FCF50B3B0473,
0A28F655FE5DF30603AB0B61FFA40A94,
1052F3CA0EF308E604730502FFCE0B72,
0738F2590A5CFC2F01320AADFBE10220,
0837FBE202F31411FD9B06DF03F6FD1F,
F932000F10BFFFB909C100EB01D5F2FD,
F54DF9FAFD14FC930048F93CFE0CFC39,
FDBA0020FD45F805F5AA057A0850F6A2,
0A53FED0070DFBF70DA0051305AC0701,
;   output 69
01E8F5D40863F79B0048F83A01C3FABB,
FD5D04920C7906FF0684FB6F0131FF3F,
02D9083EF9DA111E022B02B008A7043A,
F47B05BFFB7DFFA8EF02FCC9F99103CA,
00C70331F030F459FE1EF94701730281,
014FF612FF23FA9DFD38054707660677,
EDE401D5F5F10037FB51FCC101710041,
FE63033D03C6014F01C8FF82007E0203,
00D7FEACF8590D4E061BFCBEFAAD0DB0,
FF22FF90048B0135FF250C2A07730186,
0139025FF5910A31010B0E72FF190654,
FC1003DB03E5FB70FEB1018BF1EBFEF2,
F54BFA9D04A5F4DFFB96F51505DE0392,
FFF40286000DED6DFFF506120007FC1A,
FCA4DD6202BAFD3DF3D3045505C604D5,
F5A0FABC08ADF0CBF2DD09EF07FC075C,
0F830CE201BCFF17F5970831015F026F,
0677FF74058FF6D70450FB370363022C,
F47BF597FD46F66BFFA60BBBFB1B06C6,
FD530201003EF66FF7270994FFD1FA19,
0829FF76FEA8059302F9012A03840B05,
E2C6F6AEF8C400C80265017304B201AE,
06AC0071FD2C01F10790FAA600A803E7,
04D4E44DFCB10FDA01C7F2A1FA90FEE5,
F6A1012EF1B9E599FADA027BFF2601A9,
FE330676039FFC6FFE45031602CB0128,
F5FE082907930016F5C1F7660658F467,
E60CFFEBFA5E070E058BFF4C0E17FBD2,
F588FE62F5BBED5802F305ACFC740528,
F3CC096FFDC9FE76E90203F9FE8D04F6,
F47A0274FFC3022301EDFA48010BFB4B,
033E0440014FFB5EFE1C06BDFC2600CC,
;   output 70
02B702A6079CF2730406F967F9FB01B9,
092008DD08620498FA8AEBD2FF9AF4D5,
04F3056FF4B90B19F97F0061FEDA082E,
02010146007F0755E3F0FBDAE598FA34,
FB4B00080519F91206FE0479FC1B0AEA,
05E606BF065D02390215015BFF7CFD84,
F11B0180EDBA03F0FDD70695025A100C,
005A0433FC6CF9180C8E032605AEFA41,
0334FED706160A7C0C6406F6057502DD,
FA60EFB5FF5801B8EFA8068DFC3502A3,
05160A9B076A0034F9AFFAD50622FC95,
003F03A70037F87203ED02EE03410826,
073D04C1FC1DFF1EFDFAFE3708F70418,
001F0360FFF1FF2F000DEC1F0026FAB6,
FFF00520016401EF036F053A0365FAAF,
006604C2093FFA0D03F000360D29FBCF,
0561FCA0FDA3FFD4134C05790189FE36,
FE9FFDD800C8091FFEB6FF7D03FFF2AF,
FD5AF752F5D70DD003950367074EFCA3,
FC5BFDEB076E02CB00EB0265E70CFBEE,
030DF75EFE1902C3FE2AF7E6F4E8E553,
F3DCFA48EBC801AE00BDF69CFEFAFA77,
01290889FEEC0611FE4DFB01FE40031F,
F755FF15F4DF051DF89800BEF423FCAB,
FDA4FF02F8DBFD1C02C006220760FBDF,
01CA03E30C39FE46FD2CFDD30421E248,
014D020500BA049202A30A040A4FFFDF,
F6FCF584F6FFF81201A8E6AAFC72E7EC,
0992FDB906D8FD70FB230BBAFDCA041E,
0448FC630610F9EF037B079EFD38017A,
FDCBFE5101410A82021AFDB5F0AF0858,
00D90209085F0440FDA9F6C8FC1506C8,
;   output 71
F109F6B2049D0723FF580495025C0192,
D6D2054405780421F3F8F8A2F8B7019A,
F265FDEE01D3FBD5F6E60659063DFD13,
F4F5FB3CFE88FF060C8DF21D00B40345,
F564056001E10999FEFFFFCD04210A9E,
0C7AE91A0207FFB901C2F8C4FF3AF776,
0291F4AA019DFBEB018E0142029007A0,
FD4306A9033600D2FA87FF4807EC05A0,
EB89017E074E08050277F91F10540A35,
08C4FCFA04D8FEF70ADAFB8D059900F1,
0422F32BF9B5036EFD87FC3F02720A16,
04EF05B1FB16FD0409B0089C07D30606,
F810000CFCEE00FC06BAFF5503D4047A,
001A04F0000DFC75FFE902F10001FFF9,
E358FE39F97DFD5C06B5FFCA044CFF4D,
FDA3028F0790FFBD00AC01F901E7027F,
1E220D3B0B7A01D60C8602FD02130197,
014DF84D04E805DA02EA00C7FB3BFB1A,
F0E7FCDDFF0D097DFCCD01A0054BFFF3,
02A6FF4BFD3F0186FD640568FF910033,
F71BFEDB019C061FEB6409DBF33506FE,
014BFC06FD60043AFCAFF4E7058AF8BB,
DB02EE6101D600ECF98502E2027005A6,
04E5F8A6030C06FF0DAA06E0FAB70738,
F490FD69F8DBF17801670726F93F0327,
FCA4FBCAFC9C0336006FF30703B3F6BE,
03610BE7FEFC0499FF710F6E03BF032C,
F8E6036D03E7FA8A00CA0FD9F9D1033C,
FFE2F990FF96F612FB52F64D009506EA,
F1310786F7DB00B4010E062500AF0257,
FE23FBD4FA9004C4F8A1051AFED70568,
033FF3BBFAE5FE5B0917FE530099F49E,
;   output 72
08FAFAE5F220039F03F800100E17066A,
029EE3D704DB01C1FE8F02DC008F02A5,
F0DCFB36F71104AA032CFF42FB4BFD8A,
FF3FE8CB0915F113FA03F97FFC610FAC,
0A380A88FEE4FE96F36600CAF835FC78,
001504160348FA650B0CFC51FDEBFD4B,
03B608AEF913F58BFB47FB33FB1F02DE,
073BFBD1F7B3FCD90739FE9CFC3100C4,
00200C02FB0307D1018109CB007A0396,
FF8CF92F067908E504FDF5D00C99F60C,
0D4F0447FB8AFBB5FC9202E006E8FA9C,
FF6FEE42FE2FF7A5FE1B00B9FE50113E,
FC7FFFBCFACE014200ACFBC503B0011C,
0007029D002C02E300220598FFA7076E,
ED77FB30FB9B0ED103CA01F403C70553,
07FA04730B8B00A502B9084E038201AA,
F1CF07E5F91D0487029C076DF60EF533,
1428078D0AD1FC64F928067B087C10B5,
FA5FF964F5BE00B1031BFABE0377F9F9,
08DF04A100F502CE0137FB2114AEF755,
EE3A05E7EABF0944FAC700650385FC5F,
065FFDC60530FB9E05C7FC23F584004B,
050A00D3FF7AFA530320095705F90195,
04E8096A002306C6014707100C8B0B22,
FCB105FCF830F8C0FAC801EEFBE20367,
0587FC4F01A8F5600184FAFE05820872,
035FE9B8FBB0088FF8B804E201AD0407,
00BAF32106610159EDA00023F7C708C5,
0DA40876F97CFCB501ACF8110095F17E,
0D77F4010426FABC1008F519F1EE118E,
FA080B81F3E2027909B008EE0702F5DB,
FF91F80FFEF8067BF776090CF9C800EB,
;   output 73
F6CAF280F50EFBCCF6B9FDCBF3C4FE92,
00C7FDE5096604A0FDF0F26C004BF3B2,
FAB7FFB5F5F5EDCC01EAF6FCFB2FF23C,
FDA60651045C00C0FB2705FD01800306,
0C3EF8D6098C03CF0383FD8B02AC01CF,
F1850522F5C51056FF0F05B4F49E0758,
01120ACA0924015BF624050EF23E0A8D,
03C1FC5501BAFB21074408560560F879,
0C9C0141FB5F00F706FBFFD10DFFEBEC,
FCFBFCF000CD0D77FD8D0269FF11FE21,
FF7EFB85F9B80079027B020105D00A89,
069203EF08C1F8E20EA8FBB60F68ED29,
03EDFBAC064011E313A3FD7E097209BC,
FFF303F4FFE302E9FFEFF803FFD6F521,
FB91E816FE87F95DFCCDFD09FF65F89B,
FEE5FF1F0C02FB97068DF72907510402,
EE2200FBF9090989FA56FE5605700026,
FC90FEBDFBD4054C0789FB70FEB0E3A5,
F87AF166FB80075801B5FAE1F8940029,
FDB40CA20AB2FEEDFAD1F9F0F43A0215,
044CFE0CFFA40628F00501D70740F25C,
01E8F016037210BEFD97F297FAB70453,
FDB9FC2CFD80F38F035DFE410818FAC7,
F66F035C046FFE8FFC5FFBD3FF1EFB20,
016B07ED0F48014104E5019EFF85F81E,
01A1F932011C01D902A9F61D03CD01D5,
F913F4A3096600BC0B41FD320BEDF969,
F768FA6DFD02F6C3F51D0375F1D6FE20,
ED33FEBF00BC055B0446035D0751008F,
0AD2FC4F0446FCBF04F80496FBF6F245,
004704FC008E046DF607FFE60790F440,
F83CFF68FCBDFC07FF03FE36F75DE85A,
;   output 74
F61EF96BFD73F987FF3C01E90A730743,
F8FAF800000B02B603871355071CFB77,
01BE0462F70106A61082FE12076DFD38,
0101FF2400A4FFCFFCAC02EAF33E0037,
04B7F9D40724063904D1F45D06DBF0C7,
01EFF3E001F8FF89004B0990FD5E03DF,
F7EB04C8EA6905C9FA2D0344FAD8089C,
066A0C0808900832008AF860F8ACF952,
0489028903D803F803D0EA2B06A704D3,
FD6F07AFFFD31016F7B3EC10DF59002A,
F9B1FD7A0451FB970036FC1FFC62FD3F,
0CB1006705FCFDD6FEF307060399F69D,
F6D004ABF9A30722FF7E051C0095044A,
FFEDFBF80017FEDA000A0E7BFFD9036B,
043604E8060B060806BCF64CFE5B0212,
00C0038105C0FA2DF9E6F339FEF0F75E,
0574FD95002A05F5FA4AF94200560130,
046300F2FB4DF78D058DFEDBFE9B053A,
087D018201D208F007CEF605140EFC54,
0300FBF80400077F01ECF4620E330059,
F90D04F1FD6E07DB0942F1250A85DEAA,
F580FE95F66A022BF6690821F4FF0D25,
FA27004809D201CF0467009107DEFCCF,
F35301BF015501C9FC11F6C6FE72022D,
EA96FABFFBC6FD050175FC8B01370284,
02EF035206CCFDD8000805F5F4E31074,
FE69EEA7FDA70692FFE10F2EFC3DFC11,
067AF67601E5F9BEEED80525FAC8F84E,
F3B2FC20F816FF9FEEFBF16A0CA000F8,
FB04FDF6064A0429F37C00C4FC5FF5EF,
005F02640486069BEEC80385F8E9FE2F,
FA89F8E6FE24FC3605570067FD02EF4F,
;   output 75
0757F71110620813FDD90AB308360A9B,
015DFA070EBAFD81F9630884FE0802A5,
013D014200F101A80C26F95F0B25F043,
0227FEA0FA5D06A60CB10FCE03B707C0,
FDC502B6FC5C0B0B00AB0587FBF0019A,
F9FB0982FD7B0C94FCFEFD6F03C0081F,
EEA503EE00FDFEA80742EBC101D50577,
E70BF4F8F706F8C2FE78F364FF07E786,
FB09F9DFFFEBFD3303C20064036FF6B2,
F919ED79029409BBF768FACCFAAF036E,
07ECFAAE032D007F00A7FD10FDFA0C49,
FDDFFEAD07B5FD75FF9705B40DC1F9FF,
F7D8FBAD04150215FD13FB2A0075001F,
0049010300220419FFD60B33FFE2FCA3,
FB8EF3C903FFFD4CFD5006920151090C,
04B00247FD11FA6D0015FFB3078402DC,
0208F59D03DBF70A100FFF050537FD97,
FCAF066DFFB202D6E4410183EBDCF823,
088CF6D709EA00F2168CF77A000202A6,
009F0164FB1008AF02D8FA12FF53FF8F,
F4A2F3C6FEA00011F91A04DD00040075,
FF03FDA1037D06130FEDFB510A770567,
FF2DF258051FF53BF75F0199FAFAF768,
F8FBF992FCD20CECF327026100210BB1,
010EF9DE0172FD5D05CEF75AFEF5F9E3,
F7F501E7FE79012606D1F6060B4501C2,
F800F709034DFC64FFA4195CFDDE0935,
068B08A703E80101032F1422F8DE0A1C,
FF59015C030B05BFF9D50DE40058F6C3,
01B70283051DF8961258EF990A4BF7C4,
F6D1FEC500660262FDD002CDF245F95D,
F6EF010EF521FEC8F7F60AB7FE4CFE76,
;   output 76
F6C5E92EFF8C0761FFF90680FD3706AF,
0056019FF9FCF9CAFE4FE57404A5EF38,
019B04D9FB47073000EEFE49F3190B9E,
FFE30179F9B8FA1D045BF772040CFF7F,
0137FB85F441142D0508FD42F8B4FEED,
FE58041CD8D5F86EFD2B0755F279FE51,
FA06F9B40A4808A3FFA903EB0381FE6E,
EEC2F834FA55046A044300AB0297016E,
FF97FE9AFA5CFDA5FEB50C1BFCC2F42B,
F764FD380196E3C8FDEE069D0D40FDE9,
FAA4FD02056EFEFD0894055C03A6F8C7,
FEE105D305300771FD08EF9504A107B4,
0935F8950CDFF62EF2550C5F093A0151,
000F0591FFFAFF970003FDEB004D039D,
08ECFE2AFB73F9A0010E066C02D60415,
02DA0CB303D2FDBC056E05E2083205E1,
FA73F4D005A0F262FA6A00F8F8BB013D,
F6FDF7F70406F70A05D700210079FB28,
1131019D0431F11C0BAF0977109E0216,
F7D7FFB1FF74F45C035F023BFFA2FFB0,
FCCEFFA0040EFBADF078FB70FB71F7AB,
02BFFA1B03E8F916FE3502C60004FECB,
01760040FFC00597057A03F006080AA6,
E97CFEA5FBB1FE3FFA6A077208430615,
FDC7F14E0B79F826FC4902BCFAF6F801,
05B4036C0889F3C2036EF6D70A1A0670,
FDCDEB9B0712FC2E09BEF6A000DDF846,
002B0634F5EFF9320329F32C026703D8,
0812FB29FF2806700C2B01F701A5F68C,
02EFEFECFCBC0525FA3AFF400659037B,
FDF4FBCEF7DA008D016E018F02F00D2E,
069AFF7F07AA0171F467F5C5FBBF0882,
;   output 77
02AEFB30089303CE04E8FA74EDBDFE26,
002205F30456F75801550291FBFDE670,
026CFFADFC31030BF2560A48E3710226,
06AC03A0FE9CFF1E05A000D8FE04FAD5,
0ABDF974076707D0F5ED0472021F0656,
F98305CD04280235FA98FD450018FB09,
08080282FDA5FBBEF23AF9D8FA3CFF85,
FEC10237F8D1FC49EE8EFAF5FCCCFDA7,
0701FED4FE4AFD11FCB700DAF2670757,
FE61FF5CFBA9EF7303E8FE790654FF94,
023E033C0D1AFACD0442F5DCF979E05D,
0E970223155604970717046400DE0125,
040DFD1CFB18FB03ED920042006BEC4B,
003AFE7CFFC800A10001FC0EFFFB0608,
08D9021E13CA0721F860FE35011706BD,
FD8F07A701D808BA0BC3FA52FF9AFB5D,
F00CFE9D03D705CAF789FBB405560829,
0135019B05B107F7045B0C0F0CCAFB4E,
FDC4F85C02E009F4FBD4F577EF940043,
FF2C0DD802DBFCD40619097EF9150297,
095FFE7BFE4EFC0E08C5F354FBF3F0D4,
0871050A09240670FB4EFF0DFB54F76B,
07D0ED99FDBB0168F99DFBA6F99D0181,
0200FCE9E92A0493025D10ED01E50BFD,
039B0DEB073203D406DA027303C2F6B4,
F1EF00CAFB9D07E9F7F31013024BFD33,
F9A0083CFF87F9E5FCB0FCA90622ED8B,
010B00ED069EF688F59CFEA0EE7DF46D,
FF7C00DC01370074FC6EF11DFC6EF8CD,
0320FEE107FD01680390F49C01460053,
093E04CCFDF502D8F7A700ACF4720891,
016E01B7037900ECFA340877F5030304,
;   output 78
FD25092902AC038904FEE638F9B9F625,
FE47042FFD2C117400BD0922FFFC063C,
03B7025AF96BF7B7FB1809B00A57F992,
011A0016FAAA01CE0937F47B1162EFDA,
FF1DFD9AFF0E0251FEC6F5B901E4FD9C,
FD8C0648FE25FB3AF128FC3CF5C2007F,
0531059FFE49FF88F9130A7EFBB9048E,
0BEA01C8FD990685F6BFF4AD0333FD15,
019FF191FBD60A2C0AA0F3DBFCC4F272,
0A0400CE0F54FAF607420A4D040E03FF,
007B06D3F4EAFB07FF29FA32FFC40189,
007E0BE00015FFE30D61FE1305250351,
1131EDBE0777F19A0F30F886020FFA1F,
001805D50014F805FFAEF96A001402F5,
FB59ECD2056E049EEC9000CFF28A09E4,
EF1CF78307BAF501057802F105B707CA,
0EFCFB0DFFE2015DF0C5FD86FD0CFF8D,
FA9DFB3D03F7F7A2035BFFE8F84BF540,
FECFF1F10061FB6AFA280079001505CC,
FD8EFA420B9D04CAF334028FF62106B0,
049F0A8A023B088505BA0B590B2608CE,
F949F548084BFC4AF8C401CAF2D902E5,
0952F8B4F5A8FA8A0448EED203A9F693,
0448EA8A0910FCE20026FCEFFE790611,
03D50174FFF2F3E6EF5E05C105A309A9,
F46F002509A0058EF9D80968F9B4031B,
01EB032404A4021206B50388FDFE05B5,
FB3502B002920422FD250D000750FE05,
0021FD640183FA64F013E78DFD43F653,
F65B0B14FC10FC3808D20305039FFDF7,
F88807220270026AF2660823FA560023,
FDC10006F82BF53506280491057CFB4E,
;   output 79
03090DF808190051FDE706C5017FFC9D,
09AB04AA063E0386FDD6018F001E0077,
0079F4390161F6B3F977038EFC05034F,
041B016F0074FF0B0476FF75FC2007A9,
F39BEC45FAFE058EF79CFAB102FD0617,
FC2E0DC2F65F03AD0330FB4102C5049F,
F2AEEE60F9A6003D033FFC2406DB01A6,
0A40F48B0709FAA5F720033A003D0152,
FB3AF60A01FAFAA902A2FBDC0AC10902,
F0B6FB180138086202DBFF35FD48FDB5,
EBFC012705780655FC24014E01C2044C,
FB2AF962FAB20C2B053D04DAFCE1064C,
FCA3EC110047F6A1EE2BFDA2F3B4037D,
FFE306ADFFCEFD48FFF9FBCA0001FFEE,
0009FC38031DFA7E02FB00E8064BF7EB,
FF950BF1FBF715900195FD1200F1FB32,
00390164FB17FE28043012FCFC40060E,
E2A9E4DC047F013BFC37007504CB02BC,
089EFB6D01A1F6EC0297FDED04FC0370,
FA23EC8AFCA1F9FF026F054501290173,
024901ED0106FCF407110EE20655FC4A,
FCAD06BC04790202F5D4FBEEFF03FFDE,
08F9FE900AE10981FC73FDFF02AE024A,
EB67F51CE793062301B1FC3DFB540038,
F775F0850FA9F32CFA5E041BFACD0D7C,
00EA09011069F981FF2701AC01890026,
F4C50769084D0399FFF1FDA0F7E3FDED,
012A0A1F05E10941F99F0076FF9CEAF8,
07A0EED80058F8C6023FF74D00270C3E,
FB8FEB4607BE03DDF5A70937FFC7063C,
F650EDBBF244037FFF9600E20607FDC6,
F6ABFDEBF91300400781FFD9F36F097F,
;   output 80
F518FC18F651F6E2023BFC18061FFF03,
0AF7FC01FFFAF86A08C8FEE301EDEAF7,
0629FED3FE970C8BF8F70071FA0AFFEB,
04EAFD500282ED71F8DBFFD9002D0770,
FE5C0AC1FE11F6E1FE0C0996FA5DFBC6,
F934FF0C038FEDAEFB3C045A0AEBF96B,
F54107A7FD5204F4FAB6062BF6E2EF08,
FF9E06570B3C03B8FBB9FC4704520027,
0C6A01C1037906DAFFD9FD3EEC041559,
071A055D079BF142056B091802F80122,
F8C80645F7A50CF500A9027AF1ADE21F,
07CAF74CFF5608BF16A302F5F44C065B,
FC3402470763FFE0FF0A0896F686FE5E,
FFD9FB29FFFAFB8CFFDA0B73004A0132,
0F7B0348087B05DDF831FFD20342FA9A,
006C07160922FFF40300FEC1FF0201C3,
FE720DEFFE68FDB7006BFEB4F74C09CB,
028EF9140315FC1E0A4FFF1FFC8E00DA,
05A00C8BFE36F739FC0602BD00BD07E8,
F808FFB5F399057D01D80509053201FC,
F57813A9F55D0A43FD1AE9B609F1ECEE,
F4DAFB98FDA4EDEA011F0533066B04BA,
098003780F5B064D062C09B3FB7304D4,
FAAC0BCA08880A8D0465FC49FA39FE4C,
F0E80221023F08D8046E031C00FBF602,
FAA808AE01F606D901E80114FD2DFC2C,
FF9C03570CE2FF19044DFF8BFAD7E4F9,
09B5F7200252F2B8002EFEF50870FFC7,
F7DA005AF35EF17403DFFFB5074C0817,
0381FB7B037A052800D102AFFB90FE74,
0C4504E10490FDB1F8B209DCF8140331,
FA74FF380382034003FBFB9F008B0678,
;   output 81
FA7203CDF94FF953066E0202FA67FD72,
02B2FB6FF116FCD30A7BF22707A4F548,
FBDF025A0D4308A40001FDA30525FE29,
F0F1FBCFFD29F8C9F991FDC7F83506A3,
EF5C05FEF949023BFF5E0A4FFEC20F7A,
0533EF18F52EF3BA041103BCFD070678,
0001FDB20914097CFD5A00C3024EFB43,
FDD60246FF58FD30FB2CF6C4FFF30A1D,
F6D50B9FFEE008920CDD0328E2BA0417,
F9D3FDF20305F135FD2D036BF8FEFF98,
0848FDB60DF4004C050805D5FB42F6CA,
FAC4FFB10040047CF924FF6008680750,
0310FEC307C6F9C4FBEF04A204A1FD4F,
0025052A002B01C50016FCC9FFD2FD4E,
F8E7FCEDF8BFFC84FCC5FE93FCC3FAF6,
063F04F903830621013603E1F442FBCE,
FA220393059806C6081FFF66073F0A49,
010FFB530286010707CC093EFA7EF757,
0D410B9E06920288FAA0FF2EF86D019E,
04C5F60CF53CE97C04CF07D2059104FE,
FE0EFC36FD4B00AF008C0B75FCD6F9EE,
FEDE0C67000EF199013D00500AFD0798,
FB8BF9E4FE39FE52058F02F101D6F7AD,
F94A0283009DF90C06A2FEC101DE009C,
FEF5D638F8C0F7B80017079A02320E51,
091F0890F76B0575FF6303B6020D043C,
01B9EE27F372026D057E079C06B4F96F,
0BEAFBDC0609FD42062FFBD5FA4FF55B,
00D700DAFE3CFB66F9AC05F7FFDA028C,
E1AFF892F97B0AB9F59F057FF3BDF228,
0B7FFF6FF24B09B3FD71001CF7AC0347,
F8C8EE0FEB2FFF3AFF2B053BF739F704,
;   output 82
01230AC2FD7A186F07FFF852FA79F9D3,
FF7BFD68F2D2FA620119FCB9F0E9F81D,
094F0424FABA0E240CAB05EBFBC1F535,
FE0404B2FDC9032E0144FADAFFB60DA6,
0207F7D4FAAA01FFF8EAEA74FE4201B8,
EDBA0D8F0068FA99F8010310FD8C0A87,
03B20083FAC005B2EC6BFF22F5B6FBC5,
FB72F8DB05F1F764ED66ED9401830DD9,
099401BBFDDC0615FA0E00C2FFD10960,
02FD036402E9FBF80A3FF5D60BBAFF49,
041607C1001600C9053609D5FB16F8C4,
FB65FBFE03C8014AFE00F3C6FAECFDBD,
103300C100DCFB9B04ADFF7FFD26028F,
00150189FFE7F26D0049001B001D0231,
FDECFB63035BEF0BF8B90061F94C0E8C,
081AF1A200E5F40C05A10150FFE30525,
FDA0E60A022702B9F01AE4BFFFBC02B3,
FBA8FD52FFDFF929FD9A004DFA180348,
FBABF064050FF96DFB8A063C05AE08BE,
FF63F9550039F043FE08F8CC063B0159,
098B00010E6BFAC400A5FEE3ED2FFB80,
0795FB3EFDA9F6B2FCE7FE47FA8EF8BE,
FE4509730651F80B0252FCC007BBFE3F,
FD0103F4FD3E0AABFF75F80205FC11F7,
1154030B08D2FC0BFCF4042F07090096,
0099FCF5FD69056AFAF7074CF176F824,
FD8B0ED2F97DFEA4F97B0444F846F773,
FB26F8FDEEC6F9E3FEB40870FEA303CE,
E874043DFD3C0891F96209B905CE0C61,
062CFD3BF74101470A46FFE40416FF5A,
FC600B23FC4F025DFCDBF26804CA067A,
08FDFF280644FF39F8FC086CFE25FF34,
;   output 83
07BC053604AEF25D0783001BF744F0DF,
01ADEFBEF9CB01EDF1BF0D64050B031C,
02DDF12AFFA0FCED03A5F60AF6ED0379,
0666FC4C053F0444FF360F8FFEC8F97E,
01A0EEC901850B46FAAEEFFB03CBFC70,
FD9C0FDBF6A0FAFAFB5BFCD7F8CDFE6B,
FFB7F3BD045504A6EEFEF29FF6D1FEB7,
04DEFC7B00A4FEACFA56EF3C0677081A,
FA34FC6A03D9F399FE4708F8FE1301F3,
F959FCE7029A004805200CABF93D0439,
FDACFA790CFD0149F3F5EF77068F076E,
FB3E02E507FE0529FC01E4EAF99007C3,
FAB5FD9808640604F334F8B2046B059D,
0012049AFFE1FFB00059F8C2FFD1F6E3,
097A06B9F5A91179FE8EFE2BF63801A2,
08CC08DF00CDFC3D0404FCF30D92F76E,
FE5E048B03D606FBEC430435015C008D,
FBCA04700754F4F8FCD207FE082DFB0B,
FC5309CDED5B026A01F303DCFB64084A,
049102ADFBFF0DDC0AD40549F2930206,
F4440430FD78FECC03C4F46A0640FCFE,
02BC01D80709F840F71B0376FC1CFB78,
06C803700D8A049FFD7603E2F8E2052F,
F39407D6FFE8072503FF000AFB190901,
1127FFA9FE2704610781FFF7079AF560,
038CF4A0FEF804A9FEF9FFEFFBE7FB29,
F53EF1360C66F9F3FA97E5C605BE034A,
048C09A1058DF67FFBC0034CFF92F50C,
0BCAF91903250415F86D09620375FA16,
0536F548127AFB520420F0F1FF9DFDDB,
F91D07A9006906590E210396F46FF695,
FBD702180350052306470441FF35FCED,
;   output 84
0652FB050D8E001B029D0752052B0442,
FD82F818046E03D4032E044FF1120E0E,
0831FD8300B7FC30FCBF0A3FFBF4FA26,
01EC039BF3E9FAABFC7AFA5C02640865,
FBE40338FBDEFAD5F94AF70AFF76F95E,
FCFA0709F5B6062F048807CAFA1BF973,
FFCFF6AAF5A7F638FF13E737F69FF8D2,
FA29FEF600CDFF23F187EEBCF846076F,
F7AFFD6BF834F348F44EF7F3FB6706EF,
FFBE05B200840663147AF5850DC5F626,
0162F0C1EA23F90201ADFE84069AFC4F,
FE27FF8CFF98F70DFBF60257FF8DFA74,
F44E02C9FD4CF121F24D0414FAFAFC04,
00150101FFF804FDFFF909E7FFD10750,
04FD034A0791013BFE9B072504B6FBCE,
02F5058E0238073205BA030605E00487,
FD7E073A00B2FADDED1CFF49054DF560,
FF76FBF9F8B2FCF2FB5E033A0590FE61,
FB03104502BA02C301BDF0F101FCF82A,
098902BBFD9F01C105A9FED813EEF978,
FE67FD48FCE3F6E201B20805081B0710,
053F01F6FCB60DF3F119FCC1E84FFAD6,
092D0E05019F001CFC48FA68F4ED0379,
FD7703E6FBC806DF014106B804460A04,
0684FDFF0686FB07FCB10D7C02F90146,
03D3FEE50D7E04D7F707FFA401AD03CD,
05F1013C0243FF2EF9200F5201F208C3,
FB7E0BFAFBC503BCF4160D32EF720274,
01F9F6D308A5F7E2EC60F39706A6F92C,
02AA01C400E8F558F9DA047AE2190943,
FC98007C00750860FC2D03BD1519F598,
09190C54FEBFFFDC01150675067B099A,
;   output 85
085DF49DFCE70D590035F46CEE9D02CE,
FFEC06D1FCAEFE99FF59036FFDFEFB12,
0159FE5BFFDAE843FB46039D093AF46B,
015705EBFF1403F003E4FB09FF73F44A,
04CE005B0A5708D2FE62FE28015C0050,
F4FB0CDAF971049AF3A800A2F502FD61,
0876F2AB005A0075FF39F759FBD1FF4D,
F7A00233FFCF0618F83CF4FDFE850501,
F1B304C3FC210F32F89A02C3E377F159,
0841FB5505F2F0EEFEDE0A4C0535FC61,
FDEDEFBC1524F6800039FAA503C8F237,
05F00237FF14109E0185FF66010A0606,
038CFD4303D5ECB802D000880306F1B6,
002A03D8FFFCFF49FFF20F74FFD61B47,
00D4FF2CFE0FF774F83A0C5AFCBB0D3E,
F9DF06C203DF0900FB160AC2FE27049C,
072DFF1DFED006E6F71EFF8500EAFD69,
015D07C205C0058E0263FE00FEB8FA42,
FE9BFA400229ECAF0372052A106BFD4C,
0894049A0669005200F6002FFCA6F8C6,
0772FFB50077F721F3A206D2F7BFFA61,
0AD7FDE0FF7CF4B9054805D2FEF9FF06,
0132FC0404200009005A018FF9090427,
0ED807C1FE80FEB8FEA0FDBB02E0FF28,
0A5501AF0F9BFDF5038400B00448F9F6,
F7A7FB7C02D2FEEB074CEF6A047904F9,
F1CC00C7F02BF98C03C2F833FCFAF05C,
05BA0942F5CC03F50B91043C0A630969,
FC3D0B75013B0F9D0BCC0300189302E3,
F5F105CDF5BBFD6B03B3023AF83201E7,
003602E2F8CB03F4067102D6F2520015,
0A2AF35A00FFF683FDECFE8008A6FEE0,
;   output 86
FDD60D21F75005E6F0E30A87FA7B0080,
F1230BB6FCBFFC56FC270512022D05FF,
04D1F9F20536FB8E056FFDA50FE805CD,
FF420BEB09290942FFF606A0FC58FA78,
074CFE8D0840028EF8B90323FE150C71,
FB8D02AF0619F86B06DDFE960948FB71,
0CB9F8D5FB9501E8052B0282FB21F905,
FFF2FAAEFF30F6ED20D3F00EFF48FF81,
FED9FB25FDD7089309BCEE25F25005C5,
0778FA7D1222040CFB8902B0FD240128,
FE6BFDFD05F6FDBA01C9F1E50970EF93,
0885FBB0FE8F08F4152F032909A205FB,
12EAF8B8F531FD5D16E1F2BAF98AF98D,
FFC3FDDD00400032FFA2F5CBFFDEF5A5,
0203F247EE6F04150454EEB30021F9DD,
F49507B7FBCA0234ED5206B4F35901BA,
F5180B50FC3EFC1B00E705D506EF0291,
F8A3FD640225002FF4DEF7010146F6A6,
0CCCF81EFB02061D05B9004EF67302ED,
FE7002BB07BFFF6BF614FF08F5330052,
07891371FFF2FD7B002C10BF01FFFA87,
0A4F0620052AF650FFCE0AECF993043E,
FD1EF476069C0511F6540114F171F912,
FD11FB0F0091FD71EC2AF3D8F809F8CD,
016503E50482F8AD0635F9E5FF6A0D63,
07B30060FA3DFC3502D3F9AA03CBF86B,
FD5A06E1F3B9FFA40CC102F1FDE5FDFE,
FF17067703A004C1FD1403A704FF0C55,
02980A74FBF30AA4057EFDE901FE01F2,
F744FC93FCBA02BAFB33F3C503D1FD84,
FDA004C901A6F8C0F9F6FF85F63C013D,
010BF716FEA1FD550C2AFEA0FB2BFCDD,
;   output 87
063EF5C506BD0580010D08630BD9075C,
FF8F04B2FA850079019AE963F3C50595,
FED8002DFFAB09A40AF5F2030729FBD2,
FB2A0AB00C95037DFC93FEED0B4EF3F4,
FB21EF370732FDC4FDF7038A066710B0,
08C10CAFFF3AF5AFFD43021F07ACFF21,
061507EF090AF7E90A87F8C70087FD06,
F7F4F2E9FFA10385F41DE755FE9C08FD,
03FB017CFEDBFFA3F8E9035CF862F61E,
02A7F76B0AF7F0660A4B06EC142902A8,
076C042E0901002FF807FF20069AFB43,
F17FFDCDF864034306DFF674EB590174,
00A800CEF916025700330313F671FDFE,
002CF7F8003FFD7E00340663FFD6FE00,
F4F6F3A804F00CC60512FEEA0954F5F1,
0136FC230173F7A1F737017DFB0801DB,
FF70F417FF450123FB4CFB9700E70358,
01EF02F50501097AF5E604CC03F5FA0F,
FBF1FEDC01AFF75701C2021208CE00F4,
F809FC0D0BE1F33DF5CAFAB4157CFD0B,
055FF86902FF0B2DF0C501CAF13AFAC0,
0475F127FE41FB1F05DAF493FF15FAAA,
FE56032FFE32FE74FDD5043EF53B06F0,
FD8C016A019504760277024FF9F609E4,
02CF12C4008800A8052B01CEFB86FC6D,
02A90452FA6D034D097BF4AE0B0AE5BC,
0839EE0F05E90A8504C7FFE2FB87FF37,
FCB404A402C00845028C0615F657F9D0,
04C7F6F8FFC8FFC7FE5E045705B700C6,
06F3094B040706AD0A8CFB1C08B30AA5,
0020F3F00011FBB50722E286F7C0F8ED,
01A10432049A04D4F1B2FEDEF76FF712,
;   output 88
0566FFBF0BAD06D5FF8BF8F4FD5A03F8,
F62E0402EFA407470371F563018B0739,
F884024A0E5500530040FACD0207FFC0,
F4850C31F2FE0689F9AB008803770CEE,
FACB074DE9B909D4F956FA69049A062E,
FADCFC470627F2E0038405B1FF9E0098,
0215F75D0502FF51FF5E07FE011F0705,
F63D0720F853021901B4FB60FD770092,
E9F40259ED3206100D4602E0F9880897,
FBB8077006F10810FFE205B1044CFE43,
0067FE62FC1EFD65FF650CB602D80A12,
00BDFC7E02E300AE0C87FB0E011204EB,
FBB202B005EBF61209C300DD01D5F46B,
0002E767FFFDEB81FFFE04270010050C,
FD8EED1D04D5ECE9FF5C0710041BFEF0,
EC27F705F4A1EE8DF76309BF042D035A,
07F8086F08C40285FBB8087D0154FFEE,
04C3FD260089061801E9036C00B10066,
09620108019FFF7F04740BCF07230364,
02AEFB02000001FF044200690C56E750,
08000204075FF59CFCB9063B0145002A,
FFDBF7450285FCA503E70B0FFFDDFE22,
F11004DAFC97F7E906A3FE00F930FF60,
F57606CAFE8B003AFC070041FDC800AA,
FD41F17C03E7F183F66EFFFB0394F788,
ECCE071AFCECFF37FF9C012702670274,
F47DFD57FE85FEEF05B5FFBFFD4CFD65,
F2CBFDDCE3FD057901E4067E03460454,
EE8EFDC0FD58FBF8F6B7F9C7FE240170,
E1590044F01D0329F77A0518F49B018A,
007D08A5FAA9007603E20A460BCD02D6,
FD64F831FDEAFEFEF8D4FCC8F5A20A32,
;   output 89
FDE51141FDC4FB29008C0235F871F9C4,
FA34F945FB3E0103F029EE41FAC20BBC,
0C8302AAFD690041FFB703C5028103C1,
0615FD65016D0548EE72FEFCED14032D,
F730028DF6AFFA73001B0061FC26F690,
0949ED53132B0957FF3A02ED049E00F4,
F52900FEF6FC030B00221240FFC7016F,
F8BD06D5F824073EFE2A0D9700DE0181,
FD1603630168EF75F3AE001DFE91052F,
FFE7F225048A005BFC0BF6D702B7FF0F,
F1E8F4050227FCFDF9A30BD400BEFE21,
FD4DFE7EFEF301ACFC5F049708FCFEC7,
045AFC1B0D6F054B079E0243FCABFD33,
FFB3FCD5FFB9FF18000F09BC001504C4,
087201370CD3088CFC98054F03B90740,
FCC8EA8DFBEEFFFC02510DDA016206A6,
F63C16B9034C0014F7290647FD63018C,
03B7EA560534F340084C04A3068AFB66,
F5FB041CEFB5092603E807020454026A,
F99CF135F9C90263FB9FFAA607B10653,
F5FEF99600DBFBB2F7F8079D0242071E,
FDFFFC5505DAFE02FC07E09F00F1F979,
F83708F9F4CA04AA0189035B0775F86E,
ED97FC90FAD90704030DFDBB0DC20764,
F5850343F21EFF02FA0200C3079109FD,
0488F6F8FD6B0269FDADFC70EF6B0B7C,
02F0FB7F0C91F9EDFED5063502C90726,
03F5F6B20142F9FDF8B6FFAF02E604AA,
FB96F25E0457F4A9FD2B058DFCC6FA35,
09E0FC83030900B8ECDDFF8AF1E3044A,
FE430F0CFBE1015EFA910BF3FF30FF98,
F9C50637F2F102960013EF15FB57F748,
;   output 90
0466F4F1F90E07750898FD5F01FC034A,
FEEFFA05F4B3FBCF03BEF8A2FC59E3A4,
036FF983073204EB063208590C39FA70,
046FFC1D04860214FFFFFF91F92DF90E,
FAD5EF1108DA005AFD5101EDF17D06B9,
03F7FB80FE20FFF7F41AFC2E005F0879,
FF0C0183FB49FCA70637FE8102C300A2,
0043F1E4072705ACF8BCE7FBFA00FFBC,
F58D017BFC98F26DFFCCF6B10D8FF64E,
0259016B016A026F0EBCF85406F0FB90,
FD8BFA75F85FFA10FCBC0ABBFEF40342,
F61AFF9605BE026CEEB606C7FB010B5F,
FEF0FF3107F4F2800191FEB4044BFE41,
FFB4FEBAFFC000D6FFF608E5FFDD099A,
FBBD0F53ECD90178FEE8F1A907A5077B,
FAC7F8F3FD70043DED5E05C7EA16FFC3,
E6C002B001260590F88EFDC4026E005E,
00A7021901FCF21EFB53027AFF46FEB5,
