; IP:     Block Memory Generator (Dual Port ROM)
; Name:   mem_dense_w
; WidthA: 128
; DepthA: 4224
; WidthB: 128

memory_initialization_radix = 16;
memory_initialization_vector = 
; dense2 (32, 8, 96)
;   output 0
F4F30475FE210BF2FA4CE98BFDF9F9A3,
008FFE53011D00CC079D0AC7FD88F85A,
103BFE2CFE28090AFD3D020FF39101A3,
FE57FA86F5FEFD72F9C4FF59FC5FF81A,
02ABFA56F7F1F9DFFF92F694FBACF695,
078BFD78002B057F07FC0090FFBA02B7,
F834055202900598F8DAEE14F35D00CB,
FB43F730FB5B0CBBF872FDE70CD8FEED,
00E6FE9BF6A4FD18FA6D08A60713F3B3,
0308FECAF95CFAE2FF9A18A20FE4FA89,
FF9700450FB1035D014605E703FBF21F,
0B2F007EF24B06C7FEBE0FFEFF1CFC0B,
110E079FFC1BFCCE0605FD62F9CF0030,
0D47FCBD005A03060079F96500C908DE,
0803006FFE45057F06ECFD19F19C03ED,
FE35066704C3FA21F347FE760BA00A75,
FE7D000FF6C0F7C8F0FAEE030503FFE4,
F102F910FA44FFDDF29900FC0FA700AE,
FFE8F353F99D01220B790526FFC805E2,
F9F5F7D1FD28FD09FA8A0354FEC5F125,
042B019009C404020201F5B5F83700FB,
F94EF88EFFD4EB46F6CAEF7EFA76F977,
FF62F46FF697FD37FD9BED4BFF27021B,
FC01F44E071CFEBFFD0EF390F603FEB9,
FDB4040F0C72FD43094209C0034A0542,
047A0205F8A8FE64FA05062A02F1FFDA,
FE08085D0BE30299FEC104E40321F8FB,
FF8C0F6EF8430DDEFE221364F2BF04C8,
0D5C015E006DFDD10097FFF50218F794,
0046027D003711BB1013FA85019A00B8,
FE92F90FFDE2038506E402EF0424F08A,
0F47005B08A50A9BF9C6F93F0BB10F87,
;   output 1
01FB063501C603C50069F82A02C20296,
00910A30FBD2069C068E04ABF984028C,
FAF101F3FDF2FBDAFC18F99AFAB4FE88,
F6F5FB3DFD3C0151F76EFE9E043C0513,
F6B0FED4F48CF901F77401AD074E0233,
FBD5044AFFFC01650405FA24FD31009C,
022D0235F80302C40F12FCE203D702C2,
FB26F5CD031DF377F78CFD5FF69AF9C2,
0ABBF465F881F1E2FE6E0D6AFE8804E0,
FD9CFD4DFC87FCF5077605E4027609C7,
F941FD0009DEFB8AF7F7029000DF0378,
FA780061FA7DF9EE00970655066905AB,
FB91FBD8FFDAF548FB89FEB002A502EE,
068C020FFFFF00F6022C02A00468096F,
09F5F827E3810911F7F2FD4CFF060963,
0714FB680653F0E1FDD5FF61032800B9,
FC66FF35098805DB0116F31105E10288,
086B0074F5C40D42ECA9012A0C291158,
EF75E8DD08CCED9301EF0EB8024F0946,
EA7AEF53F7C705CC00FE014E10D50135,
FEEEF636021CFC28EBA8F52601D107A1,
F1A10420FFFCF78B00D2F620FA78064F,
035A0324E3000434F38C088DF8DF0305,
F04508ACFCA10DABED5CF8A8F906F389,
FDB8FB4CF9BFFE7501CD0CB8034FF67A,
FFB1F0EBFC89FC42003600FC0380FF18,
FD1AFD0CF7B7F525F9B4F8B2FBA30816,
FF86FC8A086EF8F30A7A095805DB0477,
FAF8F6BC04A5F7E3F7B903E90265054F,
FCEE0AFBFFF3F897107106B80CFB0265,
06C5FAF4F88705FEF7EFFFBFFC800CA4,
FD3AFFE50657F111F968FF5FFD29F8EC,
;   output 2
02360009FA48023AFB94F962F618FC67,
F5AFEB83F88103D4F51FF7520394F977,
FBC2EE57016EF614FE7B045EED4B06A1,
F46EFD56E7A701CBFF28FF390677FC7A,
01EFFDFDFB40F29AEE92F7A5E686F93C,
F10DF164000001BA067EFCBFFFCE03AE,
F7B2EFEA09A4082DEF4DF704F6820567,
E3F80676FDD5FD38EA1E04BBFF3E0857,
FC42FB68083005800633FF53FCFFF9D3,
EA08FE40FAB5F2660330E86505E1FE33,
FC6BF378F328F292022D0ACEFAB70F35,
02BA0AA7FF560CD7022AFEEC0579048C,
0735FC2B06C0FF7AF920FFE5E5CFFD03,
F9D5FE270008F9DAFCFBFF33FDCCFCA0,
FFEBF50204AC0628F61B03DEFCC1FB3F,
01F9062A080502E9F814FE4FF5260330,
042F007CFEDF07C7FFE5FC44FF3F0998,
F7E90498F95402F3FD59F351FD2FFBE1,
FD45F97CFE09F77307890B2803D903BA,
0A4BFE54007E023404B6FD390453FB0A,
01F5020200170262FF91FE4200790819,
00AAF1050007FFBB014B028906FBFC14,
04C6FECA0029FF83068DF500FD2F0C5D,
04CDFF7601B60806FC71FF98050D02CD,
F81B00DE0708FD02FDC90B6302DFFB6D,
F151F82BF42EFEF10737F1FAF0EB062D,
FD35FA8E02FB020704FAF9F2079BF48F,
0448FB0104D102D70463F45F072600F4,
0394FD240376029B047D00710412FEFA,
0BD2FDAD0001FA08060D00CF0A4D01B6,
FEA4F500012203B102D200F6FF8BEEA7,
0B4FF53B0080F77DF7440BE6070103B6,
;   output 3
01D0055AEED2FFC9FA8B099FF2C80944,
E0D5F45201B6FC30096BF7AE01D40828,
FA1FFACBF909EDD6F6FFFDD7FA6F0567,
FF8EFEE907A2F643FFA7022EFAB5F7B4,
0761040A022BEBF2F9A4EB39053004D9,
F7AF068BFFFAFAFB06EF0250FC7A04C3,
FC9F01F2F56BFE72F68CF523056B01FD,
EDC8FA2AFB1504F5EE15F553F2F20043,
F37DF38FF82CFC2BFEA403CCFAB0FC62,
E7F1F40FF55A00440600FDF9F6BBFF1D,
FA98F9DFF854F03DE5560051F9FA05BD,
02D3045803400244F76111BF0F43F31F,
FD1BFDFF001DEB5DEBEBF6E5FC19037F,
FF7D044EFFFCFB95F7A006A801FCF610,
F28C06ABF74A07AFFCAEFC5F01500214,
F636F735FC6CFA05E878008EECA8EB29,
FFF4028C00E9036706ED01DA03810181,
FC21EE42FC94FEBD05280246020005A7,
0479FF2DFCEEFD470C15FA7F062D012A,
02FEF7710238067A0AB703BEFF3E03AB,
0809FD09FC08FE0FF3F40471F7BB014A,
FD750196FFF5F560FB3704E1023E0419,
FFD30742F4DC08F7FF15FCC202480460,
FCBAFDE5F9DE0121F358FD57F5C90755,
FA84FA13FC4DFD3A017E07BB03C5FEB7,
FD4DF7FC02C8FFCDFAF9F8F604680871,
FF55F75201A0EDDBFBDA002802B10281,
01B601FD039505500552F69C085A0306,
F7B403030331FB5AFF0202D4FE5C00C4,
00B1FD270003F672F621055B0324018A,
FEC901B3FBAC055D05E6FABC01D7F9F1,
0635F921FD2CF67BFE53F6A0F420F995,
;   output 4
01A1F385F67EF3B01668FE8301ECFFDE,
04CC092B048A01E4FBE900C8FD47F077,
06CBFDADFEC60994004FFB9F0890F743,
F019F7610A4DFAC60F7E01080ECB0245,
E89E061E0257FF4DF78F040801620B9C,
FD420388FF9D01E5FF4CF8E10475FA34,
0AF80A99FD5FF34407E10C6605070140,
04521584F485FC57052CFEC3FE2EF8BF,
037BFE5DF50AF31EFA0DFDA6FC8106C9,
F950F817051703E4F84703EEF32F155D,
091F066AF55300F6FDE6FDBA07450090,
072700E1FB080198F69612C9F2D7F820,
029500E402EEF7D6F9A5F82BFAFA06B2,
0A9AFED1FFEEF990FB2DFE59FCE20681,
016FF48FF95BEE460A0FF38001D6FE13,
0AB007B401F8F86BFB300527038F0BC6,
0065FD0601590243FD250D7102410A96,
FE23FEB0FEE7F24DFA84F44200BCFD9A,
02700715078C043F05F5FFC505EB016F,
F156066E05AD0583FF010B2DEAF1F220,
02DCFD7CFBB9F228F6F1FC1E0216068F,
056CF5AB00190155FB60F8A204AA03FA,
00DCF4D1FAB4049000EBF57E09BC0528,
02FCF87A0492ED30FD1F04B901960259,
FA8504B00335F902F5EE002AFD8C052A,
045E137903CCF5ACFAB401C1E6E2FC3D,
0B9D01A00A540848FC4000A90ABAF3BD,
05FDF89BF87DF62704560B0AFB4EF903,
03FBFACC02B0037913B2012305C70705,
03EA0898007903CDFBF5035E0156FC7A,
FCBFFF9304190048F907088206A7EA48,
FB4CFD2307BC051B030EF76BFA28FDCE,
;   output 5
FDA9F1CBEED1FBDBFEA3FB23EA1BF87B,
F663E945F8DDE23A0936E9CAFC25FB20,
F859F799F6C2F012FF7BFCB5F9D40471,
FF84FA42FBD805D2F9EFF1C008D0FB05,
0793FEBE06C5EFFEF3FC01E7EBE0F2D3,
F56DFAD300050086FB9CFC93046EF613,
F96DEC46FB92046CF5BEFB4102E8031F,
F5D5F2F7E894FCC0F20E05D8FBB4FA41,
F34EEB6F0B6CFC710BF807D8FDC2FCFC,
FA98FE510D9EF768F57EF9E90124F66D,
099EF28DFD43F157FE060399073005E8,
065DFD63F2D1FD9D08710EC509750239,
00F5FD670448F8FCFEAA047304A50BAA,
0479FE88FFFD0680E9AEF096FED4FBDD,
FCD3F8F1EBD7047AFFA20705F9CD02C8,
F3B4F4BA00B5FAA606A8FFBEF76FFE60,
074FFD09FB0F0090FED80549FBFE088C,
FAF901DDFDC7F8500157F8FF0411F8B6,
075B0388FDDA01C5FDB805D8F18D00E4,
FE3605B201C9FE2D01C900CDF9440418,
03A40476096B02C701550277F859FB6A,
01750111000B06D60AEF04B20781017B,
07D4048AFFC901C9FEFFFB57FD8102CE,
05A9033EFD8BF8A801C70302005C09C6,
0307F1CEFCBE040A03990922023BFD52,
FF1D0BEAFE9AFC5EFDC8EFE608CA00CA,
05A30107FB09F8840AD30410FF960A07,
04380D1D06E7024AFFE7054BFE0600F6,
FEF5F782FF98FDAC02EAFEDB05EE0FCE,
FC3606940000FC53F9B103090BE7051E,
0A0501D501E3FB75FF60011E07930047,
02F0FCFA05AD02100272F62A099508B4,
;   output 6
F533FD64094B0A46090102C3FE71FF8A,
FDA0041505D6FD91FBE7FE96F439F065,
014601F7F7F5ED2DF9C3F9B30866FD1B,
0462090EFB810117043DEB900A830757,
F4D5075CFE5F0192F15506190BE3FDB1,
03A1058CFF88052A00300E0602D9FD2B,
02520DD707AFF7EBFFB602E80918FB43,
FCAC0D03FD95063F02900E9605DFFFA7,
F598FAB60055FCDFE231FAFA0E5DF60B,
F43CF713061D0562FA9800B30490FA8A,
04250A1BFCF402430307043801ABF554,
010000F60542F2F0F7590BDD037800C5,
021EF6B7F8ABFE920004F7D3082907D4,
FDFEFCF80067FCC900AE06FA0C1BFF44,
0BEF062903E40576FB09E9D70124F1E6,
FE43ED92FE1D0F90F34C0149042502C9,
030FF6C009080506134A07C10476F576,
F9F20BCDFD95F61CFDD9E908F994F550,
022106AB0141FD3C06C4037D0DC804C4,
F942158400370392FDE7F7E3F3A50055,
F654050A036F134203EFFF400A1DF8D8,
FD4C0689FF9D0140040B07850046F2B0,
FC95FEF800AB0C3B0CDE04270CD4F95F,
0478030101C9FEDEF56E034F0D640330,
02C20375FE0C08CF0551F1CD02D9FA61,
F7640127FFF60529058B058402D40052,
035B1294FA2EF60E00DE02F80343010F,
F986017D07600427FD9004E2F8200A38,
04C801CB06C10D7C061A011D09A10124,
FF9106C700060C480C2A02BD07A30FA5,
062903EF076B0596FB6EF908FC03FB0E,
050E051C022EF5A6F7B700B404A304D1,
;   output 7
F4FE017703DC03BFF763F60CF8F302A7,
FDAC00FF0848FD9DFB83F9FE071BFC3D,
F53207C10104F49400DBFEABF6B1FD29,
0052FEC200C7FEF70948FF5CFCD1FCA1,
0AC1F509F4FE01EAF836F9B103E901FF,
020AF7F1FFD1F7C20615FCCDFC23FCBF,
0623FF7EF7BA0783F78EF37CFDFEFD23,
02D4E817FB6E0CAD0248F66300D30543,
01B901B101590571F436029CF304021C,
FA94FCEC023A0252FFE2EAC1085D1188,
F34901B60930FB27FED6037CE74403A3,
EC0A0772FAECFD72FDB2F95CFBB0F4C1,
0E3800AE020FF9E7F8C40002F61DFAE8,
F9A1075AFFF002BB0E04FE860166F17B,
F89DFC8D003EFDF8F928FF7E08CE006A,
05B8F82FF699140D01F5FF8D0CC40683,
FBBB001C05C106ABFAB20CBAFF25FC89,
0622F69F05CE00EC074AFC4A06DF0D17,
03E6FD49FD9CFF9204F5FCB7003DFF65,
E89AF6B1011504E0FF5B0542FC5CFE18,
0277ED9AF432066D065105CA00FA028D,
FD0DFC870013F9770E3D0963FDD50555,
F20F0152F95B032D01A60C92FC1DFDA9,
09AB0048F8FAFE570311F79F02160368,
0783044D05C0FE01036C0719FEB9FE48,
02BE1385060BFCC6040B032FF25DFBDD,
068EFC94ECAF0E49FB8E0150F4360FE5,
FFBF08030722EFC20BBD0F85007202BB,
05FEECD5FB40FDAB083F0A23F4FDFF25,
01560C6600760451FDE0F907096A04A1,
041605D3E713FD0B033D07CBFE491006,
07CB034FF6F6F529FCF306980332EE76,
;   output 8
FDDFF3FB09D1EF1008BA0178032F018C,
005204B804A8F0BA068F08ADEBBAFE50,
F4BFEE8C030BFC9AF45AFD9FF4C6E980,
F124FD5AF789FAA40A8C019105660084,
EF4BF8EFF591F8DCFC9706D4FD0E02EB,
EEBDF0BAFFFF0778026BEEC8F1FAF9BC,
FFE9FC970106FFEF02E30893E651F23F,
FB31077FF150FE610494FA40F76800F7,
FD3401C0FAE3F305032BFB27FBF0FDFD,
00AF08B50A21F46FFA23F6A9F1C1F651,
F9D0FEF6045B0BC7FB39F46002ABF931,
FC50F86B05FFFE2A1042FD7103DBFA76,
0271091EFD70FB4DF942FFEFFC680378,
F388FF7D00090AAC046FF5F503FC103D,
08CD018005000291FAEFFD52FE8F08BF,
032D007007160263019607F501C6FDE0,
FC87F4080710FFCE0D58FDCDF5EF05BB,
094501750604ED2BF11BF28706F6ED98,
0790FE8B0601FE1706F50A9CFADBF2AA,
FB71FD6FF7DB058C0A28FA3A041DFF73,
0282FF35F76FFE25039B0652061CFD16,
FB0900CD000C0B2A0A21FB56026BF39F,
01470194FCD7F935F991FC90FA26FF84,
0820FE7DFDBF043801DD076107E706E5,
F8F9F45D086701A903110336FE5C0B30,
065408BD010CF4FC0996F2FAF3DAF201,
F4AFFFA9047C06290345F0FCFBF50368,
04A203C308C4FA7E07FC041CFF7C08FB,
09E208E6FAF204B20CC605BB03BAFC20,
F3190370FFEF0DF80FBEFB1502D0FA86,
FFF9051F0405FF72F9610131FFB60B50,
FE4DF7CFFF9009E601EF05D904E3015C,
;   output 9
FC9BE7F4F9BEFDA9F85EF799EC3C0073,
FC7CF6FEFF77F920ED20FB7103860871,
FF9CF41903C7017705E50520F877FFF5,
F55003D1EA7D047C02EBFC1C0566E5DE,
F1E4F944F1BCEA88E97401F7F6C6FCDF,
F9C4F5ACFFFE006B0192F149FACBF308,
0AAEF267FF0F0841F9F8F054F959FED2,
F824062CFEBB027AF4C0023B0028F49A,
030A0092FA4007B8F97F0608FB4302BE,
FD8209FEFF2FF974F7C1F2330CC60B1F,
07B1F886FF520416098803A3FD5D0564,
099407B202950341FBFA096D00620019,
03E303430088F692F97BF5EDF8A8FEAB,
02020534001309AF030AF1790689EC73,
095EF75C0C1CFF9B06F8F98EFA12089C,
015CFAC801E1FE20FEFC006C076C08E8,
0BA8FBD50186FFB908EE077A08DD1369,
024AFC2D037FFDFBFCD0F4AAFB820E8D,
FE21FE4B058EFAE10CAE03C106690800,
04FB0599FCEC017D055903A100660457,
FCF2F64E03D702D0F9E7057FFD770547,
038D0867FFF4F96EF715F704008E04CF,
05BFFBF7F38A04250D2DFE850292FE8D,
FB33078C06720647FC4BFB5AFF3BFD9B,
FA4BFDF4FF5C036DF83AF8B70AE10A32,
F9AB0922059C0151F4020B23FF02031C,
0196F9F6F89DFBA2F30DFF34042B00CA,
04F0FEC6F91003A80FC70567FC410008,
04DAFB9703A50AEA025B0375F5D704AB,
FD9904390020F782EFFAFC1901090427,
FB2804100065E87A01CDFEAF013CF543,
F218FC71FD64FF8E08A3FA84E8F2F65F,
;   output 10
F846FA8003E7F76D0574F6DCF95BF453,
FA42F63FFBEB0233F3DFF919ED6A02A5,
FFE700A1F947F6D6FBE0F26CF95EF3BD,
FAF6FAACEEC1FD970228FD5507B40381,
F2BB0327FE9BFB04FF42FBDBFCF4F72D,
FC62ED77FFA4012CFB3CF4BFF324F856,
03D702A8F9290FF4FF7A0156F168F272,
FE3D0A2000B4FDBAF855F78C089705EA,
F98EF483E7C1F52402BEED29FC14FD95,
02CBEC18FB44F62EF3BDFDF9F7A7F558,
040EFD96FB33092FF5C2E56FF760F2E7,
028DF914F10CFDD10A34003F095F0BA8,
FBDEEE10F10CF9760174FD350467F685,
F4E3FD590081FFA7EFDFF894001B10B0,
FD8BF602FB050787F4D3FC73F1DB0574,
F895FA10063901E7F42CFD2700E3F80C,
FC37EADF09A504C40114FFFE073AFD45,
019901130437F934FC05FD07FD68F4A7,
07A6F9C703D3FAD201BA021B038CF110,
FB1C01B5ED90FF7CF7F3FBE60977FC89,
F05E05B3F31C011BFF68FF0C03F40286,
F29101750096F99B0079F599047AFC55,
04C1095E056D01DA030CF85DFDE0F89B,
FF76FE73033D03A3FBB8F211041F0536,
FE07F5AB02E9002E00D0F704FEE8EF17,
0055FE9404F50385FBE0032D044C0056,
02F10019FE2100B703F502A301F5FDE3,
0316EA4CF8B0017A07A6FA740C1700B8,
F52E0575F7B8FE36046506C001FA04DE,
00370327FFC6FCB3FACAFF6D0247FCA3,
FDCA032C06110084F0AD0789FC2D08A5,
F525F84404C0FD50FCC8F869FF5C05C7,
;   output 11
0A37FF270341FFE609B0FB38FC4E0084,
FBA401AA0106FD3F0131FD5D052F0000,
05BF002E0BEF0A71FE3D02F501130249,
FA5B06ACFBAB0435F56C030904A0040A,
FED2087C09EEFDFDFF02FA4503D40699,
038502DAFFF1030E0299FA5EFF8C0683,
063D025D0D48FFBC0811010A00A3FB5B,
FDE2F872096EFDC7FF7C037C0B40019C,
040900B2FF84F86E0613FF540BC1FFD5,
03A8021EFA46023AFE8AFD9C06F2097B,
04DC02DB05B00047FE320AEFFE6B00D1,
FD190AA0F96FFC0BF9C2FC3D0565018B,
FC3FF8A504B10063042E014405B4FF54,
032F0325FFEE00680AA403DDF96FF3AC,
04A400A90415FBDEFFE8F51AF8D2E72E,
FD320CBF05ADFE2700BAFD080038F98A,
FDD00488059F044B078F06EDFD120349,
0048F2A4FF82F5750A3204BA024E0359,
F7E8EF60FE10F8680252FE9A0149FFA0,
03CB0244FFCE00700500022F015B00EA,
02EC0354F18FFF71FA2A071E078A0D63,
F7E10538FFEDF90B042F02B0F3E20040,
FA8D08E2FF240357FA380A7DF7F8FF7C,
F7FDFC30FD78F5A0FB93EBABE7B20D51,
F23A0512FEAFED7C066001D0F604EF66,
FF31F5D5018EEC9F03220927FA66FCAA,
EAABFF03FD29F9DDF5D6FE31F53B043C,
FD56F40EFFFFE851070AEEC31010F969,
EED1F6AFEE1EF58BF09C050206290AAC,
F586087BFFF8F671FB17FCA9ECC206BF,
EDE406F702A10555F0B203ECE464F64F,
F93A03ECF916F6EAFA42EC31EA30FC5F,
;   output 12
FF9A03410366023A0D260DCBFD4AF867,
F7F6F86FF175099710E30627F9AB009F,
FFD1024CF507EA00F8C0FB7CFEAB048A,
02A30850004AF9BE004E08740A750636,
016CFBA30C0AFF46EDCD0A600BD1097C,
FA4108240004F861F73304B5F6440DE0,
FEBD0BD1F443FB68FC9A120FF726FADF,
EF36FDE00369F7A3F023F25DFCC9F4B5,
0C4C07B4EFE5FDE9059AFEBB02CB02CF,
EA62F4C901B801CDFCA4FE610475052B,
FB78FC5DFB3AF38AFFF606770194086B,
F7290685FB68FE5EF0DA0D3C0551027F,
FF6FF93F02C6FC01EA26FE95FA7A0096,
FE050053FFF1F5DC02ACFD33FFC2ED75,
FCA2F8DAFBE902FE055E00CFFBBC09A1,
FD6C0A7F0FDEFE84F611FDABFF9E0539,
F6DA0652E8E603ED00C70B8EF852F5A0,
FB07FA0E02FA06C00CC6040AF8C70129,
F7B50001F669F9AFF731FCD10086034C,
FF9B0040071AF8E8F7F8FFADFC9E005B,
0203FD75FE1EFBA5F8D6FFC3FE510384,
001306B8FFEBFEF203C40C9700990430,
F3E406C0F5C9FADDFE5CF9FD061BFFC4,
EBF3EAEEF5D2F60503C5F477F696E9C4,
066EFEB3F9C4FD1407E604FA02C10E26,
0A0FF91D024CFEBB0990FF3B0BBBFF50,
07CC00BA08D5F8FC091B070BF6C60FA4,
FAA6089200DA010DF2B5043702D101C2,
0B780C58FB9DFE29FE77060C02AFFE36,
07AE043DFFE705AC0192FDDAFFAEFBB2,
F80B0073035208FFFD4DFBC9FCDC00EF,
034C04E70535FF00FF8F00560CC80755,
;   output 13
F6A602000C33F5F7F644F90AFFB8FB80,
044A04AC0820051FFD1E13C200F305CC,
F3B004FE04E208160435FCB6E8E2FC92,
FBFC0519F1FCFD79058502D305390C44,
F983028CEA5EFCC3FB8E055A090D0121,
045A04C90016FE3B0058FCB8F8EF0A3E,
06A4080305E20AE703B3FBEFF382F5B4,
074702AE013305EF04C2F8AE05FDFEAD,
FC4A053FFCA606730362FFC6FC3B02FB,
07BCFDE7022E0207FD75F74BF738F910,
F123F7CE03130BAD02D5F0DFFFBAFB07,
FBF704110526030B00C7EA8200190889,
F8970C0CFBE00590FA47FF14FF40FA5B,
F150055BFFFB0BED0C56030CF54B0591,
07F4074E0BDD05D9FEABFED8FF860470,
F7800051FE9501A602930A57091803F1,
03C7F949EEEFEB8B023EFAC8091EEB66,
EDE6067D0074FB54FC7D02D9FA99F91C,
00C8FD1DF3D4FAD4063708A4019FFF35,
006EFCFEFD230363FDE6044F009B030A,
FE83FE500B99054B0596F502E05B064D,
FB4AF2E10006EE3BF90CF788034A0657,
07790297FE75029CFC4CFCF4089701DE,
010B067C04FEF5A5FD9AF1C2EF08F535,
062B0385F791FB0BFEAC016605EB084C,
F43F0043FD16FB78064BFD7AFCA80127,
F6FEF929FEE1F5CB019205D605A618CF,
013D034D04A5FEB1FFD2057E034CFD21,
F19507B403FCFCF40458FC52E508F086,
F385FBE2FFE9FC29FAB0FB650956FD71,
0853FDB1F5E4FE82FE2DFEC3FE3B0803,
FB6BFAD8F5C3FECCFA3F02FAF745F3A2,
;   output 14
FD5603AFF8CB068E02F706B6F4FA00AE,
01AE0389087AF32804C2FFF7FD0AFCF0,
FF2803F3FE46FE60EB320523F60302CC,
05450438056CFE5602F0F8AF0272FF0F,
017301AD0556F8AAF5110901FE7AF35C,
02D80690002E0AACFEA60C250664F8B4,
F71CF6090064FA6BFE12014E03DC03CA,
F80C0D12FDFB00AB06C807570830FE05,
059CEF9303EAFA4F076EFA0C03ABFE92,
0BE607D00BDEE393F65B084403C7FF2E,
F14FFEE9090508A5EAE10AE1F3310174,
FC79FCCBFE8B05C90A42EFCB01D4FA2F,
FCB4FF0C0088FC97FC4712DFFD72E97F,
F3C601A80004F8B2F1EEF969F91504D8,
F07B07620DE200FCF158126DD79AFA44,
E8D40E87FF2C067C0EABECBA008802D4,
072905BF0798061103CBFEFA064AF9B7,
06FE03E800B9FA980255FF58069E07A2,
01A90ABAFDE1FE93FE53023C029A0468,
FAB9061FFE9CFF3F0481FD0DF680FEAE,
005F0113F980FB91FC0C032C03B604F7,
055C04F2FFF008FCFD2C038603BCFCAB,
F99106D9088202B6006DFE3E07A707DA,
FAF8FA670697FCA4FF0CFE0C08D70265,
ED9DF37E06A2F178FD93044CF1A8F40F,
0571F9DAFEC3FA78FDE2FBA6031BFB3D,
04F004A7FA41F99106A1035CFE1DFB3B,
03ABFF5BFAA8F27D0AFDF4ED01C500CB,
FE08F31BF88E03400151FF2DFE47FDD0,
FEDAFA3700170466F6FCFA92F2C9FD20,
FADBFFD1FE73FFBD0274FA990198F13C,
05C4F704FFF7FD1CFD1FFEBCF876060F,
;   output 15
037EF1F207D301C000B7EE5D024CFE70,
074FFD96FD7AF0030162FFDE004FF65B,
02C204550575FF4200C2FFE2F68BFEC3,
FE57FA9304D5FFDB09C8003504550705,
02DF000AFC94FE3B05D906A6002AF48B,
0554FD070030FEB10C68FA880458FA75,
08A2F89CF5BD0317F9AEF70AF441FA91,
077BF9B9FC6501820337024F03ACFFD4,
FADDFBD802E7EE8FE56E065FF5D50479,
FF52008504DD00DC0173F2D2094DFACF,
FE50F651FE03FF9806FA06A00312FBC5,
FFF1F7C10839E5160226097909ED04D2,
0730FFD601FEFEE201FEFA5CFF0CFE8D,
FF53F658001402790FFB028DFE89F19A,
0ACA0181F35DF9EE0064EDEF03C3F738,
FC11FCAEFD97F5ACFF03078D03F1E93C,
FEE905040A890439E589F5ADFBDE03BB,
022C010F07AC022B00D5FE5D08FCF21F,
0E42FF63FB6C02010A0A0074F309FDBA,
F218F193FFE2EE02FC3206D0FF10FF02,
0D4200AFFFCF0843FBCF0F7C0298F7F4,
06C90285002209FF0118085A006F033D,
FE9DFEC0036CDA51EE4F03DEEE12FCC5,
068EF5A0FE03FE6308700B37F6EC0E8F,
FF3AF7BB02EBFE91F8770CF1F46BF4DD,
018EF54F06E4FCF6FE91F792FF4C040A,
001BF88FF4FB09CF08D3F783FC5103D6,
FE3D02B2FC36045AF94AF711067F0634,
06DCFB2AFD560A5803FA012DFA040983,
0748FDBD000DFE9F073CFF42FFBA075C,
FB6D09A101C3F1330025FA160469F6F9,
021701E80A06FBCE056F009E02BE0453,
;   output 16
FDF800FDFFADFECD0AD904CC08780356,
FE14FFD2FF2DF96706A90FBE03B10285,
FE4B04B8098800D8FDDFFC31FED2FFAF,
04310D46F8C9FB4CFDA60419FFB20FEA,
0057FACE014400FDF78701C2059AFF05,
04CCFDF5004200BAF80EF8E3F4DD01B9,
F28EFE7AFD330A53FD5C083D00BDFF25,
0078087FF6830013FAC4FA15051CFC6D,
044F041AF7B7FE4108AC05BF114F02B9,
00CC006B0799FA0B087E0665048E10B5,
F9700A9B0320122502FD029DF7A5FA31,
F66B04BC024D071F07DB0D4A0628FC02,
0B78FE730391F7DEF6B707D9FEB5FA76,
0808FF99FFD008110CEEFE11F0F8080D,
FF7AFB73006B095409F8072A02760317,
081113BDFD87F8980437F17008D00CBC,
02D8036FFAE4F669FCF40C48F47E083B,
06C8F58101A9057E06EA09DDFED2027B,
0041059F000DFB3EFACBFE0AFE3403A9,
0A5E0569FC44F1DFF8CC00C7038CFAEF,
066BFD00FB20FEC3F97A0B080812FD85,
03E5FD1F006EFF4E00D9FDFAF51DFD39,
F3D5107FF3A200F4F43A04B2059B046F,
0249F422F70307580269FDDF023901F6,
F112FE15F961FDDDF8990560FA8108D7,
FE08FF8EF8F005E901DBF39B08DF0DD7,
F89006DE0723ED81F31F07E6FB27F47A,
F496F324FF94030B010FF4B2FEEEE3D3,
F8D4F69004BAEB0EEF45F7A5FE10F62A,
03930962FFDA008701B6FEEB0064E5E9,
02FDF740F5E9F9F3004AF8FE06F906D0,
FCA7FF31E3D0EFF7F5E901ADFC1AF480,
;   output 17
F7E00CCEFF5100F105380A4AF461F8E7,
046DFF7FFD60FEFA05060C9A023607E2,
F5AF04BEEE1400A1F759F79BF76E0021,
FBC60B5EFEEEFED2F7F0FBD3FC5102B2,
FED2093D00780285F5FFFF210754FCC9,
0A42F8A700220068F5EB0CD5FFAC091D,
F87F081307D9FBACF8D5F6B5064301A3,
F167F679F9E30C4D0FFFF7BAFEDBF9A6,
FCFB03E2015BFEE1FAFAFF34008F0641,
FE8CFB8D049B050B061904E4FFA5FE97,
000006F2034AFB46FB0F044804DB0042,
FB9CFE82FB89FEE0EBC20580093F02B7,
0BCB023F064100E1F08C057104AFFC7E,
FEDAFF7F0055063EFC3BFCFEFEB3049C,
FA410495000FFF32FA9D010B0012FE9E,
F9CB0413F18EFEB1FF8DF91C0516F668,
02CDF5BD001500890B4E05F60C1DEB69,
04BF09D2F576F9B3F684F9DB01C1007B,
F739F1AD037D061CF894140F0378FFD3,
FF1EFF21FEAA01BA0A5CFC4A0D34EED4,
ECE7FE70095CF3B1FD99E379E54007B5,
DDADF0DF005AF8010207FECA0950EFDB,
F994F306FA6E067507E501FF080606A6,
EBC10074FD03114704800A4105C3F58B,
037508770A83FC26FDB106E9FBC10552,
028D08C7037BFC4BF95EFCE3F7A402DC,
07BCFAFBF8030CE500D1038C03C0089F,
00C6F941FF26F59CFB1D07340189F738,
04BEF5D9FF2107990ADDF7FC022905F2,
0387F769001904B907F102180616F8C2,
0331FFEEF599FB8803E8F336054CFBB2,
FDE0FB86FB83060D03F202F4FD72062A,
;   output 18
0949F2F209AE05DC0064F872FDB8F631,
078E0385FDCE0778FFC1EE7100B1FC5F,
03B2053E008AFE8104B30016039B096D,
F8FB0C1D009A08510B55F698066F162D,
0692FD1A02A40686FDAFFCC1F8C1F2BA,
F6B7FB59FFF6FEF2F9B3FA96FF89FA7C,
063A0E9AFE2AF8921945FA6E04B4F1DD,
064E0158F87E0553FFC2F9F7028102C9,
003DFA95FF28FA4902C80085FBAEEABB,
075A087706E9F881FA800481070EF939,
F7FDF95EF7EA0F93057BFE82F949F65E,
F72BFA52063F0F190CBFE6AF013C0E52,
F7E0099AE23CFF6BFF69F6FE02C40474,
F0D5ECF3004406F1FB87FFE10A191472,
0B69052F0095079502340643F974D7BE,
0386011BFD240EA70376F8440DA70526,
0229FB4D04C3006F06280303F96DFE0C,
037B03FBFC900B910229F9FDF8E5021F,
FFBBFF49FD390B18FE79FE210AD6FD26,
FE21FE4BFBDA0A270C5EFF81F950020C,
FEAEFEA1035505FB05A0030CFFDDF347,
02A2FDF00028FBE8FAFC056B039FFEFD,
02D3FFE7040FFE1EFBBB0875043FEF74,
07EB036BF6A8087D014603330E150339,
0855FDCAF8F603900AA6F1D6096002B0,
04660F2DFBA2FC33F4F2F78904EDF568,
F740F909F5E70E63FF6BF83CFE600686,
FF35035DFCE0FE380307F9D6FAE4069F,
FCA40359FC50017DFD62FD4EFFD400FB,
FE8DFB79001101A2077400B50506FA69,
0140005CF931037E077AFFC5FBF9061B,
F99F048EFE590364FC870230FC7F0879,
;   output 19
05EFFDB30351018B0276FD340CDF0224,
FA2BFE22FAA002AEFA2602FF01AFEEA8,
01A3FF7304B2057E0147019AFC7100FE,
06600386084AF58E0AB107AB03280906,
03CEF6A406CA044DFEFD03ED02E50B29,
0517FB00001FF19DFDCDF81902F901E2,
04110162F5B1006A0F95036EF812FC9E,
077E0ACDFCCCFF22F3D5F37AF5EF0266,
F4AAF91D038A0633FCC3F5B702BFFB0E,
0325F42DF47FFDBCE5DBF7FE0ACB054B,
FE81FFA4079904AEF9980310F9A8F8CA,
FBCBFE2BF3CA0829F740F1DC0842F43C,
083B05ECFC16F3C2F871043FFC45FC3F,
0017FCA80007F1F3F3EEFE68FC05FF5D,
F6F7FA60088003EA038EFE9DEC91FC8E,
0DAB03970087FC63F5BCEEA0044D09B5,
044102D7F7290A96F9FF014905DD050B,
F80801F4F87DFDF801A9F925005E01A3,
05960274FAC4046504F20930005F06A8,
FB98F8E00529FB060B70049F034DF768,
FF7C04F60ED2FAC0005AF3F1F9E0009D,
FEAF0813FFE30553F8ED051910BAFE48,
050AF7A2038F0839F5180A300BB301E9,
F63CF9A1F86DFCCBF89E045B00170ACC,
F963F43A0E94FE68F6D603FE00980F2D,
F965FEF0FFB6FBE8F323DE5804E30420,
045605D4094F0792FB6105A60876FD51,
07A20544EDA6089E03F8F67EF754EE28,
F642FFD608E20783031D01130C540C55,
052E049CFFE0FA77E85F010AFEA1F0F6,
FA2000D50124F1C501FA0259FC74F46B,
048803D6F925F972FBB1F690F82F11DD,
;   output 20
FD76FB95FD600392087DEF40F9720000,
08B40908FC7101BCEEC3092500110B5D,
F9A6016BFE3700F1069C02A407A6065D,
0390FE09FB5405D702F30068FAE60ACB,
FEC702A2138EFEA303A30231F784F45D,
006FFD550011F8E20605F662FE6F097D,
FB37F9BA094BF5DBFE4C0469F3D7FAD4,
FFAE10D60111FD9B047FF4D8FCB2022D,
FC1F0454FA3CFEEB0C470085053EFC33,
FFFE02CA030506B102CC00A6F49A0038,
FEE801D5020001C3030C08360239F609,
FE7CFD1010EEFFBC0D80F39803A30519,
E827019100590187052E03560714023B,
FA930735000108AE0733FD6F0069011E,
01C80678FEB5068D01A8FFFB0B50F06F,
027F01C30236FE6006D1FB1802C60248,
02AD03FBFAAB006AE4ADF539F2BFFC7C,
08B8FCF404A60952025101970EE80549,
06CD0F87F057063305DBFBE0F3C6FF19,
071FF03A0522F73AFB8B0477F7910138,
13830145FC5C0A4B0A26017BFBBDEF6E,
068CFFB7000401A9EFAC00E0FF75056B,
FABE019FFB4AE334F1F3FCA1F0D5EB76,
089DF748FBBFFA220706F89DEE900CEE,
0502074408FA03AAF8C8FCD2EDC50289,
0F6E07B6025602B2F1A8FBB307EBFAFC,
FC410B0E06CFFD22FF9F0363F7090EB7,
F7A60352005AFF6F06D3FBE4F56C039A,
EEA600360241088E02C1FAD8F9E3F765,
08DA0AFD002C085E03C6FC35F64F02C3,
06E3F690FE9AF8A0005A072F0325FA67,
0953FC800509F913FE65FFFB0AD202F7,
;   output 21
FF9AFA6CF9FBFFF3FC66001CFF1002CA,
02E701E01023FF46FD2605D2FF41FF2F,
FEA005DA02D9FF2501C401CA00FE017E,
FD4A02BD001306D40888005EFEC204FD,
FF1A0D890158FB36011A0D28FB83FA9D,
FF18FF770001FDF6FA460B1B023308F6,
0533FF310843F7A70437FE8A022601D3,
08FDFE9C029A0CEC0C49FCC001AF04D4,
FD080258FC1AFE3EF975F776F381F427,
FEAF03B00CCFFC0E083B02600DBEFAF8,
0114FCA6F77BFA24079505D1FE95072D,
00070139079404E6FD28F780F445FC7F,
04230D01F7FC014C06F1FCFF049AFE1F,
FBA3F70A001DFD20F944FF5205BDFFB2,
04E502F101AEF47F00CBF434053F02F5,
05C10456076505F802E3FB96FE9805DB,
FB9CF93A078B05BB04F2088E038BF2D3,
053C0BB2057CF4A2063DFE6FFD08FF03,
01CB0243F96603D902FE0272FE96FB22,
088D01A1FF62FEED07BCFE3FF9F802BF,
FC54FC0308A1FCFB049A03BA008C0169,
FAC000DDFFE302C3FCB308E205E3FA3C,
FE68FA3503BCF68A0289FC82033EFD0A,
FEBCFE56087501600260FF8405B40363,
0ABF09F7FCEA084ADB1AFD7AD963F0D2,
FDD400B204E10A03FD98FF98FC9705BB,
0357FF59F8A8062F087B055608E0087C,
F66FFE34FF82EF49F78DF711FA99F4FF,
FF5AF2C400E811780925EB91FF1F069C,
08E0E945FFEBF52BFD310BD6FAF3F643,
0527F0B8F660CEAE01B2EF8C0B8B0426,
01F3FDC1F815FFA50A2506CCFBB6FF81,
;   output 22
053804DB0177FC6EFAB4FE45FDCDFBA0,
0078F74B068FFCD2FCD50A6BFC940CE5,
F84C0CE9F894F6EFFE60FE5EF6730406,
FF08095B03ED07EF0083FC420370FEE7,
0332F08D02400353014BFB9A00C9F7B9,
010EFB400005FE67F806F3EAFF9D0B09,
0A1C1079FA27FD10F811F64D0001F74E,
072708460476016103550140058EF661,
0425FD2EFEB7FEA10C3A056FFD6509A0,
FE8DFF5A0961F0BF05EAF6310398FA90,
FBA30EDAF72DF8E6055E0471FA7E06E6,
131111D5FC190C97FFA6F705FC5F0AD6,
0957F37F01390287F82B033FF821F77C,
F2750385FFFFFE4AFDBDF565FE920449,
FEDE0365F449023CFF4D034FFA5FFA14,
F922FD660F12F1150709F1BE03800195,
0577FF4402CB008FFBA706740099FACC,
EE6703C3FBD503E90455002BF7290051,
F89CFC33FB6E0515FE4A094B03F3010C,
0214FD77024103E90139FD630D7D0746,
01FAFAC108F0F9E402300325029BF345,
00C0007F0027F336FE33FE91035A04CC,
02C5F45CF5E9FD11002C0821FE86F757,
FF920685FF7AF44FFDEDFB04FCE8EC31,
03230676FDAB06F20940020909AA0627,
EB4B03E20245F5370923FFF5FFA1EAC4,
ED25FFB1F9AEFB3E0B85FDD7F1550EDE,
090007B5021811EEFACA095105D50AC9,
F95DECB9EDF40439038107C40438F4C3,
EA6E08500005F44606F1F6970058068F,
07BB0C76018D0751FC490E64EE4C04B5,
FC0106EF0908F65BF9C5F545EB55FD6C,
;   output 23
FD4DFA91FC72FE95F723046D016E01CE,
FD51FE320A6BED8808740777007CE9F3,
FD4E010CF8470265031BFE060971F79D,
0819F6CA0B02FEEC0A25060DF6D5018D,
01C5FFFA0DBBF6B900D0F2F0FDF107B1,
0A380205FFECFBC7F94307C80BD60476,
015AFE35F95BF6FEF57D0908F929ED2C,
05BFF37601E80506FB0FFF2AFDE20831,
07D605A606A3028A03B4F15F01760074,
FB1F00B3152906E8FEA7FC15EA960382,
07AF07FA0060029D066BF40FFD49F18A,
FF44023CFFF30633115B0490F10AF91A,
0D800679F7D8FE5103A1F6F201ADFDFC,
0C0505A50026FFFAFF8CFFB7FB4111E4,
F99EFC2E02EB020F0022062F03B8F8F7,
0A86F0CA00A80A0FE73A02E7078D0480,
04F2FAD9FE54FAFB0675F8CDF8C90574,
F66802F1FEFAFB5CFE51FF15EA6CEC02,
FF1A00CCF9B400BE0274E58D04E6F0C4,
0529FA19040EFDF80D2BFC13FB7D0286,
008500450B1DFDEF0BB1EE36F7E304CD,
FCF3039CFFFC0000FEAF000504E8FAA8,
060B04F903CF023DFAE8F530FA2DFAD6,
0D4B05E6FB7BFB80F70604C701D9038B,
FB52FB8DFAFBFFBB05F8038E0655009F,
F8E3FEE4F91BFEEAFDDFF4CAF1E6046C,
00D1038FEA560857F779F899053CE9A8,
FA58FD86FD54FB95080001B5F31A03B8,
03420696FA1007880B7BFDCDF3740679,
009E059EFFFC01FDF790FF0E0512FC14,
F919FA5803C70CC1FFA208EA0316EF03,
04B30054FF01FD40FBC0022608D4F805,
;   output 24
E84EF9FEFD8206260148FEB2F0DFF3E8,
F90DFB85FF7A03A90150FDD600A60688,
F882F101FC880571FDB7FF701050FED1,
F6A6F049FB1D038502B5FBDD07C00134,
031BF9C4FEF5F02BF4050F090612F086,
058D0667FFF2F634062904630CD3062D,
07770458FEE50CCBE8F6017EF992F9B7,
FFC4FF7EF8510BF2007DFCC0094BFC24,
FC62F7C4FD50FD24006DFCE4FF30F5B2,
FD8800FA0257FFBF06D9000BFDFE0E4C,
FF55F5D1EF49065500D701B406D3FC03,
FD89F11BFE5F067FFB92F1D5059E0100,
112E0131FEFEF432FA91FE4404DB004B,
06F702800006009502250646048200F3,
FFEBFC83FB7701A0F0D70021F96EFF7F,
0118FE310398017DFD2A028F02BBF94A,
E422F532FF3E0B2EFF35FED6FB13F6D8,
007102C10267F028010DF1570BF009D9,
0163F04DFF400426001E078108A3FC2F,
FD3BF7980031FFF6FC64FC66FBFD03AE,
FE6EF77804D6E71FFA4303A205D3FC97,
05EF0810FFE6F034006B0CAD0ADEFF2C,
0385092EFA0EF9C4EB2406D8FD6AFD02,
FB70FD33F563FC40FE48F976FECBFA99,
FBF8FB080CD9F901FD5CFFAD0025E8C6,
FB98FF8902AFFABD0594FAB609AE0105,
03FAF40A005701D9F43C04E001630764,
F6B7F4FF035A1212FD39040F003307E3,
1233FB860391EB7AF23304950889FCBF,
04A204F7000BFF42089805DA0F4703C8,
0408FFB4FBF603FAE69B05B1FB52F95B,
F870FBA200ECFF34FE7300400030FBE0,
;   output 25
F92B02CBFBF100EF02ACFF2109D0FF64,
03C6056FFF6DF0DBFF8D02EDFCF7FE9A,
01C4FDF80241014400DE054F00A4FAA0,
FFF3F81D0E3AFF7FF19BFF5D007C0FDD,
FCEC0B1EF331FFDD09430647040A0003,
FC40FE86FFFFFD6E01A106BF0178007A,
01E90275FB1808BCFBC6006E02470559,
05C8039A008D0135038AEB02FBB802BD,
043AF69CFFC70681FC9A037609A201B1,
0A0EFD8B05D3F3680E77FCBEFAE70E69,
F0CF046002AF0016F06000C7FD8AFE8A,
FA090141F9C70500002BF87B0BC1FE28,
0710FDAE055AFCECFEF60CE50528036E,
F1C907EB0003F871085B0049FD34FEDA,
F98AFC74FC290967F5A701DFFF760656,
00890709064D02BD0ACEF915F3E5010A,
FF890110F5C7026B0246F68EFD22F057,
FA40FA18F936F0C0FE1CFCD9ED2300A9,
F258FD0DE789FEA9F734F284FDB6F679,
F0AAF2AC06D8F71DF6C10312036D013C,
FAFBFE8FFEE8F60DF65AF8CEF05302FF,
FAC2FE47FFFE0009033B02C2073A0063,
F399FA24020A014CFEB5060704F70378,
EBBB0C25F4D1EDDD015A021DFE5FF04B,
FE93F8CDEDF4F6BD07F807EEFAC6FE73,
F310F9B3FA46FA1A041E09A7FC860438,
F4B101AAE8D10765F1DEF38EEC4EFD45,
FB0A04E5FFA5F341FC5A07780311FB1A,
0B1DF7160154E6E7F55BFBF3F2D5F771,
078BFACE000303ACFC6EFDECF55D00E6,
0581FB79F9D304DFFA3406110287F1B6,
FAA6F80FF45FE894001AFA0F07840099,
;   output 26
0C6DF67E09C0F9B1F7B1FC1B09C0FA5F,
F8E9FCF4036901FDFA74025EFFB2FFC3,
F9890374FE180E4803F7FF67FA4B0404,
0F35FEBB0322FC1C03C5024BFB710958,
0624FBD308E1FDAC08240231041402FC,
0C0EFDC90027FDB6F771F988072C060D,
0B7006C2FA39FEB2F5E6FBACF0FFF5D6,
04DA0410FFECFE55071BF1CA023C04EF,
06E0F5DD01E3F11200BDFFE801F50207,
0316FF320CD3F7C701C0F3641294F6C1,
FA0B02F301670AEEFC26009009D10218,
0517062602BBF7BA0582ECEA07FD045E,
F790020DFDF7F550FD0601C405180881,
FC8AF80100430527F890F0F7068A1221,
05240174FC680C3DF920FEC1F77FFC44,
051AFC77FA910010F990EF8A0592F73E,
00B9F8510A8EF3CE0835F6A2FDB0F6B0,
08AEFC48FBB0FD69001FF924048F0104,
046FF4F102B900490AA2FFB4FCD0F96E,
FEB502870415FD8B0067FD02062600E0,
FC2003EEFDED0058FDAC074D0455FBBB,
01A0059A0089F515FC4A0448011602A3,
06B7FF6FF69B010301DCFF39E3A7F868,
01630997EACBFAD90535F2A5FF2C046E,
017AF7DF0C020128F972F45600B2F176,
080AE8A1F834F9100F85002B10DF07C2,
F45B062CF97404B602BA0831EE270BB4,
FCC5F1EA0221164AFFA9F77BFAEB08A0,
0B870C8201C20528F1E0F479F7DFE3C7,
0471FD3C001B00180F99F9CA04820225,
0587FD4D0226FC8F0218F86CF346FF13,
0A210182F8F7FE61F1ABFA0E043BFB5E,
;   output 27
0B85015CF5F9F6B0F491EE7D0621FD89,
F996062EE3C60444DB5201CEFB1701FB,
F8F2FC990124FD6804780668FCD9FEC4,
F7580093FB42FB99F5340454045905C6,
FEC5F4EDFBB502B70144F8F5FFC9003B,
FC54F86DFFE2DBA0039EF0A6F33CF970,
FF47F456FAC406DAEF19F658F4C90603,
F3880696FE55F94AFDBFE584E17FFB14,
FA02FEE602410044041D0304045C07D7,
F7F4F780FC5A0C8D0197FCB0FD09ED83,
F555F8C703A4F8C0FD9EFE2D06900140,
036B050EF7ADFFD6FDAD0919FF5E0645,
F93BF88301840532F75AFF8001810457,
F19903140002EA3FFF0E0AC602E80A1A,
FFACFEE206CE03AAFD98FF890316FDE2,
009AFC8C091DFDB6060FF79DEEF6F82B,
05CAFC6700FEE8A5FBC6F6BEF799053F,
0933001D087F0045FAA3FFC4FC4B0772,
FB0E05FCFF0905A4F39F0112FF5D010C,
FBCEF04702E7076007B303AF07C800F2,
060EF719043BF2CBFE0202F207F2006F,
FF1D0E5FFFDAFC63FD70F92306E5067F,
06A607CEF07A0513FE9203B7FECE0377,
FF8A0806FA11025901A1FD630257FA76,
FF39FE72027DFA4DF990F8D505D7FF50,
05590A9DFB80FF2A027E028D06F0058D,
0664FF00FE1E0CD30156FD0B02E50872,
0900FCBDFAC0FE8FFEE1FC9E06D1F6D0,
0021FBAC00CDF8A00392044AF9A00382,
FE8AFCB1000CFB38FF2E01C30567FE8D,
08A907D0F9AFFA2805FBFD5A02A3F998,
F34B0571FBB2038405FCFB020563F48B,
;   output 28
036106D7F64D0BB0FB64F7A302C2043A,
04060693044102A909F100AF0211F19C,
03EFFFA70803014803ADFF22F7A0066D,
FCA40070F742F089FC88018403FBF89A,
01FDFC33F646028505DBFC81FFEEF365,
042EFBCB00710436FEEDFEAE0A48038E,
011211CD00BE020E087D040EF8F80330,
F988EC6B004609CF059703AE039F02F8,
FB7AF707021002F7FB9FF975F925F718,
00F200420CD4FF0FFB52086605B1F4F6,
01DAF905F65308E80A4708A30088060A,
0599FDE4FBE0FB3109F2F81AF66EF865,
F5D2FE8DFE52FD6B02720194FF1C029F,
021BFF5AFFCEFACBF4C2FAB6FF98FFCB,
FDA4029E0237F4C9FBDC035CF9E5E415,
F781F42C029DF26E07AB005204C905F4,
F2B7098BFE85056EF5E6FCB2F60F03C2,
FF1109F107CA091E0297FF9203E5ED2B,
03C60803FD880930F981F829F9ECFFD1,
FB87FD51F910F776FAC5098C016F01A2,
05F8FCD4F0EFF6C601FE0A98FE7D0185,
FFDE06B80055FA600934090307E40A22,
0620017BFB1EE3BEF909FCA8FF4D0653,
F247FFF4018CFFA30A9DF7AFF925F624,
FAE0F2C301D0F10BFBEB002AF0D4FB99,
041AFF7915F1FD870275007CF6F0FDCB,
019E12EAFFB500AF039F04AEF84EF707,
0C44FE24F2B0EAD50D7C1353F4E5F18D,
F796F68EF80A01EF0A300C1C072F043C,
03CF12BA0038F5A1F971FA0DFBC80299,
FC970970FE66F048F0D006B9FB18FC9B,
F1C5F325FCF304920A8FFAA5F6D2FA1C,
;   output 29
F2B9028DFFD8E3D70216F33E0699FCA7,
083503A903F6F7140082009EFEF105A5,
FE0EF53A091AF921F679028C0682F8C6,
03ECED39FDFBF511082007C90C52FA53,
045BF57707B6FD50F3B709F20AD7FEE1,
F333FB3B000EEAD3ED7003DFEAA3FC78,
0574FAE5FC53FF8AF7910032E49AF865,
F877F28904E6F37C049CD507ED4EFB67,
F34CFD3C0D6AF9BA00D302BC0384EAE7,
040205980BCBFFE2076503AF06ECFEA8,
FFEAFC37014304EA08E8F98307CA03B9,
0414FC890934FEFA0B7E1C7F0B3AF92B,
03FBF582F706FD040116061905C80367,
0C17FAF00024FB74FC5DFAAEFD1809E7,
023805A100020646FD11050AFF4FF884,
0989FD01052C00A3FE75FD78F5110077,
FE24FD99FFD4FCADFF9FFC1400A50427,
012E0161FFD6FD97FB8BFEE409C0F89D,
F765001000FEFEACFF870342F8660124,
FBABF98F0015FD8FFA6502BEF7450364,
00DBFF6C025BFDC3FB920A460059FFF9,
FC1003BC000CF8000BEAFBEEFB53FD1A,
F1A7FB2901D3FC67F5F5EE0FF653FBBA,
F60B00CCFE2905AB07D6F62FFC31FA7E,
057AFBE60025F748031703BD02050739,
01AD01A000DAFF1604470BBB017BFC0C,
06A2037EFECBFF020537F45705751552,
05240F77FE51006B0090FD26FE710911,
0663FAD202D9FA34FD41FFA8020B0490,
FAD106B300280D4D0C92006903FB0BC4,
016E00A1FE6000E30413FD2DFBEEFA53,
01FBF945FFC6003D00A10318FFD1FF8E,
;   output 30
0C3FF9D4FE110784F9D6FB76050B070E,
FCC1F81DFC4EF42AF3D6F3AD031BFF50,
FF27F9DEF4BBFDA10B20061701F7022A,
E4B309FDF549000FFEA6008003AFF4CF,
00F90FBAF6C2FFCAFC0CEBF5DFD6FBA2,
FBA1FDB50028F70B004EFEA4FF91F13A,
02C1FA99FEF60016F18C0503FC7809D0,
03EA0956EFE4060D01440272FCC30484,
F4920022FC3CFF2F012E04C006BCFE0C,
F9AF003CF465F3740ADD029BF4F4031D,
FBF40F0BDDF70241018FFD2EFA04F468,
0007072A04E7005EFFFE07401043FFC8,
F151080F059B029DFCDAFD78EF64F9F5,
020C02190021F838001FFD73061EF41A,
057AFA5904B90713F97B06950169F13E,
014C03370260F2CA010106CE0AEC02CD,
01E7025004F8FC4A005E10A3FEFD02AD,
05A3FEE000D2FA1F047EF92EFBB203C3,
FA34FF64FB0306210439ECB2FDFAFE81,
00D102FF02F900D40313FFCCFC4603D4,
01B6FC9002AAF8BD0716FEEDFC98FE42,
05520412FFBEFD3D052EFF75078F050E,
FF34FA79E48CFAF4FE06ECB1000A03CF,
051A06F9F954FEC8FA2F01A6012FFBD4,
FF48F14B043203BB06BF0CFCF7A7FDFA,
0A2DF97703DFFC5F0AC0F16FECAEFE3C,
F89AF50D03230169F821FC82F14DFA6F,
048EFF43FD3F0207FC96F6DF0F440351,
052DFD66FA68F73E00C904D00320F8E8,
FF70FDE0FFC5FF86078400B40795FF1A,
EC0C0352F6F5FEC1FB20FD2CFCF4056B,
FF7BF1C9FD9B0325FD3001DF08C5EEBB,
;   output 31
FA11FBEB000D03890E09F0DEFB0E053A,
073E03190D8DF6D1F84CF5F5F5BF001D,
014EF23006EF0521F536FD1600F3F4DA,
03B403670158FA7E11A3FB530C0205BD,
F506005EFB14F4CFFD931319075700C6,
F75CFDE7000206660101F7EF0AFFFA49,
10B0F621010403C61D1F0B86EF18FF66,
F850FF56F57708730AE0F818FD33FAEF,
F657F249FF600792FAC4067FFF4403F1,
09F6FD280C38004A0BF6F6CBFD30FDD6,
0157F6DAFD5400DEF789FB09010AF40A,
FD06F54FFA170A1D0103039C0697F6D2,
05170CAFF92EF631FCB500ED00AC015F,
EF9BFD40FFFC09ED0C16FA2F0384EF22,
03A7074E047BFE0B00E401FB007D04E7,
EF66081EF68FFF460458FA7202440485,
F924F49B0919E4AD0249075A0A371076,
04AE0515FC26060E014C0322F85F079E,
03EFFAB607B907F5F55BF92E01B6E7C1,
FA53EE3AF72FFA0D0E0E04FE0C73F65B,
FC31F32FFDA2FDE0004BFB2009A50809,
06A208A30040F3050709F133FEF2FC1C,
0A330605FB1900A103DD08DCF959FF38,
FC8104EBF7330212025DFFE4FC35FF4F,
F65802A804F606CE003108F60472FC82,
FB0AFB43F2F204C5F7F8FABFF85A053B,
01A70A5DF4F50435FD3D013404F8EF4C,
F6170284088B0B3200370244FF19013B,
FB4AFFADFBC7FF4EFA2DF9F7074A03C8,
047E01A2000101A8FC67067C022FFCB3,
0683FE4EF99A05BC0645FC3E06B30D2E,
F79900A9EF490129FF5902C50156FBB6,
;   output 32
F8B2030906EBFC6BF949038E05FB01FC,
03ACF5A5EE8E0388009D04DBFFE0077C,
0174FFDF0C7400F0FE6201890311021A,
FEDF01F5FC9AFE370A94FDD1070A0045,
0A15F669023CFEEFFB93EC7505B806E1,
FD8C0035FFA400BB084502CCFA97FDB3,
04ABF6FBFC260A21F26F00A0FEAD0292,
FC8C070EEF85FD3EED5107C5FA89009F,
016EF6DF0BB008200887011EF1FEFF3C,
038E02EDF49FFF0605C2FB82158EFE65,
01A1F86EFC8FFFE9094A033B03850831,
026B00B60DA40741FFCFEFF703B7087A,
00B2F6C5FEAA06AFFF1FF189FA7F0371,
FC54E8AF0031F1C4FF08064C03011120,
01B80720F64705E1FEDEFEF403EDF6B1,
FD65FE1CF138018101DCFF47FCBB09F7,
04B4026FFF57F9D40CF4036FF62803C1,
FA79F066FAEDFE0A0329F92C01E2FEBF,
E77EFCFB02C2F875F751FAB60BC9F372,
F9BFFEDF02020850FEAFF532070907FA,
EEE20786FE97FBFCE7460245FB29FBAD,
F6FC072DFFB7061D083B013FFA6DFA62,
0399027D048603C200E105BC0531F78F,
EF49091CFF4AFAEAEA4C041903D5FDB2,
FE38FA45FEC5FC16022C07A70A45EB32,
050BFA340611EDA501C602610862FBB2,
F76DF8FDF9C30469F3F6F5B2F55E05E8,
05E7060E0639F5B6FE3712BE0187031D,
F49E03BFF3B503B600CB0623025F0376,
F4120B7800730BF40848FE1BF7CA069F,
F32713D10937081BFB29FDB30488F4AE,
FA6EF813099AFF96FA03F6C7FEEA004A,
;   output 33
F79AF912046CF811F977F2EAFB8C074F,
FD8901E40431FE9BF9EC01BE084905F6,
09A0FC8B0A43FA3AFA8D039207A3FBB4,
EF43F4CEE936FEF20A9301600524F10E,
08CFF75DF897F382E9D3FA3CFEEBFFBC,
FFD9F9ACFFFA0351015CF4E7FBEB0047,
00CBFD9AF5C8066DF889FDF0ED24FEAA,
0426042DFBD4FC05F84AF685017E082D,
F44CF36DFE2EEFBFF62AFC4209E9FA16,
FAEBFB5302560C01F50D0757044B0BFE,
056902680631FF2EFC05FACB042FDF6B,
0322F3D0F55208ED012BF98408D900A1,
F577F4D4FD14F4FEFFCE0595007EFE2F,
045304ED0005FCE5F2580293FBB60F17,
029BF837FC4505700299FF29FD5EEC41,
0952023B0124F0D4F60EF63E0386FBC3,
F219FFE20D1EF89C040EF16FFF6007C0,
0149F92BFD29FC5CFBE0FCB10C9AE664,
FF60F9AC04AFFC0E037C059C00C3F9B7,
FC1AFF11F74FFF84FD38046E0A3AFD53,
FFBBFA7FF44503A8FE31060B06010597,
015D06D0FFFCFDC700D6FE4400AA00EE,
F8B30CD3025108C7F1FEFF6AF0F3006D,
FF0C007901D0065FF16DEDBDF9430595,
FD2CED100264FCE709FE054E058A0AFC,
0216FBE30228FDCF0096FAAAF3410085,
FB59FDA300FEF587FF57FA4DFACBF64C,
0959FD73EEFE007C0A28FEAA028E000B,
F880FF22FC71005CFDF60A1604FB024E,
000403150001FC17E849FC90F84401AE,
00F405EA00CF097A0783021DF7CA018E,
0C70FF01FA5AF5A6F30DF9EAFD090A3F,
;   output 34
F048FD01097000D0FFA301F5FB8BFD4C,
05F10C11FF8E06C7F568F4D8FF9302B0,
FA2CF58EFD91F712F70CFC680BACF981,
F5F006750343028CFC8BF2BF0BC40D08,
01E5FBE0FF8FFE25E5D4FC550617FA78,
EF7FFF9000150629021F04A603BFFA4C,
06CE0FE8016606B1FCB403DC00DB0002,
FBCA1A6CF38504F2076B0741FF510A93,
EC89F04E01F104D202650B33FE1401B1,
00A5FC1DF1ADF67BFD67FA1BFC1906BB,
F8C0F79501D7073EF5B8FEA4FD24F606,
0090F7E1011603A8EBCCE36DFC76008D,
07AB00F4002CEBEB04FA051801C6FB36,
F3FF08BD000702D00C5F0907029BFBA1,
FC59039B09D50399F4C403C0F80C0073,
F67604D207CB095E03D2FA7006680730,
F985FBF5FDCAF88BFEB104B1FD93FA24,
FC3EFA2403060116FD4BF6BA07600CAA,
FBAC0139FF1602CCFCED009B00B8F9E0,
017502EBFE76091A049E047E00C505F4,
01A3FF420837F1D4F456017EFE3DFCD4,
071A00790001FCC7062500DC0A3801E0,
0463FC92F309073FF4C702A1F8EE01E1,
F66F08F705E7F521FFA1FC9FF9C6F48B,
E767EC23033504ABF5DB04F4FC6EF02E,
00BD000BFC69FDBA008D048F0E1E03F1,
011BEEEA01B2070CF4710A94F2F7F9CD,
0089FEFDFBF505FDF4E60D6303DCF3A7,
FC64053A0354FB8808D7FEC9F94DF408,
FBF505ABFFFBFA9703F702890233F93D,
F44CFD04FC35F70AFB89FAF9F972F464,
EF9705CFFD88FDFB02DAFB28ED6C02DA,
;   output 35
FE25003804340390F980FF69FD6CFCF7,
FE31FD4E05C6FF59018FFAB5056809A0,
FC61FF720305F60801C3FF3D0AEA026D,
FB9E0161FE18040A019D0150FF48FFA8,
0444FDBD01D30219FC19033101B3FE67,
00D2054EFFFE00EB056CFF6C09120811,
FE7403230176FE96FAC4062804FB004B,
02C005FF0316060E0306023A0252088D,
F7B6FD29079C0DC408F502B0F7030A15,
FBE0FBB1072109B7032E01B4FFF70DF4,
044CFBA9FEB40A03FC4FFE4FFCF4FFE6,
008301CBFC11FD53FB9C01670C64FF9C,
F3D2FB04FE6CFFEF001605F8007202A5,
FCB5071EFFFA07A3F9D0FF7905E50775,
FBE007FF03CA024BFD98FFF005C70147,
FF12089E012C00CE04CD0150FF1A0380,
052400EB06E5F8D3013E082A001A054C,
FE72FF5AFA7002C7FCEF02CA1059FA37,
0742025AFA39079A07BE07FF01EB00D5,
FB9E01A7FE7CFFF5021500D9F59A01F4,
073BF8AB02940217FDA1FA82FC08F290,
067B095BFFFCFDFB0953078C0759036D,
0506F58CFF58FDD1FFECFAE8FD64FAFF,
0B750388FF7FF71A0039FFCE0541014A,
00ABF7A3E8AAF755EDCF035AE8C6F334,
EF180155EC38FA42EEC5F02BF7E801E9,
FF38F9DDF15EEDC6F8ADFF06FF44030F,
F0F6FD0AF36200B0EE8BE5600509F86F,
F5A8FC85F809FC260011DFD3E9E60260,
EF26E9D700000433F46AFD48F475E545,
FB8CDCD5FEE0F0CDFF64018B0430071F,
0B490448FB9CF552FAC1F899ED9EF929,
;   output 36
F8C4FED2F9FF063BF4FA01220B80FE18,
05F60390FFFDFC0F0481FABB04C2FF84,
087AFBBE0ECB0E4C0906FCEC000402A4,
02C10572E0DE03B8023AF8E104AFE973,
FDE4F73E0485FBA8028EEEEA0126E866,
FDA8FBDBFFE9FE500764F758F0C5FA24,
040FF9F0FF1E06F5046C03AEFCB5FDD1,
0CDFF49CFC36F474FBA0FE620FF1FEE5,
FD6D0588EBB50165FAF307F1FBF5FEB4,
08B1FE4003FAFC07026E05F6F8C4FCD3,
FB1503FE0C1AF79DFBDC0444052200E4,
0CDD04D8F867FBFFF845FD57091BF6E2,
F816FA1205A8FEE1FC33FEFA0602FAD2,
FF4409370009FB170C58E4BE0A24EB47,
F918033CFA9A0761FFAA0016026E068D,
03BAECF8002FFA2BFAA2F87506C003BE,
FE8EFA8F00BBFBC800AFF85FFF76F22E,
FBEE07DBFF1CF7FCF05E01F000DD0081,
019B0546001CFC4F01000F45FD11FD00,
02DA0902F68608A707E5F31E036CFD89,
ED28080CF2C2FDC1FD43F9D0FD50F9AF,
ED3AFD70FFFA065A084DE48DFE7FF780,
08DA0749034EFCD9FCC90A99FE13F617,
032F02050332FEF0FDBEF47E0C56E8FB,
05A401CF001A020B04EDF4EE05B8FFA7,
0617044702D8FD0BFF50FE900C810429,
009F030E05EE11C60E6BFCC200BB080C,
FFB00B7BF9F7016703D906B0FE35FD92,
01BD054CFDA1019F017AFF5E0058F6EB,
FC3FFC250005F8651521F4D40563F743,
00F504F3FE92F8BFFB31FB9000240035,
045FFF7CFE98FE520286FCA50ABA068C,
;   output 37
FCF308E606B8093A06A80209F46BFAF3,
FE92FE940263FCE2FFFFFE8D00E6052E,
0BDAF8F4F57AF6BE003AFDDDFB8DFD71,
FDB10232FB1709BF016BF5E0F8DE0195,
01E506E6F34B05BEF93AFD68FC85FD7F,
FFAFF78C000DFBB7024C0042F452F5D5,
FFF2FDF7095FFC69FAC004BBFB64087B,
FD07FC7E02E0067008DBF754FD4A03AB,
085203F0FE13FC5100C0FF2901AA0473,
037203F304260341007AF9BE061814B2,
0B2F0E92F6050D53020DF02F01DA0185,
047D06320275F66AF5650265FDC70132,
03640A37F18C01F5023DF855F9B6FFF2,
0356FE58000202490B6F0154F8F709CE,
00F2FEAF0871F2BD0B4000D30692025A,
06A8014710490132FBADFF750556FF61,
F1ED037F01AFF444E2FB0693FEB40BFF,
F04D018EFEA80E0B01B1095EF83C04E8,
F0040ADC035003D4F4EB0DF8EC96EEE5,
FD95FF89FBEEF724FD6DFFD00386F1A2,
FA65F79F030FF7F604FEED2D0C7E02E3,
FA54142F003CF714FAE8FF10FD19FC83,
EF2B0737FAAFE270F6FF0994FC5BFEF7,
EFA1FAAA0271F9DC0397FB59008DFC09,
F89500050082F1BFFC09057E0257065A,
060DFD430174034900930C9E0437FEDA,
03590ABF005F0389F7C5FEB4FDEEFC9F,
067303A607CAFB3503130F470744FADF,
0C7907750550FB380862042D0182023A,
09740185005603FF0ABC065001F30BD2,
04EC01D40236F8350144EBE103A302EF,
FAEEFCCD0A2205600C74019019B0F358,
;   output 38
0DB700C7FF210A8DEF3A0818FEAF0921,
05AEF626F009FE9208B4F5AB039603C1,
011FFE5BFBC8FEFAF3B706A7F8B6FEF3,
0CA2F70BFC60FF4FFFB204BDF6C0F89A,
07A3F81B07E1F6000298FD06FCFDF982,
FA500581FFFF001602F403F307CDF6FD,
EB3AF43303DFFC16F593FF57FDA805D9,
EB08EC1301D1005F01460A6304C4055F,
03D9EA50099A016206AFFB25025A0243,
0E6BFF10F1FCED32F158F6E0FDE2F5E6,
EE9CFBD20B5F0C04F7F5FDD1005FF889,
04E2F76802A20BCBFEE3FB25060500B5,
020AF57E01650258FFA103A30E77FEE8,
F0B1FCA4FFFBFC38F221F796FEA401E6,
F40C06B4FFD60AB7041B00AEDF48EE9F,
F9CEF88CFE48FAA00DD9F8E5FACE0CA8,
FC05FC4B04AF024701AEFD8C000B0737,
08FFFD4302A410AD01B800ABFCA70511,
FB08008EFEF6FF3CFDA1F3AA0A3BF862,
FDF704950789FE7B01FCFCB0FF54F0FA,
03A2FDEEEFFE02CDF838FF12028B0084,
0916041FFFEAF8DAFC40055BFA4C0385,
000B0054FCB302E10A99FD43F5BDFDF6,
042BF6FBF51FFF6EFF0FF94803C00150,
076E00E7017C018000DE048A05F8FE67,
05E1F91B057EFE6804580715FCA3FF42,
033305FFF463FD40089F01A104B4EBCF,
0239FF970712FE8707EC0791FF0F01B2,
011DFE01EBE60598004AFCBC0CD2046E,
FD17FBA2FFE3FC6D080C014C0FDBFCD7,
12FA10BAF6D2057A00DAFFD105B1FFDD,
FCAEFFCDE7770730FFC8FCDA0054FED9,
;   output 39
F8F0F274FFAC015B0EC9021D06A9FC5E,
0BAD0A2F04560267FB57038C00D201DE,
0295FDC7053C07FA004BFE671513F96E,
08EAF730029EF20E012EF9540816FCBE,
F8B50D340A880282F5F3FFA1F4F1FA32,
F81A06100000091B01290AE30AE5FE71,
062406A306C50446FDB6FCFEFDA0FA3C,
F3870260FE8801020E1D057D0771FE7A,
FD76F5D1F137F2E2FB95044402BBFBB4,
05710863FEBDF9D701F4070806620984,
08E9020F091B014C053F032D07F8FB60,
073E017001C10166F64CF11A0269F78B,
E0CE0786F7D2F3B3F3BF05FBFC3602E6,
04F6FD6FFFFF04ACEDDCF78005A0E5F1,
080DF7E303FC02C8026405AEFE42EA13,
FC6A0694076606600AE2F13B04D4FD21,
0522F2D0F52CFF5102F3F95302C2FEAA,
FC4D01C8EF63F4ADF997F9F20354F2D2,
0205FEC50597FC4D056F081DFF150227,
05470C9BFBD909EEFB200023019B03C0,
0049064101D1FF44F7C8F16AF5C9059B,
FADFFA6AFFCF00A6F95E00F6FD42F8F0,
0570098703BE003903EFFACDFCB1FF84,
017C02BF0520F91FF5DEFD9504E1FCBA,
FDF3FFF3016AFB0604B700620850F55C,
0C7C02DC063EF2CB04A403C9FAAEF24D,
FEC101BDFBA5090E0058090F033810A7,
0C6B05B20ACAFCBB02D21638FD230E16,
001A043BF886FBB7F9A80C810BEC0761,
E9BB0FF5FFBBFEC8025902840A1005F2,
F5D00D15018A094303C6038AF6FEFD71,
F701F82307DD079B05DEF16AFE2E0539,
;   output 40
044EFB7FF8EF0771F189EFFAF475007A,
F0DCF9D8095C07CAF954EE1AFDA9F982,
008EFEEC03F4F91D05DBFB14025A031F,
04B1FFCFF8B201E8FB90F4C90910FE90,
F066FC69021C00B80463F12A0685F889,
F3CC08D3FFFFFD2EF6D5F7E4055CF7DC,
006101A6E9B40967F9DC04CDFFEF010B,
0453F0D7FCDE0417FBF2FD800302FDB1,
08380621FDA5055DFC59FD38078A03DB,
FE16F7EB08BB00C20BF8F78A0A8CF7DA,
FB0808D9091F02C905B6F99F01800420,
FEA0060DFF89030CF918078D0FB70BEB,
FF48F227FBDA00F5FB0BFC09049A027D,
002807020012F91507A508BB0E5F1013,
05F9021AF2A105F0FD9700B8020E0505,
06E3041DFA3F03E0FD5FFE1502F40370,
F9D8FA53F5E204EE05FF0DE1032E018E,
EDD6FD12EA3AEEA4FFD3F98901961030,
0A2301C5FCFDFD6C08FBFE950C3206C2,
EE4908A3F8B309A604F3F9BFFFE80675,
FD38FEE9FFD5FEAB014AEC18F106F164,
00DE07A60011F6C5F5F9FD29FB57FCAD,
FAA2F43C039B059805A103E0FDA1F95D,
05F0054F0866F4D9F3E700CF0BB102F8,
0487074D02940C75F51DFB0800AEF275,
F21F09B802FDFDFA0BA609FA011B04E1,
FFA8027DEE36112DFA2801B0F1A3FAB5,
FE6AFF4EFF880959FE1102911104FB32,
018FFF33FB21FE5C026CFA13F2E6E5D9,
060005340001EFCD0A1CFBE8025FFE9D,
00DEFA7101D6F878042A06B700EFFE7D,
054504B0FCB2F17501FD09140A220127,
;   output 41
F2B2F5DC04E3F9810BAD011503B604AA,
05C7FC4300DC05C0063902B0FCA4FE5F,
106AFA4EFDCAFFD7F7B700EA09CDF27F,
01FAF3C5FDE9F873FD0304E7064C0376,
FBEEFEF2F2A4F8EC00E105C0070B0598,
FFF3020AFFFAFEBC0870F308FE05028F,
F8D6025103C4051200D807BEF53E013F,
F582FE18F417025C025102DAFB78018B,
FB8602FCFC90FF1106A3FABC02FAF670,
056C0112042D01F6072D0AE8FE030929,
086D01FAFF0FFF9CFC0C00F103740175,
FBF801BB01D1F146023507D00471014D,
001CF8AEFEDA0311057E039908AA0720,
FD9F0531000902D20272FFF703F8F7A8,
07D9010CFF48074DFD88FEE60986FE18,
03120542FD4206F4045101E20171FD88,
ECC6EB1E0538FAC8F308F7FFF6F6FB58,
0A9803BCFB7BF72EF6AE0230051FF51F,
04E003A203020216FC83F5E5FE1BEF23,
F0B5F7B2EB91FAAEFAE7F45F06CDFE01,
FC9B02BEE2C60180098507D5F84BF71B,
072BF86BFFF4FEF6FA05FCD5EB19F8B1,
F648038900A8FB01F3DE02EDE0A0EFFD,
029202BBFE9000810446F7FD02D3FED2,
FC84FD8BFF3000D8FFA7E943F77A0647,
FEBC064EF105FA99E227018F0FCEF7FD,
0749F79501390067091EFFE6F2C909A6,
FB2FFAF3F365FEE804A8FD280A77FD96,
061706E7F5E2034DF7970090FD42F4BD,
F5D2F624FFF4FD7DFFC7E642ED0DFC22,
FB4E000106C10212F98C0401F8FE001E,
F563046F0864F4F6FE6AF43809D8FEC0,
;   output 42
03B00518026F00C8FF2706060705FDD3,
01860081004202290806043301ED032A,
03EBFEE700060252011E0557FA6C02C7,
FF20FDBD080CF533FD16FC92FDA1F99C,
0305FF35FE92052003290075029BFD73,
07A807DBFFFF06E4016F078102A6011D,
024E0112013B07CF00B0011CFC19FFA9,
FB33FFC902370089004B00A6011FFED2,
02E4ED72FF80F806070D056FFF67FA68,
02A505EEFA08FAEE04D30480047105F2,
02F7F825088E02FD0572FC0E02AD0685,
0415017205410196FA2E054902C3062C,
FD15F9A2FD6A0524FE43028B0134FE9D,
0405F3040003FC7800900050041700E6,
02E5007C016F070205CF0346FAE907C1,
012408D1FE16FC2B075FFEDE0436FBEF,
06D304E0FDE102AFFF69053203FB02BA,
F74AF428F467F7ADFCCCF78105CA0B7B,
FD2C02530098FFFFFEE5F9F604AC0439,
F5A4093D04BBFF9D048BF659008AF92A,
035603070480F401FBFEFF7AF427FB2C,
07A0F61400000A2105DAFFEFFD01FA26,
F8A9F24A01260879041AFFD8035409F8,
090BF1FE005CFF4DF5A103C405100761,
EFFBE051F335FCD9FE3401B9FB64FA48,
F743FC9EE883F2DDFA61F8F0010200AB,
FC46F18CEAAC0250ED8CE597F25BF6F2,
F86BFF40E98B09B3F412E7050DF8F5EF,
FF1A0104FD3BF276F9AA0237EEE1ECCF,
0120F120FFFFFD53DEC9FE7CF81EF587,
E6A3F15A056AFE02FF570500EF1BECB4,
03E405AFFB08F00C0B2AF9CA082303A9,
;   output 43
F95F01B5FF15F28EFF980A890B87FD99,
FDB202D3FC98008BFAFC07CF01D8010F,
F9AEF2E4020BFF08FE5B022AF6C7F937,
06D7FF8FFF27016EFED00E5002C205DA,
FAE9FAF1FCE6F4BAFA77F21B000B0635,
FA30FBE7001EF6AF00FAFB9FF9670168,
FC4F069AFB5306DFF949FFECFC170664,
0746F6CD0309F2F2F9BFF9AFF78EFF57,
03ACFD2DFCA400F808E6086120C705FF,
EB87FDB4F115FB4F0804F732FD3F0F04,
FDE2FAD4F61DED0EFB330C7101390663,
0BEEFFB2FFD403EAFE7CFF300122056B,
1324F503076FECDEFC180281FFEEFFF7,
FDD201B7FFE7F4A90523062B0626EB84,
FF58FD9BF8CD0177FCC8FCD4045B0856,
FB390365FB60F936F45B0422EF3600F3,
F7C3EEFB069BFAF9FA94F44307D8F761,
FC39038FF4F605D4EBB009FB05E3F42E,
0226FB090826FF02FFD701F3F74CFD66,
F86FFF61E7E8F9D50157FD3003D2036B,
FC46FB10F9FB0E2A0257F830FB0CFBB8,
034CF99E0019F220FDB3EF10FB29F94F,
FA11085D0D82F6120EFD0041EC2CFFA1,
0D55FF860385058501D6064817BA0826,
F653F455067EF8C5FACD0159F9D7F39C,
011EF903FEF50280F5EC0696050A011D,
FE8B00CAF8B9FCA801D805CCFCEF0798,
05F0F7370F12053E0088F2A2FD4E00C7,
00B4F8A0FF56086C00160261087BF9EB,
FF8509FCFFEA07A0F533FA0D06CC0265,
FD110184F89301DC00A9F20DFABAFB27,
F5850636FEB8017A02DE0BB70AE9FBF0,
;   output 44
FE17050D0144FAE8F790E667FDDF0089,
FCC5FDF9F7E60B51FA100661FC3CF29B,
F2D5EFAD0099FD1602C1FF57F1F9FDE8,
E772FBD8FB80FECEFA3B0239010E036D,
01E8FF2FEAF3F221E768F3E1FD0B0293,
0380FA24FFFEFE2E0050F3E6F00D0456,
F9F5FA69F2F50A2AF8AFF656F957026E,
FB08FE92EEFEF2F3F2CDFD78FD10FF62,
00DC10CFFA01056EF9440A32FB62FC3A,
F153FCF7ECF0FD330603FA7C02E3F763,
FBE2EE8DFDB0F9C60AD6FECAFA9E0FDF,
FB830903062AFD2AFE65FC8A05B902CC,
0231FD7D02C8FB23FEB0ED92F5950741,
FCAC01C90000034E07550E0D0066F993,
05CDFDF4FB34057DFBA7EB1100E1078D,
F165E9630032EFC8F4150850FCDDFE35,
FFFAF9D807AB005C0302F2D2FFD4081B,
FE7406E3FDE00BD0E4F3012907F6FC4B,
05BEFDAD0A86000709C70BB5EE86FE81,
FDAB0144F3900604F565F8F1FEB106A1,
F4F50012041BFCF5033FFA0BF933F7F3,
FE94FE9800050196004CECA5FE1DFB88,
0004F80909B6FDCE03C2031BF80B0224,
03B00659070903ED05A604C20D6308D4,
F7C1FFA2FEF703D6040004640524F6C7,
FB92078FFB05FFA8FF6500FDFCE5FD6E,
00CB04FFFEC1FE0306C109100151FFDF,
0E7E04EF0244007F018FFDBBFA5C086D,
05FB06860BD103EC0B4E048FFE67FC56,
03770808FFF801630214FD430558F9A2,
FC0000B50646069FFB8FFC4B03E5F7AB,
FFBF01640970FD36036501CC08B5FF3E,
;   output 45
069BF753FD14FFF4043BF8410414061D,
F294F527ED85FCE3F175EFF20A05F91A,
0254F859072901F8F82F09B10E3B06D4,
F645FF7CF935FDFCF0A1020B09D6FB9B,
F80A001C0578F85CF8D3F62EF291F6D3,
FE16EF68FFF7FB2DF681F0C0F51EF850,
FE47F9BBF0680EB6F70F028E00D7025C,
F7A2FD00FACD015BFB07039AFC11FFF4,
007CF475FF10FE6E02220313FF7A0A92,
E7DEE9BDEF42F6190280F71603260AD4,
00B0F0621130F92FF613014D03350945,
F15D05B1F4B7FF9C04FC01DEF8C9F37F,
0168085B0860E77BF4940079FC92F77B,
FB710B82FFFA0623FFC7E56BF596F7F3,
F9EAF541F3D2070AFCE3F75B002209AC,
FDB5037CFA33F859F00206DD02A1FD3D,
0178F742FC98F96FFFE50E9B05BFFA1D,
00F407A6FE59FB1C0270F9D207DC0977,
FB9DFD9E01D00342FB3309C4FF0E074A,
00970126FE2FF59D071802770318FAF2,
04E7FADBFE5DFEA80A9F0904F892FEC7,
F441F3D6000CFC87FC28F25C053DFD43,
069501660537FEB9F8C5FCCCFBBCFBC1,
FFF200490545031F04E9FDB9F9D8FC5F,
08CEF3700E30F3A1061DFBE402EB0F7C,
02DEF7550438F6B7007AFA500937FF9B,
F557FCA90180FB80FDDDF699FFE0FE40,
FCA111A1FE9C00A8FF5EFE41083907E7,
FD98FBA80A410587FE23FFEF05A3FBB6,
03FA006DFFFD092D030DF0FEF597FEBB,
0562FFAEF1AEFD6A02ECF28D01ADFCB5,
0407FF5101BC010DFA73FB1607C4028A,
;   output 46
FCB709EFFF22F9F5F6330497FD660651,
FEB1F081018CFEE507150462ECC4FC0D,
FAB0045DFCFDFA01F667F7A9F81BDC54,
02C7EB5E0B79F05D060700D607350274,
EF9BFEFEED67EE80FB58FAB70B1B0EEA,
0C0007D0000303DFFE2609FE07390C60,
FDBB02FBFDC50273FD69FBB30034F4A9,
0700FA7203A6FB9F0409FC8EFF070363,
FBC90581FE88F246FBB703D6FF19F883,
06BE0485048E089907B204C502BCF5D2,
FC78FA9B023BFD57065A01EDEB39FF89,
FCF20444078600160136F63A04F1FD98,
F7FFF9FDEEC8F448F5ED03BDFF3B0657,
FA3DFBBA001303D716240A22F662FB1D,
06220916026402E7E086FDB8FBB805A2,
09DBFE9F04F0FA370BABF8D3F5CF06F6,
00C302BDFEF3FBC30085F4B7F12EF355,
00DCF60BFB23FB18FC33FEF3EF300A19,
FBAA0B81F99BFB8FF010F7BFF98DF5B6,
F892FF90FA97FB07FBBDF5E7019CFB5F,
EABDFE52F411FF58F4A20187FDC30528,
0774015000120406FC380160F6E30123,
FF72079EFF58F93409DE0027010E0137,
F90EFE75FF08013EFF68FC11F5A9F53E,
022009D5053FFC9CFF3CFEF9FF7B0E4A,
0985FE230915FB89FBB60343FAC5F972,
F099F844FEA3045B0A450079F5DDF1E9,
0101FE0A0ABEFFEC02450D8109EBFD21,
FD4AFC3FF9E4FB78FA61081000EAFA34,
F796F651FFF910AE061B010B01A8040B,
FFDEFF100000021F00770280FFCA03DF,
F47500A5FDD4FE10036300BDFFCFFD8A,
;   output 47
0391FF840121FB630787086301370126,
F146FF8A072F022C07EFFB5FF7F7063D,
FF9101DCFDDFFF980797F59404A10080,
0F6D018D026EFDDF026703AA020A05A9,
01A2026E01A806A0045A076007DA08EA,
0281FC270004FB95F96105230858FB86,
009D027AF6F8FC2B004E038206D8FA4E,
F9C3FBE8F18AF847F832FFA603E104A7,
0BFBF6E2FCBF077D0453FFF008600966,
F7AFF3C501F7F8E7FF0CEFFBF0CEF782,
FF7600440513F725FA3BF187F9700094,
00B401EC057DFB42FE0F100605FE01DB,
F67B07E300830117F93DEEC9088B02E5,
031701B00005EC8AF4E607B404D3003A,
05C70AD6F15DFF07FBE207C402820598,
F9F0FB2EF6CE0C11F3AFFBE4FB550076,
054DFC6BED72F83804A7FF21FF680279,
E696FF91FE7CF037FC63F982F290FCA5,
F0D7FA08EE0302E00187EFCC03A301F9,
0626009B06B7048C01AEFF8FFC0E0549,
FF57FA45082EFDCE04570C35F08FF4B3,
FCE0043D0008FD0202DA02470E220A51,
00F6FF64F32300A503AB06EC05A3FA10,
0AD40975EB47EDF9FCEF0354FB99FCF4,
097CFD4801D8F9E9FE6FFE520BDD0B8A,
E531FE84FB99F39A0642F2E80914F9A0,
F043086AF93009E60270FF1EF9DFFF30,
0F2C00E30331FCF108570AE908F404F2,
0029F3E003F5024DFFAB006BF9DA0972,
FBDB06FD000AF761FF82FEE90DBE0358,
04EDF5E8E7D504340977019DFE7B0E26,
0C6906D1F9C5F071F79FF8FBFAB2063F,
;   output 48
10440187FC0EFD050329FBE1FED909E4,
0048050100C5F771F987F871FCA5FB12,
F67001D00219F046FF87F7CA078A0242,
012E07CAFE720449064000EB01AA0A05,
FEBEFA730AF305BDF144121900FA01C7,
F6EEFDBBFF9AFB78FFAFFEA5F949F393,
042708D4FE11043B063100C7040C0034,
FE7FF552FE70F796FA7EEE2FFE54F7DB,
F91B0072EFAFFE0007F704150151029B,
FAFDFE4D0A6500A107B3F537068FFE54,
F9DA03480281FCF8E0FB0994FFD302AE,
F556F8480A360493F8951253F9CFEEB6,
09221129063FF297EB4A0971FE1C04FC,
F09707EC000109F101C9FE9609A3EAB0,
F6DBFBDBFEA80103F742F7B701C407DA,
F18A0AC300420E43F6D6FEA4FDDDF4B6,
013A0141039C06B20588033CFBC9FE49,
0A9D09F4FA75F9800A45FE3F01790379,
FC1006A205A0F72102AE0AF0041905D8,
FC7F055CFCD0FFC303B800C1FB890A92,
03F8ECC5FDFD0CFE0129F5FF044100C9,
02EC05B60046FC6C05AC060AFE6906E0,
F6750902F69C053B07A4001E0483FF27,
066405D0FCBF007E034F0D800740F8B4,
FBC904D2FB56FF7AF62F039DE9FD02E1,
084901B7FCC501E80509069FFBED044F,
FE6904D9F22407C4F322FF80FB3AE9C6,
0310FA95F26E0560F9D005FD0376F430,
0AFEF67B0A08F59CF912FCCA06E8FC70,
045FFF66005A0751076EFEA1F31D0380,
E343FD0FFD50F83EFE51011EFC4BFBE4,
0494FB0D00F7008A05E108300AFDF825,
;   output 49
FCD80B04FFBBFD34FA28024EFA8EFC9F,
0003ED100291F73E093E0665F85AF66D,
E68B016E012BF6F7FFD8F737FEC9F0DB,
0807F6F4058306DB03AAF085078A04D2,
F2E80289F929040A0242FB1A03F40117,
05FD040F0022FADFF81B03CDFBEC008A,
FBA80C5FFF4F090CF86CEC3C0519E552,
0956FF5DF64BFB8701C10142033D04E3,
FE9304A20262FBC9F742F2BE062E04F1,
09EDF191FBA5FB8FFA6BFD65FC85FB6E,
009C084D06DF0291F4B0014AF76E0755,
FDB1FACDF2FF0415EC5CE95E0419F725,
0B34FF4302AFF6C8FE81FE7CFB26F9E1,
0062FB07000DFF17FCE8F0DBF528F3C8,
FECA0341038C0769E740EFB9FAA70000,
0128F79FF59600AE0030FBC409EE0750,
0139074805A7FA8D04A702D5FE2C0277,
02180044FD5F020900000558EA270F23,
FDF1036203D0F98EF46AFD700213E651,
034104010275034AFCDAEC52041A0314,
FDD5FF34079AFE23F795FA14023FFED2,
0042040AFFD20A5400A10545FB810425,
04EE063CFC2D01880A3903AB08C7EDB9,
0009024FF83D024FF30B1000013D04E8,
0703FE92FA18FEF40313FA91F89708AC,
FD5AF9F2FC78F8ADF540018CF23205BB,
F12008F20810F892F454F9B2FCE700AD,
F3A3077CFA2B0622F68FFE8205A9FE6F,
104000320375FCB2F6BBFF6602D0FAD8,
011E01A6FFD5FF8AF2F3FD85F759030C,
F0F5044BFD890479FEDA0268FC11F255,
0DB004C1F3B2F544FB9102A505FFFB8A,
;   output 50
F9CE0505FD380E810D550155FB720586,
FF34FF220192F28F0465F9ECF6790394,
F9D9F88BFCA4F3810089FD81FD3FF9E3,
FB7003E0030803C80695FAD3FD3EFCB8,
FD6E0BE3051D004BFA54F553038DFA43,
F0B30542FFFF046B08DE0B96030BE861,
FF8AF84FFF7AFDA4F79B0E4F0B240412,
FE4B043601BCFD24040E056701FEFDD2,
F6FF0797F8FCFF12F626062802EDFCDD,
07C7FDF70B3CF7BD1209FFC8E723F6B1,
DD17FDB50460FC0900E2E3BAE45FF911,
F7CFFE0F05BFFA03077AF663FF12FF0D,
08970BFDF6C1FC97FE66FAB701B7F6DE,
E1D6FE9200120399072C0F49F7CFFCC5,
F40501A2FFCBFBB5E831FCEA007D0492,
F8BF01E5F014F110FC2BFB72FAD3FE8F,
01DDFFA0024D02CFFDEA06FC058D00D8,
FFC601D102CFF55309BAFB86FB520338,
F334FB60F93C0687FDBFF3C0FE820910,
03A305F004EFF706FD5E063DF57302EB,
FE9AFA730422014F08EF010B013BFCB8,
F654035D0000FFBE03A20AC70669FBDA,
F89201B8086DFD4F038903DB05A10475,
0561FFF2F708FB3302E305F901D00738,
FD420472FEB90675078B0898F72A0FBC,
FECD04740393FFD31004FF4A0781FB4C,
F8AA00AB040FFC9AFC96089EFEECFB57,
09DC035E0C50F637FF99041FF851081E,
040CFE25FFB40395085B07B20643063B,
FEA00998000E0D4314770D300355FFB7,
019E0040007DFE41FCE8FF78024C028A,
FF4AF8FAEFFD02FB019DFFE9FF710427,
;   output 51
FCA90282E84DFDACF2990A61FE770443,
FD5E05F7E378096202FC0559042FF5B3,
F875FAD7FE85F234073801C604ED07E4,
058B0141F653F6FEFE9CFC6BF23A03A0,
F9D300030CB8F5A5FDFA0916FD31FB17,
009E0652006DF596003A07E1F5E70662,
F658FB82FD71FD2BFA8EF4DAFCCA0977,
FE94F4C20EE8DC4AFC14F7A00256F716,
F90801D0FF3FF3B6F8F5FF66FE63FB31,
06880143FB01F629F718FFDD0BA200C3,
FD5306DA0303009D006E06DAF93B06C9,
01E5FE01019A0AE1FA88EE06FD6D02A1,
080AF7FA09C7FCF4012B0B24FE53F9E9,
FDE8FE91003D018A04A0FB2702FFFFC8,
F3A1FEB806A1FD82F14DF602FBF1FC78,
002100070DB2FA7A05030AEE0682FFDC,
FDF108C0F54C027605C3FF19FFB4E975,
F43C043EF6EF0293FC6E06AF120002BD,
F4B7077EF5DBFDED080BFBB603EFF694,
08BEF9F5FF7B0E59FBB9FE21FC740190,
FFCB08DAF5A0FF80FBF5FCEAF3CFFB68,
F947E2C50072FDBFFAC5F586F3540353,
0362071108B20570FE91F5FAFE9CFD28,
01CB045D092EF2540054FA79051FFBC9,
FCB00930014BFB3FFD57FB60FAE2EC4C,
054B06BE057D0160FCD70535FDE2F7B3,
FBA5FF13F95805550569F2AD0800FF84,
03D5019502E0F487F544058B038AF8E9,
F8BE0CD0F31709EE052900EB08BF08C0,
004C0AB2FFBA0794F9AE0C06FB8F0266,
0678FF8B0F2C004405E3FD38F710FEE5,
0473F7C30A83FD3AFBEDFD0B08C009AD,
;   output 52
00F60D41FF77FFD308E50195045B02D8,
FDF50BE5FBE9044CFD99055402EE071B,
F818FD7CFDAD018B00E1037F024BFE67,
FD38FA8906F705F2FB0405B50170FB47,
0231FFC4F8DAFF70FB6C097DFE6005D6,
FC80FC170002FA79FBF0007CFD8B09D7,
FE3BF98FFF09067A081B00AA05C108DC,
FE6201DAFA81FD7F02FAF2C6F3F40366,
ECFDEE08FFF703C8FFD408F40208FC65,
00F803A60612FD1A0341FA54FB960B4E,
01A300F1083DFEF3032AF9C00109FE35,
F175FF34058607F4F77E08A0053100CF,
F49901B30306FF36FDCE0644F48E0343,
033FF963FFFBF8CD0980FF9BFAB7FFE0,
02ACFC6005DB071D03B0091709C8F9BE,
08AC0306F96001A900A3FA4704990625,
FF580174FD13010B02C416130755FA80,
077D040D03DEFE4DFB4C048501E9011C,
F510E825070A0126F125FE9DF1DD069F,
0563F8A0055500A6055D08B4FED5FC11,
FA62FE0307A7FB62FC540077FB590D83,
E5ECFC670012F6390056FDB40864FFFB,
F718FF13FC1A0256FAF9FE9105480F13,
EF35FE51FFD700F20796F918FE7CECCD,
EF80EB700562F8DA053A0511FF780E32,
11F1046003AEEC4D03CDF5920595F6E9,
EF91FD240BD2043FE97DFBCAF4F0F95D,
0483F4C1F80CFAB209D7072B0897F98B,
F98BFFB602D1F8D30A0A0B1704E0FACB,
E7D90D74000BF9F6F670F978011FFDBB,
EFDE080FFDE603DDF1B704B6EEA3F8E8,
E7EEFFDCF9430D4B0AA8EC0AFCFEFC95,
;   output 53
F445090F027DFD77169301CC0CD90580,
06DB01090A740294FCA507ED00FB0DB0,
062703FCFCD800C0F888FF3BFB4AFC20,
02B6051E023F06E30E400A4706F609DF,
0483FB86FFAFFE17061B07BFF8A50B33,
F66F0591FFFBF946038703EC06F90834,
05BCF97BFC6C00990FC40E31040202F9,
FBDA153E02BD0A88009F0315FF4007E7,
F808FDF505A5F0C9073E029E00D7FD90,
0AA00C6AFB58F895FAD2FC53F954F705,
FFD8FC72FD6A0574F76A00F6FB00FF0B,
0A56FBC6059AF4D80B13F6F0024BFD7A,
F93DF52DFBE9FF07022E0930FAD203E6,
FF7B05A20004FA39FF3EFCF2FC7FF54B,
F3ADF52C020F0054F997042F0321F5E2,
F92EF2CD0425FA93FCB7FDE3F946FF16,
0647F936FADAFB7DFD0DF66803FCF94D,
F178024CFD59FECDF71DFCC51858FEBD,
0BF7FDF9036DFD640CDC0371FC900258,
000BFB0001BE0306FA4909DAFAE2FD44,
09FCFF77FBE706A30D90F462FC0BF486,
0506F016001FFE41F96CF6AC04F00185,
0374EF63F89BFFA0FF3DFB60F95FF802,
0D430378FEE0FF81F8480218F73D08EE,
FF62061F0935EC440775F04C084F00A1,
F6DD025D0AB8EFBFFD21FDD7FE0AF32B,
F8550730FC46FA7C04C8F953EB310E05,
09870C1FFE70FFC10730FCAD021604CD,
FAA6FE7EFE9EFDDB098E0A83007FF573,
F8800BA000270364FE3BE52B06AC07AD,
F7A809EE05E40553FA6C0195E44E0041,
11AEFE5E0514FF03FE43F70206B4118C,
;   output 54
F0D9007308F9FE78F59F03F7F4FDFF9F,
FD4C004A0507F8F5067C0049FAF306DA,
0430F27CF7C6FB72FA7DEFFCFB2AFD55,
F39D003F079E0073F84CF82406800450,
F968FDC8F68D03EDFF7500A402430853,
FD60FD8EFFF40164FACB0536F7DD060E,
001A09D2F734FE9A023CF14A08C6006E,
F92BFB82FAA503B1FD08FF96ED3AF5EA,
F607FA57FC31FDADE4260650E575EED6,
01C4FE6503D200F2000501F209C703CD,
00DBE643F6E9FB31F5BDE7C007A2FEC9,
0035F42CFF4CEAB1FCC4F3480A32FA09,
0253FF0EFD6FF193FB07E9A1FB340885,
F892FBB7FFFF036AF517FE07053A0343,
0382043FF7E2089FFB35EB19021CFA74,
ED9BED66FEC4F543F5CAFC08F730EC0D,
FE8B01D607200881FFC3020A074305E4,
063205BF04280093FB6C00E306AD00DF,
090AFD380BFDFCDD01C50489F872FF11,
FE64FC5BFF3DF69600E7FE7D06E8ED6E,
F2BEF9B2071F08B9021A04D9FF9A0196,
0380F76AFFDDFEF2083A091E01E1EF8C,
F98EF17AFDC20B23FF1C092703240758,
F791F5C0FB71FEAA025BF6D2067FFEC3,
00260461FFF4FA3F05C608F008470644,
FF310B13F070043B00D206170A580701,
0676F3510783FB66052C01D80729044A,
EFAA0464F9C502F80680F7BC05D0FEEC,
08ABF9BFFE00FEBEFF87FD9400EE04C2,
FF72FDB9FFE70098047F0731FD45FF73,
0710FEC0FDFAFD08017301B0001107AF,
05A60758EE1BFBFFF94B02550121FF7F,
;   output 55
012EF65200B0074FEF20FD03F9040376,
FDE9045500E808FA0022F95DFEA80017,
0034F64202F6041C07CDFB4708E3000F,
FFEE05FAF8F7F6B407A5FA41FCD6FE5B,
F840FB6605F4FFFB0804FEA4FEA6024D,
0019020F0025F7C5FF33FB57086CF93B,
05A4FEB0FD21FE5B0D17F472FEE6FB99,
FB1CEEA9FD5DF237070101A3FF5CF6FA,
FC33FCFE02DEF1DBE45E0B0EF065FAD2,
FABEF7BB05DB029400900292FB05F81D,
FEA2EF42F9E3FE71FDA8FA5506FCEF81,
10A2EE6EFDE2FC18F339E1640A910278,
05D002DDFAA6F8C802CAFA53041407DD,
EDDFFAF3FFEC027B0406FFC70F1E00C5,
FF8A06FBF56208E2FDA4E542027DF1AA,
F950F263FB2CF412FFEE0A7FFA20FC95,
FB51F8630494FDBFFBE201F00899FEBF,
FEF60837036C0AFCF6BCFFC6030C11A6,
FE4BFA1D092907BDF9540A4E02F3FFE5,
FC8FF0AAFB0E052901BE06510154F7DD,
0036084703A7F8E60055FCD0FEC9FD93,
FED0FB9C0003F6F8EF11F83A09D30014,
0976F87008E4011E0100FD49F945F1CF,
F32FFD9F05F4021D07CBF9B5FBB808AE,
ED1C002F0303F64C058CEDD9FBA90867,
FA9503830A46FD49F66B0B26001CF2A2,
FC4DFEA2003F083CFF78FF4401150561,
0269F86F094103C3F3DB0888FB34FD81,
04EC0B39E767038004D103EA03C6FBD3,
F7D5091AFFEAFBFB029AEC4500D904D2,
065704B80210FE65FA8AFAD6F984F4FD,
F9BBFE25FD92059502A8F8B407DDFE80,
;   output 56
02D7FB71F9B8FBF90DE10810071CF7DF,
FDDA07B9000AFA09F2ADFEB60735F9EB,
013EF26704D2F8D906DB078C03EC007D,
ED360381EB2CFEB4031204E015BF11E5,
F4910307E8320180FD05F019F119F1DF,
01F3E7AD0044F8BB0FEEFE37F9CFFF22,
0BBA01D5FDA807DD12EB0653F15EFA85,
01A0171508E3F74E08A6F8A1FCE60E37,
FB09FDDD002605A8FE0503550019FDD1,
EDF4FF93FB2E0049051D02610E370493,
F9C50425FB99F8EB02650CE7FBB30CA2,
FD61FC3F0B4EFD0703A30522FA0105B4,
F9F5E89001C004EFF96BFE9D06F40147,
04C0FA2A00D1F807FD2EF9AC0B6A054A,
0190FE25057BFD720442FB9FFB170153,
FD48F03C030D03B5FD16F273019A0904,
F707F0B40245FEA202F1EB40FAC8009F,
09AD01CAFACFFCE2F05CFABEF5C809E9,
F381F8FB0C9FFF42027B005AFC59F4C2,
00C8FACBF47903DD0655F726008EF6D6,
F2A4FE41FEDDF49DF422005803F2F514,
F4AD027A0066F9930269F916F9D2F83A,
042B0DA80682074608CC0CECF6A3FCA1,
FCCDFE12FEFC02B8FE2800B20541FCAE,
0DDA036E0530FB19FB7606BEFF20005B,
056604EE005A03D503050108F924015B,
FB60FFEDFB520C66FFF4FC86FF420323,
FCB804B1007005150494FEEA00CD017F,
0A1CFC04FDDD001902C9F8FF0064F40C,
051DFF62FFC0F8220B9007900050FD8C,
F988F80704F5FA18FEEDFF800716EA88,
FC360218FB6CFFCB08C0FE6102230706,
;   output 57
FD3203B00423FB4902B1F49AFF15063B,
0146FFF10BA30B0F000B07B3F77CFB50,
FF79F682FDBA07CCF64BFF82019CFFC4,
02DBFD1D02C8FC5408DE017D0574F870,
F9CFFFDC03F5F75AFDD200A403A3FAE5,
0004F997FFF0012CF2860176FE5208A8,
0B390075FB3B05C301A3FB3DED3E00C3,
F831F9B1F997F8AAF7F9005004B6FA01,
014308C1F769FF09FDBEFE09F9C90433,
0469001903810279F5C90410062904BB,
FF21FA98F98C05B3FF7EFEFF0826FBF8,
0638F87804260BD7000A06CF07F300AD,
01A002860189013F02D805A00174007C,
07BA02C2FFFF051F00A3F35506D712B6,
0119003EFD0D0248031903CD00D4069F,
F58902C8008301F9FD65074C0533F866,
0128F122003B000E0611F16B0A080082,
FF47F9C3F4B5082BF714F4F8068803F5,
EF50F8520518EBCB04AD002307AAFD45,
F267FC26EF3003C608E9F91B0133FC6E,
F521FC1109E900FEF2C4EDB1F8D9FFA7,
F36FE966FFE7DD45FF7DD988F90BF0EC,
FDDAE5EAFBBA02C3F9EEFBADF3C8FF51,
FBED0738F8BA00EBEFD70029F78702E7,
F93807C015BFFDA3EF4901D5006CFC45,
FE53FAB3F2200B1CEFA603F1F6890376,
06FCFEA106A3FF3203700EEB07F9FD70,
F868FD87F7A904B2FE2AFD2D0D17FE3C,
F9B0FB89FF4CFBEBFC50FFB3066803DC,
001A07B6000401BE014D0357F0BEFE7B,
00E3F60DF819F1DCFD26FE6EFD1BFD4A,
F83D07B6F92B0B13FFD4016C02D1FF5E,
;   output 58
FAAB008E00B2E84B096AF4BA0225F64B,
0390FCF2F4A9FDB7F7F90030057BFA6A,
FE3C03CF033F0B33013303B303B1022E,
0111FA3EFCF2F71BF7EA076E0000FED5,
FFE3F3E3FD260A42029400A9000B01C1,
00F6FF56FFF3FE10FA2EEF7FFFF4FC2A,
FA770AEB0069048C06FDFA15ECB2F35B,
03CB06E2FCEBF07205D3F3A8FE1EFEBA,
0542FF8905DBEF4DFD59F4DDF9A7033F,
0A7EF5ADF71EFBB8F92EFEDC020DFE16,
0289FFFA07C1055CFE5DF489FCC1F5FE,
0453F5DDF4F5FDDE00BD0587045C0335,
0764FD39F78BFAC7F9A504C10615026B,
FE1BFF3B000A061900FF00B5FE0F07F3,
FCED00DFF4700AD803F9022E0260F2B1,
FB84FFF1FF48FBD60AD1FCE60661020E,
0C3AF61B063FF0630C14F49B0555FBAE,
074205E4F8E4F0C2017E010EFEC1F7B2,
007CFF0709BC05A5F7B00517F502EF91,
00E4FE6CF5FB0932022304160D9D0B86,
FC46005DE552055B0133FD660611EF98,
00EE05A0FFFCEE77F05FF60AF889FDEA,
FC7001D0044505C306610569E1A6E548,
0C3C078CFF88FC620376E430FE9BFC37,
FB71023607DEFA81F930F331FEB2FF8C,
03A004AEF9ADFCA8EC8402010810FEA9,
086403000610003A0487FD31002BF59E,
F850F325F01DF99006990071FE0FFF95,
F7DAF651E8F90427FD110150015A08A2,
06CFFF05FFF8FB50067DFFA3F74E018A,
FF6E025DFBE5EB6D02E503AE0490FF49,
02E5FF0DFC36FA3A01ABFDE401AE02B6,
;   output 59
04EEFC67F6B2003CFC9D094C05B30621,
F831EC2CFBE1FB4C06380A3FF069FD8E,
02CE09E4FC620C80EF39EF43127BF2E7,
103DFB6D0F64F263022EFA9CFAD8F467,
00F9085D0FCDE91003A9007D09070931,
05580F29FFED0627FC2D052B08380175,
FB76FBAFF46CFC940BACFCD002B7FD20,
0370FCDEF6DBE45BEF9C09090237FF51,
FFAA01D6F16604B9F65FFF4C088B0F4E,
F2B9DE75EEF404250225FDB9FCFB0C60,
00E40FBAFE98051EF4EEFE0EFA8CF888,
FEA00312FBE800E8F0C61A7FFBD5FFDD,
06650AF90B0DEB98008E017A0669F8A6,
0C6A0CE4FFFE059A03ECF6C502C2FB5F,
F259FAA4FB49FC13FC3CEEEC027215F2,
F638FBDB0291FF4C0368071C06210B65,
FE2BFF2D07B3033308660E92F9E4080C,
FBB80946004F030DFBD1067C0A2C0355,
FFA3027E05FC04B1F629FD53FCE6F7B2,
0676042E057404FF012EFD6CFDCA0991,
007A067A04CBFC72FF4C0265FEE0FF1F,
FEF9022100170080FF8F04C106D605FF,
0596FAD6018E0428FCB403F9FB85FAB3,
FC960500F93E0251FA00002EFEDEFB33,
06C20215097A007D0281FD4F02D109B2,
04210BA2FC490308FE3DFD0DFE32FE6B,
02EA0C70029900C1056EFB1FF8510269,
066308DAFBE50322088F00BEFC89051D,
05E6021C01B7001A0707012506F3FEDC,
00A605B5FFF4FEEE081CF54102200A1E,
FE31036F01890190FE36013FF8AFFC80,
FFCD038204D7FF10030E023406E304CC,
;   output 60
F656F9F4021F00F906C8FD3EFB3101FA,
F3C2FD85FF21FCEEF73B0181FF40F819,
046800DE027E00650199FAF5FED5FFE4,
0D23F986F422FAC404CB014600DEF921,
028DEF4402F4048A01EA06C9005BFEAB,
01B3FFF7FFF8015CFE3AFC20FE3B003A,
FE9DEF7802F30544EF91F711FB910255,
0985EADA04E3FF86F04D09C507ADFE82,
EA51F7A5F8C9EF9BFC3906B609BBF915,
F68EFA0D044BF26D0822E049F8B3EF0A,
02CDF843FE71FC69F79AF3CCFFD00014,
10A8010400AF03C700FB003808BF0240,
0455EF39FEABFC4A01EF085C0639074B,
F9D807220024FF25FBC3F7430307F12A,
FF6B0040F809105EF38D057900CAFD7D,
00CDDAEEFFCCEA2EFC53FE21FD5FFFE5,
FE00006201E2089DFABF0624054304C9,
F074FB7F01AE00A1FFCB01DA07D6FD7A,
02CE0425FE35000F0325EA2DF32400BE,
0066000FFE63FA56FAEB04CEFEB5FF06,
FD3F0416FB49FCDE0C4DFE3DFC570616,
F9640473FFF8047F084407A6080D0330,
058101F30299F6F4015CFC4BFBCFFA9C,
07ECF66C08A3FD63FED6FF9F023B0235,
F2B0005BF0650A5DFBFAF9C2F229F018,
FB3BF32A05F4003D0313F092F8CF049E,
00940534FA53FB48007A016C0288F1F5,
05060A9C02C402F103E809F0F3DC00E8,
FD0907F8F935FEA404B70609011403A8,
040BFD09FFF80C5807D109A008600227,
FE75F72B1648FB23FCCA0C97FFE5FAEA,
039CEF000433FE28FE3604C105B90C5C,
;   output 61
F974F56EFDA10901FF70092D0745F656,
FDB80608F9FAF9B8FC9A01B0009302AD,
07A9F86A029707ACF8F2038F013C014B,
FBF5FEA7FB0F02BE1336FAFE020106AE,
FB6AFF910322F97B022E068BFC02FB4B,
FAF9FF9F003C0380025B09C10501F541,
0525075D097405020C82FD5502FC00CD,
F545F86AFD07E7CC01860265F9FCEFCF,
0AF30EF5F2CCF9D1F0C6FBCAFAE001C8,
F50A0183F715FAC8FF1DF2200E65043A,
03D00459ECC10078FFA6022B04810B54,
05B0FB6EF1D30547F8B701ACE412F083,
121D0A7409B4F1C10342FF02F0BD031E,
0A8FFB82005E09F002ADF6330549E876,
FC7ADBC4ED8AF0E207F2EC25FE6808E2,
F54310F5049C00C8F6DF0711FDBCF4ED,
0083FDB807BE084C049102B7FD7403CE,
F22FFA04FDF60A5703EDFBDB0CD7FF61,
FCC0FB730180085203050246046B02B1,
FA25008FFFE40A2E083DFF5A08E702DA,
068BFF80095F0126FC8602A7F044FFD5,
F436F491000502410AC90339019402A1,
05CBF7D90844FDA8FFAC021FF6CE08EA,
FD0309CBFED60C69FE0203320B9502CF,
05C9F60AFF21FB6F024EFDF1046BF58E,
F3220EEAFEF7F96404ECF1500167001A,
F803FF30FBE0F7A7FFF3F5C5063EFEE8,
FC0CFD4C05A10260067901E70405FD3D,
FF880348FED700B5FB53FC38F6E80458,
06900110001603DE023202CD008DFB77,
FE4F00B601B6FE7BFF2EFC66F60E091A,
FE15072703DF04BC016AFD96FB2FFA12,
;   output 62
FE480743019AFE5BFFDEFFDCFEC6FCBB,
F8AF05BFF44EFD6C0B80FCFF0249FE4A,
04A506B0F01903B100AD0719F91105E2,
068DFB4C0E1AF80202BAFE99F79EFE0C,
07B500550780031E03DEF8DFF87EFFA6,
01B9017CFFF6F860F71205C6075C024F,
019A06AA0068F46E0E2AF4FEFD29FD54,
FF95F77A049808DE03E300690313023F,
06B0045E068606A7082AFB64EFCE0054,
02C10598F99604AB00ECFD73011C058F,
084E04BDF24D026C0654078303A700DD,
08BE0540F2BD013F02C90247FB73FEC9,
052403F4058700C306550155F6A200BB,
0497FF30FFF10889FE4302C1077F0B0C,
FE67007C0874F9C0FD500DCFFB81F72A,
0500066900BB002EF98B002204B9FF31,
FCEDFFC50294FAD5F783E071035101A7,
0C330743009405E9F6110D55F574FCC7,
FE5BFF780B140E6FE2F5F8F0F7A4DB42,
F35DE63FFA44E7F80504FFF01258F6C9,
F6C104EAF3B3EFE4FCFAFB1E00ED0817,
FA6D06690000F98A03B2FDF4F9FB07B2,
030B0B8BFAC9FE59F45305EEEE42FD77,
FE5300AAF69A04D0034DFFC2FEE0FC08,
F980FDCEF9FCFBB90609FAAB063304B2,
FBB0F559FCAA02F30259FC83F8B9010F,
00F0EFEAF789F93FFAEEFABC05C1F4F5,
FB36010F051204A5033D01CE09DAFB07,
FE610C8AEDDFF3B0E7A604260317084B,
FDE2010F00060A6B027802BE0476F8D6,
02B1FDDF02F20614FC8A0B0700070062,
FFE9FE86F47BFC28EEF4FD100128FDC7,
;   output 63
FFB6EC5F003E007A03E205E405A1015F,
07EB00FF0078E563F98508C8004102F8,
EED7F8630824FE83F32A013AFFE1032C,
04E5F54BFAF701D6FDFB01F30069F5C1,
FC23F943004102930133FFA80080F9C9,
EE3A04FC0000EF13EA7CF7670DFE025D,
E8BE03EAFFA50654F7D00742F3CC04AA,
F548FE1B052DFF720227F689FDC1F9F0,
F76CFD86FE4CEB4C05BDF89FFB5EF768,
04CF02CEFE4BEB2BF4A305DCF9DF098E,
ED0FEDA8052BFFB8F51506C7F6A5FDE1,
FF7DF550F7D6098707A2093307C1FD9B,
FAABFA31034701F4F91D03D30038FAE4,
F63B006F0002E6E3F820F061FA8BFBB6,
E9BB0897FAAA0590F8A702F7E365052A,
F805044CFD87F0AF05A0E3F3013CFC9E,
025D010D03D0FC0DFCC107810769FFF9,
01B9046AFE51007402D8027903E60662,
F9F8FE550AD9015E0484018E066901C7,
043C0815FE8BFC470618FD5104D3015F,
FF4BF7390BFC0600FEAC002D0E20FD16,
F9510B8E0000FD26007EFD11FF24FCA5,
037D0A5EFC0401B70242F2B400AD0353,
0A0104B8FC5404F9FF2C06D003A808B3,
002DF9990C7AFCEFFF6007E10187FB99,
02BC09F1FAEB013605ADF5E30C4F0187,
FBC60518090C0179054508D90941F752,
033FFFBD08390273F909011F0379055B,
FC3EF9600223088E0333042414E806D8,
FDE6FF5B0004F483018D03E30929048E,
054B00A5FE9A013E07ECF3A704DDFE78,
FE840222F8F7FDA6024AF807FEAD0496,
;   output 64
FB95FA0B0A5DEDCC0507015B0628FAE9,
09450754FD60032608120AEF01AAF33B,
0267F16FFE7800C1FEF90602029CF44E,
0986EAD6FA97FE69041AFFEB05D8FE4C,
FD95F6D5FAAE008400A70B6908AF04A8,
03C3F5C8FFE7FB01EF29050FF18603F6,
01A805C304F40211076E022AEBE6F135,
FBDB076D0431003610BEF951FF43F9E9,
F79C04E106C5EB91FBCFF6CEFA92F4AC,
0391015F082205C9EF7206F50D8107EF,
0947F3ABFFE5F8D904CEFEEA0A750B71,
0BBEF15BFDA901320449F690019B01AC,
0625EFAA0154F6EA02ED05CC010F0499,
0063F517000B0467F9E40D15FC59FCDF,
070E06D8FA07028C0395F953064D0226,
F96D02610194F94A03850371F1B6E68F,
FE36F8DE01EAFD5EF7580A26017AFF5A,
0425F8B801B80F63F9C30331167EFFF2,
FD42FAA50559F8D3FA4009170142F9EC,
FD51E790F8FF0B2E001D0845FF69F612,
012A08BA0394FAC1FC36FFE5F9FB02CF,
F96BFDFA0005F1CAE9ACF934FB54FE64,
03D9056B07B0FB72EF7DFE33ED01F950,
F7EAF6F5FC98049C0110ED1B04C70157,
F3C2FE930467F727FB5BFEE00B66001E,
039706940702016BECE8011D0DA1FE84,
FEFFED03078E0197F98CFFFA0C79FEC3,
0195FCE6F72701B60C7B082AFFB0FC68,
F68707FB000200ECFF2801F502C0053A,
FF7EFF47FFE6F933FC76FCF5FED2F8FE,
01CE06C201E502BAF88B004B06DC082B,
FB420A8C03310853000FFE9303C7FF06,
;   output 65
045500A901C70861EFF0FDFDFB3C0570,
FB49ED5F08FC0296094BFD90FE440D83,
05160118FF6AFBE301E2FEDAEFBD04AE,
04E0FFEEFB7FFC20FAC6020FF886030B,
047BF983F54D01F1FD1CFCB9002BFF0B,
02E80108FFFBFDBB01EEF9D1FC0FF977,
FFC501C90431007FF51EFBEA094C00E8,
FC33EA4F088004E2EA13019A0C8D06DE,
076AFE1900A00254FDA201610A4C0880,
F8D700710592FD4CFD58E941019D01E7,
01C80948FBBC0A0CFB37FF6401F8046E,
07DC0671F5F00108FE6C0B4DFA28F3C8,
0B2E01350789022FFE2612830415014E,
FBCF0406FFE1FA6FFF6FFED5060FFD37,
0364ECC107FA01D3F8560D50FDB30AB1,
03A004AEFDCCF7D1FF9BFEC0014105B6,
00DF038E006D0A9205BC028F06270115,
EFFBF73DE899FC590285FBAE020E02D7,
0394F2E5FF07F65007B5F9A903280C1F,
F17D0631FE2808B006ABF52F08CE00C1,
FDBF04620358017EEF70F046F9F2FFD5,
FD63F43A001702A90E2F0F45F9D0F80F,
EBC00843FF8901FAFF34F6740642FFFB,
00F202D0FC1D0408E613032EF864F7E6,
FD630855FC9AFDDA020406BD0443FDA4,
F5BA046FF8C2F9BFFE98F40FE0070050,
FE6B0596F1CAFBE80837F46F040EFA6D,
039F0A2C07E7FDBAFC440C29F8F10079,
11AD098903CCFB7FFEDCF836FD1F0159,
053A0089FFFA127AFD29FD42084103A3,
FE5FFE94FE4D0C7C026DFBFF038E0256,
0CFAF7A303100055E480FBDD04F402C9,
;   output 66
04F605BD0202FEF308980B93FAD8FD83,
FAA405D100E1FF510822FC9AFD24020F,
FDFEF908054EF9E302D1FD55F6E8FC68,
0360096C0B5BFDEC038D0281044E0AE8,
FDFB001004DE00C1F24BFB630135FE10,
0416FEE5FFEA0612F5D007320472FA95,
03FCFE0D01B60D3D03280B47FFCF02E6,
F743091EFE00024004BB00DC0450FE4F,
FA6004D802FBFFE3F8940115FFDEF6CC,
E59600B3EBDC042EFEA504EF01DEF06C,
0448F0ACF767ED1A05D4F3DA074105F9,
10B5F8EE0A07FAADF8F1E9F100B30516,
F8F7F2C8FC020419EFAAF0AD061D0C1F,
EBBFE9A8FFE8E9AEEAA504840853051D,
04630735FBF802E1084EEE0A034DFD5E,
EB33F11504E300E9EF72EF5EED2A0320,
078603BCFC3AF5AE02720AC600B50488,
F2FDFBBAFD65FC1802CBF47F01F8FD73,
F8D602D608CFF5A6FD080AFAFB890336,
FDE1012C0095FC2AFA5902AF0614F8CC,
01E1F0F60612FE79F72C016BFD0A0C46,
060B025E0012FCC9F9C0FC31FDBEFB47,
FE2CF6C1F175FDAD05F1F2D4FEC9FDF0,
F4DFFAFCF89B0B88F778036FFEC9FB47,
F946006202CEFB27FDA2FF1F01B10329,
EE47003E006403E0FD39FEAA0D230255,
FAA5FDE1FCF9010404540427075700CF,
FF8DF4F0040B0C93F63E125BFD9B0305,
F9B6F35A0A7F07C400CF051B076AFE3C,
F9D708B20019FC35F74C050001050624,
02310440F710060FFB5FFD44FFF9FCDF,
F9230168FD62015BFC35F991F2A209B8,
;   output 67
EC380B1C0741F9CC05AFFF95F7BCFE75,
014A01EB0520082F06FE02E0F3D1F8AF,
033BF2E907B7FCEEE989F413EC50F99C,
00A6FB76FA30F24808DFFCA90F09FFB4,
EED907EDE524EEF0E6DC0B90073A05E3,
F25AFE080003FED902610A80F1E00390,
0609079507E30274009CFC5DFDE603DE,
FABF08E5F72DFE070E4DFF11058AF606,
FFB7FE85EE06FE5CFC600867FEB301EE,
0A2D085C0575F4F402CFF50BF92DFCFF,
0115FA4AFDFEFC6DE7A9097207810E14,
036404F0FE8B0267020C01240460F923,
FEFD03C0056BF0E8F0B40150FC77FCBE,
FD53FEB9FFF705FBFD6C071B0550F38C,
FE69F54D0484FFC2F481097DFA380C31,
F66D00BDFF2F01F1082F0232046201FA,
0018011E086B070000B9FDF6FDFF0772,
0117F8F3049808FCFEB202F308EB04E5,
F1B701A00AA002C20700FE70EFAE03B1,
FB77036D0146014E0709037901C6021B,
015C01F6FE45FEF4F428FCD208170B27,
011E04AF0005FB4202D803DF00AA04E2,
0091046A02A7FD41EF14F769FC5C0089,
F50AFB34F142FC40F76200A90722024A,
F956032FFBB70A2F06BD051E03550994,
FCA5F2780363FD820B53F9A9F30D0167,
F6FC0180F9DBFC0FE959F96EFE8D0F43,
FEEA02A40247FE8E02A6FD96FB51FB73,
042D04900781F52BF66A02C8F889FAD9,
04F80442FFFF07F5084002FD0A290140,
EE2BFE7D0A260017FE2708FFF6ED0558,
07CCF196FA40F581F6BD06FB0785FEB0,
;   output 68
FDFE0608EF00FB9106A9F8B0FC170568,
FAC1FDF8021B015E09A1FFFA01C2F2CA,
0473FE79F701069C0073F98CFB40F57B,
0701F6A2FC39F2FDFD1F02200B720A94,
F887009B00A2EF14051603DBFBC3F769,
078A0888FFAE047A02010722014A028A,
0B3B00E0FE80FE61EFA7056CFD3BF97A,
05AC0850FE0C01D503F6FBE1FFCEFFA4,
FE14FBDBF70705B0FE1DFDD303B9FC97,
FA6FFD0309F2F1130432060D0806F528,
FCF50CABF44EFBAA01EB025AEE4EF9B7,
0513057AF93C00EB06DF0AAD05020B61,
FD93EDA104D5F98206B10227FD7EF2A5,
00A808DD0004FD6F087DFE910D46F6B6,
0D70002C0C660280EC780560F5FEFFCE,
0DA0F5AA004809C1FD9B0132047303AB,
FA7101CE0CF5F6D7009CFC5BFF0EFDC5,
0BE502EF02BB0599FB5EF6810263F8B5,
FEB3F69E08520CEC0433FA91F5D6E9C6,
FBF7F805FC93FFB91411FC2F08E6F306,
FBC5056DE9F7FA760391046509C80744,
009D045600320CAD0F71FAFD05ABFCE2,
0600FB6706CF032A013D0806FB9B011B,
070DFD45FD1410BF02F30A5C0EF3FE5D,
F37BF4B407B90504FC70FE2CFC7E05C0,
07F2126BF54B028604DFF58200BAFE68,
F7AFF1AEFE6D0666FD0A025CEF2F0817,
FED00020F9FA000FFBE2F259F3CAF655,
0BDB047D0249006F09A20C95F3D9EF12,
04B0FD55FFBE058408FE066D0107F0A9,
F35F008F07F901560547046EF68C0032,
0A53FDBAF54DF9320837073810520A28,
;   output 69
020300410677028103CA043AFF3FFABB,
075C04D5FC1A0392FEF2065401860DB0,
FEE503E701AE0B05FA1906C6022C026F,
00CCFB4B04F60528FBD2F467012801A9,
007E017107660173F99108A7013101C3,
07FC05C6000705DEF1EBFF190773FAAD,
FA9000A804B20384FFD1FB1B0363015F,
FC26010BFE8DFC740E17065802CBFF26,
FF82FCC10547F947FCC902B0FB6FF83A,
09EF04550612F515018B0E720C2AFCBE,
F2A1FAA60173012A09940BBBFB370831,
06BDFA4803F905ACFF4CF7660316027B,
01C8FB51FD38FE1EEF02022B06840048,
F2DDF3D3FFF5FB96FEB1010BFF25061B,
01C70790026502F9F727FFA60450F597,
FE1C01EDE90202F3058BF5C1FE45FADA,
014F0037FA9DF459FFA8111E06FFF79B,
F0CBFD3DED6DF4DFFB700A3101350D4E,
0FDA01F100C80593F66FF66BF6D7FF17,
FB5E0223FE76ED58070E0016FC6FE599,
03C6F5F1FF23F030FB7DF9DA0C790863,
08AD02BA000D04A503E5F591048BF859,
FCB1FD2CF8C4FEA8003EFD46058F01BC,
014FFFC3FDC9F5BBFA5E0793039FF1B9,
033D01D5F612033105BF083E0492F5D4,
FABCDD620286FA9D03DB025FFF90FEAC,
E44D0071F6AEFF760201F597FF740CE2,
04400274096FFE62FFEB08290676012E,
FE63EDE4014F00C7F47B02D9FD5D01E8,
F5A0FCA4FFF4F54BFC100139FF2200D7,
04D406ACE2C60829FD53F47B06770F83,
033EF47AF3CCF588E60CF5FEFE33F6A1,
;   output 70
FA41100CFD840AEAFA34082EF4D501B9,
FBCFFAAFFAB604180826FC9502A302DD,
FCAB031FFA77E553FBEEFCA3F2AFFE36,
06C80858017A041EE7ECFFDFE248FBDF,
05AE025AFF7CFC1BE598FEDAFF9AF9FB,
0D290365002608F703410622FC350575,
F423FE40FEFAF4E8E70C074E03FF0189,
FC15F0AFFD38FDCAFC720A4F04210760,
03260695015B0479FBDA0061EBD2F967,
0036053AEC1FFE3702EEFAD5068D06F6,
00BEFB01F69CF7E602650367FF7D0579,
F6C8FDB5079E0BBAE6AA0A04FDD30622,
0C8EFDD7021506FEE3F0F97FFA8A0406,
03F0036F000DFDFA03EDF9AFEFA80C64,
F898FE4D00BDFE2A00EB0395FEB6134C,
FDA9021A037BFB2301A802A3FD2C02C0,
F91803F00239F91207550B190498F273,
FA0D01EFFF2FFF1EF872003401B80A7C,
051D061101AE02C302CB0DD0091FFFD4,
04400A82F9EFFD70F8120492FE46FD1C,
FC6CEDBA065D0519007FF4B90862079C,
093F0164FFF1FC1D0037076AFF580616,
F4DFFEECEBC8FE19076EF5D700C8FDA3,
085F0141061006D8F6FF00BA0C39F8DB,
0433018006BF00080146056F08DD02A6,
04C20520036004C103A70A9BEFB5FED7,
FF150889FA48F75EFDEBF752FDD8FCA0,
0209FE51FC63FDB9F584020503E3FF02,
005AF11B05E6FB4B020104F3092002B7,
0066FFF0001F073D003F0516FA600334,
F7550129F3DC030DFC5BFD5AFE9F0561,
00D9FDCB04480992F6FC014D01CAFDA4,
;   output 71
05A007A0F7760A9E0345FD13019A0192,
027FFF4DFFF9047A06060A1600F10A35,
073805A6F8BB06FE0033FFF3FB1A0197,
F49E0568025706EA033C032CF6BE0327,
07EC0290FF3A042100B4063DF8B7025C,
01E7044C000103D407D3027205991054,
FAB70270058AF335FF91054BFB3B0213,
0099FED700AF0095F9D103BF03B3F93F,
FF480142F8C4FFCDF21D0659F8A20495,
01F9FFCA02F1FF55089CFC3FFB8DF91F,
06E002E2F4E709DB056801A000C702FD,
FE53051A0625F64D0FD90F6EF3070726,
FA87018E01C2FEFF0C8DF6E6F3F8FF58,
00AC06B5FFE906BA09B0FD870ADA0277,
0DAAF985FCAFEB64FD64FCCD02EA0C86,
0917F8A1010EFB5200CAFF71006F0167,
00D2FBEBFFB90999FF06FBD504210723,
FFBDFD5CFC7500FCFD04036EFEF70805,
06FF00EC043A061F0186097D05DA01D6,
FE5B04C400B4F612FA8A04990336F178,
0336019D020701E1FE8801D30578049D,
0790F97D000DFCEEFB16F9B504D8074E,
030C01D6FD60019CFD3FFF0D04E80B7A,
FAE5FA90F7DBFF9603E7FEFCFC9CF8DB,
06A9F4AAE91A0560FB3CFDEE0544F6B2,
028FFE3904F0000C05B1F32BFCFA017E,
F8A6EE61FC06FEDBFF4BFCDDF84D0D3B,
F3BBFBD40786F990036D0BE7FBCAFD69,
FD4302910C7AF564F4F5F265D6D2F109,
FDA3E358001AF81004EF042208C4EB89,
04E5DB02014BF71B02A6F0E7014D1E22,
033FFE23F131FFE2F8E60361FCA4F490,
;   output 72
00C402DEFD4BFC780FACFD8A02A5066A,
01AA0553076E011C113EFA9CF60C0396,
0B220195004BFC5FF755F9F910B5F533,
00EBF5DB118EF17E08C5040708720367,
FC31FB1FFDEBF835FC61FB4B008F0E17,
038203C7FFA703B0FE5006E80C99007A,
0C8B05F9F584038514AE0377087CF60E,
F9C80702F1EE0095F7C701AD0582FBE2,
FE9CFB33FC5100CAF97FFF4202DC0010,
084E01F40598FBC500B902E0F5D009CB,
07100957FC230065FB21FABE067B076D,
090C08EEF519F811002304E2FAFE01EE,
0739FB470B0CF366FA03032CFE8F03F8,
02B903CA002200ACFE1BFC9204FD0181,
0147032005C7FAC70137031BF928029C,
F77609B0100801ACEDA0F8B80184FAC8,
FCD9F58BFA65FE96F11304AA01C1039F,
00A50ED102E30142F7A5FBB508E507D1,
06C6FA53FB9E094402CE00B1FC640487,
067B0279FABCFCB50159088FF560F8C0,
F7B3F9130348FEE40915F71104DBF220,
0B8BFB9B002CFACEFE2FFB8A0679FB03,
0023FF7A0530EABF00F5F5BE0AD1F91D,
FEF8F3E20426F97C0661FBB001A8F830,
FBD108AE04160A88E8CBFB36E3D7FAE5,
0473FB30029DFFBCEE420447F92F0C02,
096A00D3FDC605E704A1F964078D07E5,
F80F0B81F4010876F321E9B8FC4F05FC,
073B03B600150A38FF3FF0DC029E08FA,
07FAED770007FC7FFF6F0D4FFF8C0020,
04E8050A065FEE3A08DFFA5F1428F1CF,
FF91FA080D770DA400BA035F0587FCB1,
;   output 73
F8790A8D075801CF0306F23CF3B2FE92,
0402F89BF52109BCED290A89FE21EBEC,
FB20FAC70453F25C02150029E3A50026,
E85AF440F245008FFE20F96901D5F81E,
0560F23EF49E02AC0180FB2F004BF3C4,
0751FF65FFD609720F6805D0FF110DFF,
FF1E0818FAB70740F43AF894FEB00570,
F75D0790FBF60751F1D60BED03CDFF85,
0856050E05B4FD8B05FDF6FCF26CFDCB,
F729FD09F803FD7EFBB602010269FFD1,
FBD3FE41F29701D7F9F0FAE1FB70FE56,
FE36FFE60496035D0375FD32F61D019E,
0744F624FF0F0383FB2701EAFDF0F6B9,
068DFCCDFFEF13A30EA8027BFD8D06FB,
FC5F035DFD97F005FAD101B50789FA56,
FF03F60704F80446F51D0B4102A904E5,
FB21015B105603CF00C0EDCC04A0FBCC,
FB97F95D02E911E3F8E200790D7700F7,
FE8FF38F10BE0628FEED0758054C0989,
FC07046DFCBF055BF6C300BC01D90141,
01BA0924F5C5098C045CF5F50966F50E,
0C02FE87FFE3064008C1F9B800CDFB5F,
046FFD800372FFA40AB2FB80FBD4F909,
FCBD008E044600BCFD020966011C0F48,
FC550ACA0522F8D60651FFB5FDE5F280,
FF1FE81603F4FBAC03EFFB85FCF00141,
035CFC2CF016FE0C0CA2F166FEBD00FB,
FF6804FCFC4FFEBFFA6DF4A3F93207ED,
03C10112F1850C3EFDA6FAB700C7F6CA,
FEE5FB91FFF303ED0692FF7EFCFB0C9C,
F66FFDB901E8044CFDB4F87AFC90EE22,
F83C00470AD2ED33F768F91301A1016B,
;   output 74
F952089C03DFF0C70037FD38FB770743,
F75E0212036B044AF69DFD3F002A04D3,
022DFCCF0D25DEAA0059FC54053A0130,
EF4FFE2FF5EF00F8F84EFC1110740284,
F8ACFAD8FD5E06DBF33E076D071C0A73,
FEF0FE5BFFD900950399FC62DF5906A7,
FE7207DEF4FF0A850E33140EFE9B0056,
FD02F8E9FC5F0CA0FAC8FC3DF4E30137,
F86003440990F45D02EAFE12135501E9,
F339F64C0E7B051C0706FC1FEC10EA2B,
F6C600910821F125F462F605FEDBF942,
0067038500C4F16A05250F2E05F5FC8B,
008AFA2D004B04D1FCAC10820387FF3C,
F9E606BC000AFF7EFEF30036F7B303D0,
FC110467F669094201EC07CE058DFA4A,
0557EEC8F37CEEFBEED8FFE100080175,
083205C9FF890639FFCF06A602B6F987,
FA2D0608FEDA0722FDD6FB97101603F8,
01C901CF022B07DB077F08F0F78D05F5,
FC36069B0429FF9FF9BE0692FDD8FD05,
0890EA6901F8072400A4F701000BFD73,
05C0060B0017F9A305FC0451FFD303D8,
015509D2F66AFD6E040001D2FB4D002A,
FE240486064AF81601E5FDA706CCFBC6,
0C0804C8F3E0F9D4FF240462F800F96B,
038104E8FBF804AB0067FD7A07AF0289,
01BF0048FE9504F1FBF8018200F2FD95,
F8E60264FDF6FC20F676EEA70352FABF,
066AF7EB01EF04B7010101BEF8FAF61E,
00C00436FFEDF6D00CB1F9B1FD6F0489,
F353FA27F580F90D0300087D04630574,
FA89005FFB04F3B2067AFE6902EFEA96,
;   output 75
E7860577081F019A07C0F04302A50A9B,
02DC090CFCA3001FF9FF0C49036EF6B2,
0BB1F76805670075FF8F02A6F823FD97,
FE76F95DF7C4F6C30A1C093501C2F9E3,
FF0701D503C0FBF003B70B25FE080836,
07840151FFE200750DC1FDFAFAAF036F,
0021FAFA0A770004FF530002EBDC0537,
FE4CF2450A4B0058F8DEFDDE0B45FEF5,
F364EBC1FD6F05870FCEF95F08840AB3,
FFB306920B33FB2A05B4FD10FACC0064,
02610199FB5104DDFA12F77A0183FF05,
0AB702CDEF990DE41422195CF606F75A,
FE780742FCFE00AB0CB10C26F963FDD9,
0015FD50FFD6FD13FF9700A7F76803C2,
F327F75F0FEDF91A02D8168CE441100F,
F7F6FDD01258F9D5032FFFA406D105CE,
F8C2FEA80C940B0B06A601A8FD810813,
FA6DFD4C04190215FD75007F09BBFD33,
0CECF53B0613001108AF00F202D6F70A,
FEC80262F89605BF0101FC640126FD5D,
F70600FDFD7BFC5CFA5D00F10EBA1062,
FD1103FF0022041507B5032D0294FFEB,
FCD2051F037DFEA0FB1009EAFFB203DB,
F5210066051D030B03E8034DFE790172,
F4F803EE098202B6FEA00142FA07F711,
0247F3C90103FBADFEADFAAEED79F9DF,
F992F258FDA1F3C60164F6D7066DF59D,
010EFEC50283015C08A7F70901E7F9DE,
E70BEEA5F9FBFDC50227013D015D0757,
04B0FB8E0049F7D8FDDF07ECF919FB09,
F8FBFF2DFF03F4A2009F088CFCAF0208,
F6EFF6D101B7FF59068BF800F7F5010E,
;   output 76
016EFE6EFE51FEEDFF7F0B9EEF3806AF,
05E10415039D015107B4F8C7FDE9F42B,
06150AA6FECBF7ABFFB00216FB28013D,
08820D2E037BF68C03D8F8460670F801,
02970381F279F8B4040CF31904A5FD37,
083202D6004D093A04A103A60D40FCC2,
084306080004FB71FFA2109E0079F8BB,
FBBF02F0065901A5026700DD0A1AFAF6,
00AB03EB0755FD42F772FE49E5740680,
05E2066CFDEB0C5FEF95055C069D0C1B,
077203F002C6FB70023B0977002100F8,
F5C5018FFF4001F7F32CF6A0F6D702BC,
0443FFA9FD2B0508045B00EEFE4FFFF9,
056E010E0003F255FD080894FDEEFEB5,
FA6A057AFE35F078035F0BAF05D7FA6A,
F467016EFA3A0C2B032909BE036EFC49,
046A08A3F86E142DFA1D0730F9CA0761,
FDBCF9A0FF97F62E0771FEFDE3C8FDA5,
FE3F0597F916FBADF45CF11CF70AF262,
0171008D05250670F932FC2EF3C2F826,
FA550A48D8D5F441F9B8FB47F9FCFF8C,
03D2FB73FFFA0CDF0530056E0196FA5C,
FBB1FFC003E8040EFF740431040605A0,
07AAF7DAFCBCFF28F5EF071208890B79,
F834F9B4041CFB85017904D9019FE92E,
0CB3FE2A0591F89505D3FD02FD38FE9A,
FEA50040FA1BFFA0FFB1019DF7F7F4D0,
FF7FFBCEEFECFB290634EB9B036CF14E,
EEC2FA06FE580137FFE3019B0056F6C5,
02DA08EC000F0935FEE1FAA4F764FF97,
E97C017602BFFCCEF7D71131F6FDFA73,
069AFDF402EF0812002BFDCD05B4FDC7,
;   output 77
FDA7FF85FB090656FAD50226E670FE26,
FB5D06BD0608EC4B0125E05DFF940757,
0BFD0181F76BF0D402970043FB4E0829,
030408910053F8CDF46DED8BFD33F6B4,
FCCCFA3C0018021FFE04E371FBFDEDBD,
FF9A0117FFFB006B00DEF9790654F267,
01E5F99DFB54FBF3F915EF940CCA0556,
F503F4720146FC6EEE7D0622024B03C2,
FAF5F9D8FD45047200D80A480291FA74,
FA52FE35FC0E00420464F5DCFE7900DA,
10EDFBA6FF0DF354097EF5770C0FFBB4,
087700ACF49CF11DFEA0FCA910130273,
EE8EF23AFA98F5ED05A0F256015504E8,
0BC3F8600001ED920717044203E8FCB7,
025DF99DFB4E08C50619FBD4045BF789,
FA34F7A70390FC6EF59CFCB0F7F306DA,
FC49FBBE023507D0FF1E030BF75803CE,
08BA072100A1FB030497FACDEF73FD11,
049301680670FC0EFCD409F407F705CA,
00EC02D801680074F688F9E507E903D4,
F8D1FDA504280767FE9CFC3104560893,
01D813CAFFC8FB1815560D1AFBA9FE4A,
E92AFDBB0924FE4E02DB02E005B103D7,
0379FDF507FD0137069EFF87FB9D0732,
0237028205CDF97403A0FFAD05F3FB30,
07A7021EFE7CFD1C0223033CFF5CFED4,
FCE9ED99050AFE7B0DD8F85C019BFE9D,
01B704CCFEE100DC00ED083C00CA0DEB,
FEC10808F9830ABD06AC026C002202AE,
FD8F08D9003A040D0E97023EFE610701,
020007D00871095FFF2CFDC40135F00C,
016E093E0320FF7C010BF9A0F1EF039B,
;   output 78
FD15048E007FFD9CEFDAF992063CF625,
07CA09E402F5FA1F0351018903FFF272,
0611F69302E508CE06B005CCF540FF8D,
FB4E0023FDF7F653FE0505B5031B09A9,
0333FBB9F5C201E411620A57FFFCF9B9,
05B7F28A0014020F0525FFC4040EFCC4,
FE7903A9F2D90B26F6210015F84BFD0C,
057CFA56039FFD430750FDFEF9B405A3,
F4AD0A7EFC3CF5B9F47B09B00922E638,
02F100CFF96AF886FE13FA320A4DF3DB,
FCEFEED201CA0B59028F0079FFE8FD86,
049108230305E78D0D000388096805C1,
F6BFF913F128FEC60937FB1800BD04FE,
0578EC90FFAE0F300D61FF2907420AA0,
00260448F8C405BAF334FA28035BF0C5,
0628F26608D2F013FD2506B5F9D8EF5E,
0685FF88FB3A025101CEF7B711740389,
F501049EF805F19AFFE3FB07FAF60A2C,
FCE2FA8AFC4A088504CAFB6AF7A2015D,
F535026AFC38FA6404220212058EF3E6,
FD99FE49FE25FF0EFAAAF96BFD2C02AC,
07BA056E001407770015F4EA0F54FBD6,
0910F5A8084B023B0B9D006103F7FFE2,
F82B0270FC100183029204A409A0FFF2,
01C8059F0648FD9A0016025A042F0929,
F783ECD205D5EDBE0BE006D300CEF191,
EA8AF8B4F5480A8AFA42F1F1FB3DFB0D,
000607220B14FD6402B0032400250174,
0BEA0531FD8CFF1D011A03B7FE47FD25,
EF1CFB5900181131007E007B0A04019F,
04480952F949049FFD8EFECFFA9D0EFC,
FDC1F888F65B0021FB3501EBF46F03D5,
;   output 79
015201A6049F061707A9034F0077FC9D,
FB32F7EBFFEE037D064C044CFDB50902,
0038024AFFDEFC4A0173037002BC060E,
097FFDC6063C0C3EEAF8FDED00260D7C,
003D06DB02C502FDFC20FC05001E017F,
00F1064B0001F3B4FCE101C2FD480AC1,
FB5402AEFF030655012904FC04CBFC40,
F36F0607FFC70027FF9CF7E30189FACD,
033AFC24FB41FAB1FF75038E018F06C5,
FD1200E8FBCAFDA204DA014EFF35FBDC,
FC3DFDFFFBEE0EE20545FDED007512FC,
FFD900E20937F74D0076FDA001AC041B,
F720033F0330F79C0476F977FDD6FDE7,
019502FBFFF9EE2B053DFC2402DB02A2,
01B1FC73F5D40711026F0297FC370430,
0781FF96F5A7023FF99FFFF1FF27FA5E,
FAA5003D03AD058EFF0BF6B303860051,
1590FA7EFD48F6A10C2B06550862FAA9,
062309810202FCF4F9FFF6EC013BFE28,
0040037F03DDF8C609410399F981F32C,
0709F9A6F65FFAFE00740161063E0819,
FBF7031DFFCE0047FAB20578013801FA,
E7930AE104790106FCA101A1047FFB17,
F913F24407BE005805E1084D10690FA9,
F48BEE600DC2EC45016FF43904AA0DF8,
0BF1FC3806ADEC11F9620127FB18F60A,
F51CFE9006BC01EDEC8AFB6DE4DC0164,
FDEBEDBBEB46EED80A1F07690901F085,
0A40F2AEFC2EF39B041B007909AB0309,
FF950009FFE3FCA3FB2AEBFCF0B6FB3A,
EB6708F9FCAD0249FA23089EE2A90039,
F6ABF650FB8F07A0012AF4C500EAF775,
;   output 80
0027EF08F96BFBC60770FFEBEAF7FF03,
01C3FA9A0132FE5E065BE21F01221559,
FE4C04D404BAECEE01FC07E800DA09CB,
06780331FE740817FFC7E4F9FC2CF602,
0452F6E20AEBFA5D002DFA0A01ED061F,
FF020342004AF686F44CF1AD02F8EC04,
FA39FB73066B09F1053200BDFC8EF74C,
008BF814FB90074C0870FAD7FD2D00FB,
FC47062B045A0996FFD90071FEE3FC18,
FEC1FFD20B73089602F5027A0918FD3E,
FC4909B30533E9B6050902BDFF1FFEB4,
FB9F09DC02AFFFB5FEF5FF8B0114031C,
FBB9FAB6FB3CFE0CF8DBF8F708C8023B,
0300F831FFDAFF0A16A300A9056BFFD9,
0465062C011FFD1A01D8FC060A4F006B,
03FBF8B200D103DF002E044D01E8046E,
03B804F4EDAEF6E1ED710C8BF86AF6E2,
FFF405DDFB8CFFE008BF0CF5F14206DA,
0A8D064DEDEA0A43057DF739FC1EFDB7,
0340FDB10528F174F2B8FF1906D908D8,
0B3CFD52038FFE110282FE97FFFAF651,
0922087BFFFA0763FF56F7A5079B0379,
08880F5BFDA4F55DF399FE360315FE68,
03820490037AF35E02520CE201F6023F,
065707A7FF0C0AC1FD50FED3FC01FC18,
07160348FB290247F74C0645055D01C1,
0BCA0378FB9813A9FFB50C8BF9140DEF,
FF3804E1FB7B005AF720035708AE0221,
FF9EF541F934FE5C04EA06290AF7F518,
006C0F7BFFD9FC3407CAF8C8071A0C6A,
FAAC0980F4DAF578F80805A0028EFE72,
FA740C450381F7DA09B5FF9CFAA8F0E8,
;   output 81
0A1DFB4306780F7A06A3FE29F548FD72,
FBCEFAF6FD4EFD4F0750F6CAFF980417,
009CF7AD0798F9EE04FE019EF7570A49,
F7040347F228028CF55BF96F043C0E51,
FFF3024EFD07FEC2F835052507A4FA67,
F442FCC3FFD204A10868FB42F8FEE2BA,
01DE01D60AFDFCD60591F86DFA7E073F,
F739F7ACF3BDFFDAFA4F06B4020D0232,
F6C400C303BC0A4FFDC7FDA3F2270202,
03E1FE93FCC904A2FF6005D5036B0328,
FEC102F100500B7507D2FF2E093EFF66,
053B001C057F05F7FBD5079C03B6079A,
FB2CFD5A0411FF5EF99100010A7B066E,
0136FCC50016FBEFF9240508FD2D0CDD,
06A2058F013D008C04CFFAA007CC081F,
FF2BFD71F59FF9AC062F057EFF630017,
FD30097CF3BA023BF8C908A4FCD3F953,
0621FC8401C5F9C4047C004CF1350892,
F90CFE52F19900AFE97C0288010706C6,
FF3A09B30AB9FB66FD42026D0575F7B8,
FF580914F52EF949FD290D43F116F94F,
0383F8BF002B07C600400DF40305FEE0,
009DFE39000EFD4BF53C069202860598,
EB2FF24BF97BFE3C0609F372F76BF8C0,
0246FDB2EF1805FEFBCF025AFB6F03CD,
04F9FCED052AFEC3FFB1FDB6FDF20B9F,
0283F9E40C67FC36F60C0B9EFB530393,
EE0FFF6FF89200DAFBDCEE270890D638,
FDD600010533EF5CF0F1FBDF02B2FA72,
063FF8E700250310FAC40848F9D3F6D5,
F94AFB8BFEDEFE0E04C50D41010FFA22,
F8C80B7FE1AF00D70BEA01B9091FFEF5,
;   output 82
0DD9FBC50A8701B80DA6F535F81DF9D3,
05250E8C0231028FFDBDF8C4FF490960,
11F7FE3FF8BEFB80015908BE034802B3,
FF34067AFF5A0C6103CEF773F8240096,
0183F5B6FD8CFE42FFB6FBC1F0E9FA79,
FFE3F94C001DFD26FAECFB160BBAFFD1,
05FC07BBFA8EED2F063B05AEFA18FFBC,
FE2504CA041605CEFEA3F846F1760709,
ED94FF220310EA74FADA05EBFCB9F852,
01500061001BFF7FF3C609D5F5D600C2,
F802FCC0FE47FEE3F8CC063C004DE4BF,
086CF268FFE409B908700444074C042F,
ED66EC6BF801F8EA01440CAB011907FF,
05A1F8B9004904ADFE0005360A3FFA0E,
FF750252FCE700A5FE08FB8AFD9AF01A,
F8FCFCDB0A46F962FEB4F97BFAF7FCF4,
F76405B2FA9901FF032E0E24FA62186F,
F40CEF0BF26DFB9B014A00C9FBF80615,
0AABF80BF6B2FAC4F043F96DF92902B9,
FF39025D01470891F9E3FEA4056AFC0B,
05F1FAC00068FAAAFDC9FABAF2D2FD7A,
00E5035BFFE700DC03C8001602E9FDDC,
FD3E0651FDA90E6B0039050FFFDF0227,
0644FC4FF741FD3CEEC6F97DFD6908D2,
F8DB00830D8FF7D404B20424FD680AC2,
F1A2FB63018900C1FBFE07C1036401BB,
03F40973FB3E0001F955F064FD52E60A,
FF280B23FD3B043DF8FD0ED2FCF5030B,
FB7203B2EDBA0207FE04094FFF7B0123,
081AFDEC00151033FB65041602FD0994,
FD01FE450795098BFF63FBABFBA8FDA0,
08FDFC60062CE874FB26FD8B00991154,
;   output 83
081AFEB7FE6BFC70F97E0379031CF0DF,
F76E01A2F6E3059D07C3076E043901F3,
0901052FFB78FCFE0206084AFB0B008D,
FCEDF695FDDBFA16F50C034AFB29F560,
0677F6D1F8CD03CBFEC8F6ED050BF744,
0D92F638FFD1046BF990068FF93DFE13,
FB19F8E2FC1C0640F293FB64082D015C,
FF35F46FFF9D0375FF9205BEFBE7079A,
EF3CF29FFCD7EFFB0F8FF60A0D64001B,
FCF3FE2BF8C2F8B2E4EAEF770CAB08F8,
000A03E20376F46A054903DC07FE0435,
04410396F0F10962034CE5C6FFEFFFF7,
FA56EEFEFB5BFAAEFF3603A5F1BF0783,
0404FE8E0059F334FC01F3F50520FE47,
03FFFD76F71B03C40AD401F3FCD2EC43,
06470E210420F86DFBC0FA97FEF90781,
FEAC04A6FAFA0B460444FCED01EDF25D,
FC3D1179FFB00604052901490048F399,
0725049FF840FECC0DDC026AF4F806FB,
05230659FB520415F67FF9F304A90461,
00A40455F6A00185053FFFA0F9CB04AE,
00CDF5A9FFE1086407FE0CFD029A03D9,
FFE80D8A0709FD78FBFFED5B075403D6,
03500069127A0325058D0C66FEF8FE27,
FC7BF3BD0FDBEEC9FC4CF12AEFBE0536,
08DF06B9049AFD9802E5FA79FCE7FC6A,
07D6037001D8043002AD09CD0470048B,
021807A9F548F91909A1F136F4A0FFA9,
04DEFFB7FD9C01A0066602DD01AD07BC,
08CC097A0012FAB5FB3EFDACF959FA34,
F39406C802BCF4440491FC53FBCAFE5E,
FBD7F91D05360BCA048CF53E038C1127,
;   output 84
076FF8D2F973F95E0865FA260E0E0442,
0487FBCE0750FC04FA74FC4FF62606EF,
0A040379FAD60710F978F82AFE61F560,
099AF5980943F92C027408C303CD0146,
F846F69FFA1BFF760264FBF4F112052B,
05E004B6FFD1FAFAFF8D069A0DC5FB67,
0446F4EDE84F081B13EE01FC0590054D,
067B1519E21906A6EF7201F201AD02F9,
EEBCE73707CAF70AFA5C0A3F044F0752,
0306072509E704140257FE84F585F7F3,
06B8FA68FCC10805FED8F0F1033AFF49,
067503BD047AF3970D320F52FFA40D7C,
F187FF130488F94AFC7AFCBF032E029D,
05BAFE9BFFF9F24DFBF601AD147AF44E,
0141FC48F11901B205A901BDFB5EED1C,
0115FC2DF9DAEC60F416F920F707FCB1,
FF23F638062FFAD5FAABFC3003D4001B,
0732013B04FDF121F70DF9020663F348,
06DF001C0DF3F6E201C102C3FCF2FADD,
FFDC0860F558F7E203BCFF2E04D7FB07,
00CDF5A7F5B6FBDEF3E900B7046E0D8E,
02380791FFF8FD4CFF98EA230084F834,
FBC8019FFCB6FCE3FD9F02BAF8B200B2,
FEBF007500E808A5FBC502430D7E0686,
FEF6F6AA07090338039BFD83F818FB05,
058E034A010102C9FF8CF0C105B2FD6B,
03E60E0501F6FD4802BB1045FBF9073A,
0C54007C01C4F6D30BFA013CFEE5FDFF,
FA29FFCFFCFAFBE401EC0831FD820652,
02F504FD0015F44EFE270162FFBEF7AF,
FD77092D053FFE670989FB03FF76FD7E,
0919FC9802AA01F9FB7E05F103D30684,
;   output 85
0501FF4DFD610050F44AF46BFB1202CE,
049C0D3E1B47F1B60606F237FC61F159,
FF280427FF06FA61F8C6FD4CFA42FD69,
FEE0001501E702E30969F05C04F9F9F6,
FE85FBD1F502015CFF73093AFDFEEE9D,
FE27FCBBFFD60306010A03C80535E377,
02E0F909FEF9F7BFFCA6106BFEB800EA,
08A6F252F83218930A63FCFA04790448,
F4FDF75900A2FE28FB09039D036FF46C,
0AC20C5A0F740088FF66FAA50A4C02C3,
FDBB018F05D206D2002F052AFE00FF85,
FE8002D6023A0300043CF833EF6A00B0,
F83CFF39F3A8FE6203E4FB46FF590035,
FB16F83AFFF202D001850039FEDEF89A,
FEA0005A0548F3A200F603720263F71E,
FDEC067103B30BCC0B9103C2074C0384,
06180075049A08D203F0E843FE990D59,
0900F774FF49ECB8109EF680F0EE0F32,
FEB80009F4B9F7210052ECAF058E06E6,
F68303F4FD6B0F9D03F5F98CFEEBFDF5,
FFCF005AF9710A57FF14FFDAFCAEFCE7,
03DFFE0FFFFC03D5FF14152405F2FC21,
FE800420FF7C00770669022905C0FED0,
00FFF8CBF5BB013BF5CCF02B02D20F9B,
0233F2AB0CDA005B05EBFE5B06D1F49D,
06C2FF2C03D8FD430237EFBCFB5504C3,
07C1FC04FDE0FFB5049AFA4007C2FF1D,
F35A02E205CD0B75094200C7FB7C01AF,
F7A00876F4FB04CE01570159FFEC085D,
F9DF00D4002A038C05F0FDED0841F1B3,
0ED801320AD707720894FE9B015D072D,
0A2A0036F5F1FC3D05BAF1CCF7A70A55,
;   output 86
FF81F905FB710C71FA7805CD05FF0080,
01BAF9DDF5A5F98D05FBEF93012805C5,
F8CDF912043EFA87005202EDF6A60291,
FCDD013DFD8401F20C55FDFEF86B0D63,
FF48FB210948FE15FC580FE8022DFA7B,
F3590021FFDEF98A09A20970FD24F250,
F809F171F99301FFF533F673014606EF,
FB2BF63C03D101FE04FFFDE503CBFF6A,
F00E0282FE96032306A0FDA505120A87,
06B4EEB3F5CBF2BA0329F1E502B0EE25,
F3D801140AEC10BFFF08004EF70105D5,
FEA0FF85F3C5FDE903A702F1F9AAF9E5,
20D3052B06DDF8B9FFF6056FFC27F0E3,
ED520454FFA216E1152F01C9FB8909BC,
EC2AF654FFCE002CF61405B9F4DE00E7,
0C2AF9F6FB33057EFD140CC102D30635,
F6ED01E8F86B028E0942FB8EFC5605E6,
023404150032FD5D08F4FDBA040C0893,
FD710511F650FD7BFF6B061D002FFC1B,
FD55F8C002BA0AA404C1FFA4FC35F8AD,
FF30FB950619084009290536FCBFF750,
FBCAEE6F0040F531FE8F05F61222FDD7,
0091069C052AFFF207BFFB020225FC3E,
FEA101A6FCBAFBF303A0F3B9FA3D0482,
FAAEF8D502AFFE8D0BEBF9F20BB60D21,
07B7F247FDDDF8B8FBB0FDFDFA7DFB25,
FB0FF4760620137102BBF81EFD640B50,
F71604C9FC930A74067706E1006003E5,
FFF20CB9FB8D074CFF4204D1F123FDD6,
F4950203FFC312EA0885FE6B0778FED9,
FD11FD1E0A4F0789FE700CCCF8A3F518,
010BFDA0F7440298FF17FD5A07B30165,
;   output 87
08FDFD06FF2110B0F3F4FBD20595075C,
01DBF5F1FE00FDFE0174FB4302A8F61E,
09E406F0FAAAFAC0FD0B00F4FA0F0358,
F712F8ED0AA500C6F9D0FF37E5BCFC6D,
FE9C008707AC06670B4E0729F3C50BD9,
FB080954FFD6F671EB59069A1429F862,
F9F6F53BFF15F13A157C08CE03F500E7,
F76FF7C008B305B7F657FB870B0AFB86,
E755F8C7021F038AFEEDF203E9630863,
017DFEEA06630313F674FF2006EC035C,
024F043EF49301CAFAB4021204CCFB97,
FEDEE286FB1C04570615FFE2F4AE01CE,
F41D0A87FD43FDF7FC930AF5019A010D,
F73705120034003306DFF8070A4BF8E9,
0277FDD505DAF0C5F5CA01C2F5E6FB4C,
F1B207220A8CFE5E028C04C7097B052B,
0385F7E9F5AFFDC4037D09A400790580,
F7A10CC6FD7E02570343002FF066FFA3,
0476FE74FB1F0B2DF33DF757097A0123,
04D4FBB506ADFFC708450A85034D00A8,
FFA1090AFF3A07320C95FFABFA8506BD,
017304F0003FF916F86409010AF7FEDB,
0195FE32FE4102FF0BE101AF0501FF45,
049A00110407FFC802C005E9FA6D0088,
F2E907EF0CAFEF370AB0002D04B2F5C5,
FC23F3A8F7F800CEFDCD042EF76B017C,
016A032FF127F869FC0DFEDC02F5F417,
0432F3F0094BF6F804A4EE0F045212C4,
F7F4061508C1FB21FB2AFED8FF8F063E,
0136F4F6002C00A8F17F076C02A703FB,
FD8CFE560475055FF809FBF101EFFF70,
01A1002006F304C7FCB4083902A902CF,
;   output 88
009207050098062E0CEEFFC0073903F8,
035AFEF0050CF46B04EB0A12FE430897,
00AAFF60FE22002AE75003640066FFEE,
0A3202D6018A01700454FD650274F788,
FD77011FFF9E049A03770207018BFD5A,
042D041B001001D5011202D8044CF988,
FDC8F930FFDD01450C56072300B10154,
F5A20BCDF49BFE240346FD4C02670394,
FB6007FE05B1FA690088FACDF563F8F4,
09BF0710042700DDFB0E0CB605B102E0,
0041FE000B0F063B00690BCF036C087D,
FCC80A460518F9C7067EFFBF0127FFFB,
01B4FF5E0384F956F9AB00400371FF8B,
F763FF5CFFFE09C30C87FF65FFE20D46,
FC0706A303E7FCB90442047401E9FBB8,
F8D403E2F77AF6B701E405B5FF9CF66E,
0219FF51F2E009D406890053074706D5,
EE8DECE9EB81F61200AEFD6508100610,
003AF7E9FCA5F59C01FFFF7F06180285,
FEFE00760329FBF80579FEEFFF37F183,
F85305020627E9B9F2FE0E55EFA40BAD,
F4A104D5FFFD05EB02E3FC1E06F1ED32,
FE8BFC970285075F0000019F008908C4,
FDEAFAA9F01DFD58E3FDFE85FCEC03E7,
0720F75DFC47074D0C31024A0402FFBF,
F705ED1DE76702B0FC7EFE6207700259,
06CA04DAF7450204FB020108FD26086F,
F83108A50044FDC0FDDCFD57071AF17C,
F63D0215FADCFACBF485F884F62E0566,
EC27FD8E0002FBB200BD0067FBB8E9F4,
F576F110FFDB080002AE096204C307F8,
FD64007DE159EE8EF2CBF47DECCEFD41,
;   output 89
0181016F00F4F690032D03C10BBCF9C4,
06A6074004C4FD33FEC7FE21FF0F052F,
0764F86EF979071E0653026AFB66018C,
F748FF98044AFA3504AA07260B7C09FD,
00DEFFC7049EFC26ED140281FAC2F871,
016203B90015FCAB08FC00BE02B7FE91,
0DC2077500F1024207B10454068AFD63,
FB57FF30F1E3FCC602E602C9EF6B0791,
0D97124002ED0061FEFC03C5EE410235,
0DDA054F09BC024304970BD4F6D7001D,
FDBB035BE09F079DFAA6070204A30647,
EF150BF3FF8A058DFFAF0635FC7000C3,
FE2A0022FF3A001BEE72FFB7F029008C,
0251FC98000F079EFC5FF9A3FC0BF3AE,
030D0189FC07F7F8FB9F03E8084CF729,
0013FA91ECDDFD2BF8B6FED5FDADFA02,
073E030B0957FA73054800410103FB29,
FFFC088CFF18054B01ACFCFD005BEF75,
070404AAFE02FBB202630926F3400014,
0296015E00B8F4A9F9FDF9ED0269FF02,
F824F6FC132BF6AF016DFD69FB3EFDC4,
FBEE0CD3FFB90D6FFEF30227048A0168,
FAD9F4CA05DA00DBF9C9EFB50534034C,
F2F1FBE10309045701420C91FD6BF21E,
06D500FEED53028DFD6502AAF9451141,
EA8D0137FCD5FC1BFE7EF405F2250363,
FC9008F9FC55F996F135041CEA5616B9,
06370F0CFC83F25EF6B2FB7FF6F80343,
F8BDF5290949F73006150C83FA34FDE5,
FCC80872FFB3045AFD4DF1E8FFE7FD16,
ED97F837FDFFF5FEF99CF5FB03B7F63C,
F9C5FE4309E0FB9603F502F00488F585,
;   output 90
FFBC00A2087906B9F90EFA70E3A4034A,
FFC3077B099AFE410B5F0342FB90F64E,
F7D6FC5BFFC802EDF995FBC1FEB5005E,
0171F35CFA8404D4F87E05280657F2A7,
FA0002C3005FF17DF92D0C39FC5901FC,
EA1607A5FFDD044BFB01FEF406F00D8F,
0612FB1202EDFCD60596FFF3FF46026E,
E754FB7DFC05F3C500760C2506D8EBEE,
E7FBFE81FC2E01EDFF910859F8A2FD5F,
05C7F1A908E5FEB406C70ABBF854F6B1,
FFBBF907F28E0F5501A8E41C027AFDC4,
10390344FFF5FEC6F742E60F0082FC8D,
F8BC0637F41AFD51FFFF063203BE0898,
ED5EFEE8FFF60191EEB6FCBC0EBCFFCC,
0564FF4FFCD8FBFFFA19FEF9FB53F88E,
FB4A036501341363011B006EFF34F790,
05ACFCA7FFF7005A021404EBFBCF0775,
043D017800D6F280026CFA10026FF26D,
