; IP:     Block Memory Generator (Single Port ROM)
; Name:   mem_dense_w
; WidthA: 16
; DepthA: 33792
; WidthB: 16

memory_initialization_radix = 16;
memory_initialization_vector = 
; dense2 (256, 96)
;   output 0
F9A3,
FDF9,
E98B,
FA4C,
0BF2,
FE21,
0475,
F4F3,
F85A,
FD88,
0AC7,
079D,
00CC,
011D,
FE53,
008F,
01A3,
F391,
020F,
FD3D,
090A,
FE28,
FE2C,
103B,
F81A,
FC5F,
FF59,
F9C4,
FD72,
F5FE,
FA86,
FE57,
F695,
FBAC,
F694,
FF92,
F9DF,
F7F1,
FA56,
02AB,
02B7,
FFBA,
0090,
07FC,
057F,
002B,
FD78,
078B,
00CB,
F35D,
EE14,
F8DA,
0598,
0290,
0552,
F834,
FEED,
0CD8,
FDE7,
F872,
0CBB,
FB5B,
F730,
FB43,
F3B3,
0713,
08A6,
FA6D,
FD18,
F6A4,
FE9B,
00E6,
FA89,
0FE4,
18A2,
FF9A,
FAE2,
F95C,
FECA,
0308,
F21F,
03FB,
05E7,
0146,
035D,
0FB1,
0045,
FF97,
FC0B,
FF1C,
0FFE,
FEBE,
06C7,
F24B,
007E,
0B2F,
0030,
F9CF,
FD62,
0605,
FCCE,
FC1B,
079F,
110E,
08DE,
00C9,
F965,
0079,
0306,
005A,
FCBD,
0D47,
03ED,
F19C,
FD19,
06EC,
057F,
FE45,
006F,
0803,
0A75,
0BA0,
FE76,
F347,
FA21,
04C3,
0667,
FE35,
FFE4,
0503,
EE03,
F0FA,
F7C8,
F6C0,
000F,
FE7D,
00AE,
0FA7,
00FC,
F299,
FFDD,
FA44,
F910,
F102,
05E2,
FFC8,
0526,
0B79,
0122,
F99D,
F353,
FFE8,
F125,
FEC5,
0354,
FA8A,
FD09,
FD28,
F7D1,
F9F5,
00FB,
F837,
F5B5,
0201,
0402,
09C4,
0190,
042B,
F977,
FA76,
EF7E,
F6CA,
EB46,
FFD4,
F88E,
F94E,
021B,
FF27,
ED4B,
FD9B,
FD37,
F697,
F46F,
FF62,
FEB9,
F603,
F390,
FD0E,
FEBF,
071C,
F44E,
FC01,
0542,
034A,
09C0,
0942,
FD43,
0C72,
040F,
FDB4,
FFDA,
02F1,
062A,
FA05,
FE64,
F8A8,
0205,
047A,
F8FB,
0321,
04E4,
FEC1,
0299,
0BE3,
085D,
FE08,
04C8,
F2BF,
1364,
FE22,
0DDE,
F843,
0F6E,
FF8C,
F794,
0218,
FFF5,
0097,
FDD1,
006D,
015E,
0D5C,
00B8,
019A,
FA85,
1013,
11BB,
0037,
027D,
0046,
F08A,
0424,
02EF,
06E4,
0385,
FDE2,
F90F,
FE92,
0F87,
0BB1,
F93F,
F9C6,
0A9B,
08A5,
005B,
0F47,
;   output 1
0296,
02C2,
F82A,
0069,
03C5,
01C6,
0635,
01FB,
028C,
F984,
04AB,
068E,
069C,
FBD2,
0A30,
0091,
FE88,
FAB4,
F99A,
FC18,
FBDA,
FDF2,
01F3,
FAF1,
0513,
043C,
FE9E,
F76E,
0151,
FD3C,
FB3D,
F6F5,
0233,
074E,
01AD,
F774,
F901,
F48C,
FED4,
F6B0,
009C,
FD31,
FA24,
0405,
0165,
FFFC,
044A,
FBD5,
02C2,
03D7,
FCE2,
0F12,
02C4,
F803,
0235,
022D,
F9C2,
F69A,
FD5F,
F78C,
F377,
031D,
F5CD,
FB26,
04E0,
FE88,
0D6A,
FE6E,
F1E2,
F881,
F465,
0ABB,
09C7,
0276,
05E4,
0776,
FCF5,
FC87,
FD4D,
FD9C,
0378,
00DF,
0290,
F7F7,
FB8A,
09DE,
FD00,
F941,
05AB,
0669,
0655,
0097,
F9EE,
FA7D,
0061,
FA78,
02EE,
02A5,
FEB0,
FB89,
F548,
FFDA,
FBD8,
FB91,
096F,
0468,
02A0,
022C,
00F6,
FFFF,
020F,
068C,
0963,
FF06,
FD4C,
F7F2,
0911,
E381,
F827,
09F5,
00B9,
0328,
FF61,
FDD5,
F0E1,
0653,
FB68,
0714,
0288,
05E1,
F311,
0116,
05DB,
0988,
FF35,
FC66,
1158,
0C29,
012A,
ECA9,
0D42,
F5C4,
0074,
086B,
0946,
024F,
0EB8,
01EF,
ED93,
08CC,
E8DD,
EF75,
0135,
10D5,
014E,
00FE,
05CC,
F7C7,
EF53,
EA7A,
07A1,
01D1,
F526,
EBA8,
FC28,
021C,
F636,
FEEE,
064F,
FA78,
F620,
00D2,
F78B,
FFFC,
0420,
F1A1,
0305,
F8DF,
088D,
F38C,
0434,
E300,
0324,
035A,
F389,
F906,
F8A8,
ED5C,
0DAB,
FCA1,
08AC,
F045,
F67A,
034F,
0CB8,
01CD,
FE75,
F9BF,
FB4C,
FDB8,
FF18,
0380,
00FC,
0036,
FC42,
FC89,
F0EB,
FFB1,
0816,
FBA3,
F8B2,
F9B4,
F525,
F7B7,
FD0C,
FD1A,
0477,
05DB,
0958,
0A7A,
F8F3,
086E,
FC8A,
FF86,
054F,
0265,
03E9,
F7B9,
F7E3,
04A5,
F6BC,
FAF8,
0265,
0CFB,
06B8,
1071,
F897,
FFF3,
0AFB,
FCEE,
0CA4,
FC80,
FFBF,
F7EF,
05FE,
F887,
FAF4,
06C5,
F8EC,
FD29,
FF5F,
F968,
F111,
0657,
FFE5,
FD3A,
;   output 2
FC67,
F618,
F962,
FB94,
023A,
FA48,
0009,
0236,
F977,
0394,
F752,
F51F,
03D4,
F881,
EB83,
F5AF,
06A1,
ED4B,
045E,
FE7B,
F614,
016E,
EE57,
FBC2,
FC7A,
0677,
FF39,
FF28,
01CB,
E7A7,
FD56,
F46E,
F93C,
E686,
F7A5,
EE92,
F29A,
FB40,
FDFD,
01EF,
03AE,
FFCE,
FCBF,
067E,
01BA,
0000,
F164,
F10D,
0567,
F682,
F704,
EF4D,
082D,
09A4,
EFEA,
F7B2,
0857,
FF3E,
04BB,
EA1E,
FD38,
FDD5,
0676,
E3F8,
F9D3,
FCFF,
FF53,
0633,
0580,
0830,
FB68,
FC42,
FE33,
05E1,
E865,
0330,
F266,
FAB5,
FE40,
EA08,
0F35,
FAB7,
0ACE,
022D,
F292,
F328,
F378,
FC6B,
048C,
0579,
FEEC,
022A,
0CD7,
FF56,
0AA7,
02BA,
FD03,
E5CF,
FFE5,
F920,
FF7A,
06C0,
FC2B,
0735,
FCA0,
FDCC,
FF33,
FCFB,
F9DA,
0008,
FE27,
F9D5,
FB3F,
FCC1,
03DE,
F61B,
0628,
04AC,
F502,
FFEB,
0330,
F526,
FE4F,
F814,
02E9,
0805,
062A,
01F9,
0998,
FF3F,
FC44,
FFE5,
07C7,
FEDF,
007C,
042F,
FBE1,
FD2F,
F351,
FD59,
02F3,
F954,
0498,
F7E9,
03BA,
03D9,
0B28,
0789,
F773,
FE09,
F97C,
FD45,
FB0A,
0453,
FD39,
04B6,
0234,
007E,
FE54,
0A4B,
0819,
0079,
FE42,
FF91,
0262,
0017,
0202,
01F5,
FC14,
06FB,
0289,
014B,
FFBB,
0007,
F105,
00AA,
0C5D,
FD2F,
F500,
068D,
FF83,
0029,
FECA,
04C6,
02CD,
050D,
FF98,
FC71,
0806,
01B6,
FF76,
04CD,
FB6D,
02DF,
0B63,
FDC9,
FD02,
0708,
00DE,
F81B,
062D,
F0EB,
F1FA,
0737,
FEF1,
F42E,
F82B,
F151,
F48F,
079B,
F9F2,
04FA,
0207,
02FB,
FA8E,
FD35,
00F4,
0726,
F45F,
0463,
02D7,
04D1,
FB01,
0448,
FEFA,
0412,
0071,
047D,
029B,
0376,
FD24,
0394,
01B6,
0A4D,
00CF,
060D,
FA08,
0001,
FDAD,
0BD2,
EEA7,
FF8B,
00F6,
02D2,
03B1,
0122,
F500,
FEA4,
03B6,
0701,
0BE6,
F744,
F77D,
0080,
F53B,
0B4F,
;   output 3
0944,
F2C8,
099F,
FA8B,
FFC9,
EED2,
055A,
01D0,
0828,
01D4,
F7AE,
096B,
FC30,
01B6,
F452,
E0D5,
0567,
FA6F,
FDD7,
F6FF,
EDD6,
F909,
FACB,
FA1F,
F7B4,
FAB5,
022E,
FFA7,
F643,
07A2,
FEE9,
FF8E,
04D9,
0530,
EB39,
F9A4,
EBF2,
022B,
040A,
0761,
04C3,
FC7A,
0250,
06EF,
FAFB,
FFFA,
068B,
F7AF,
01FD,
056B,
F523,
F68C,
FE72,
F56B,
01F2,
FC9F,
0043,
F2F2,
F553,
EE15,
04F5,
FB15,
FA2A,
EDC8,
FC62,
FAB0,
03CC,
FEA4,
FC2B,
F82C,
F38F,
F37D,
FF1D,
F6BB,
FDF9,
0600,
0044,
F55A,
F40F,
E7F1,
05BD,
F9FA,
0051,
E556,
F03D,
F854,
F9DF,
FA98,
F31F,
0F43,
11BF,
F761,
0244,
0340,
0458,
02D3,
037F,
FC19,
F6E5,
EBEB,
EB5D,
001D,
FDFF,
FD1B,
F610,
01FC,
06A8,
F7A0,
FB95,
FFFC,
044E,
FF7D,
0214,
0150,
FC5F,
FCAE,
07AF,
F74A,
06AB,
F28C,
EB29,
ECA8,
008E,
E878,
FA05,
FC6C,
F735,
F636,
0181,
0381,
01DA,
06ED,
0367,
00E9,
028C,
FFF4,
05A7,
0200,
0246,
0528,
FEBD,
FC94,
EE42,
FC21,
012A,
062D,
FA7F,
0C15,
FD47,
FCEE,
FF2D,
0479,
03AB,
FF3E,
03BE,
0AB7,
067A,
0238,
F771,
02FE,
014A,
F7BB,
0471,
F3F4,
FE0F,
FC08,
FD09,
0809,
0419,
023E,
04E1,
FB37,
F560,
FFF5,
0196,
FD75,
0460,
0248,
FCC2,
FF15,
08F7,
F4DC,
0742,
FFD3,
0755,
F5C9,
FD57,
F358,
0121,
F9DE,
FDE5,
FCBA,
FEB7,
03C5,
07BB,
017E,
FD3A,
FC4D,
FA13,
FA84,
0871,
0468,
F8F6,
FAF9,
FFCD,
02C8,
F7FC,
FD4D,
0281,
02B1,
0028,
FBDA,
EDDB,
01A0,
F752,
FF55,
0306,
085A,
F69C,
0552,
0550,
0395,
01FD,
01B6,
00C4,
FE5C,
02D4,
FF02,
FB5A,
0331,
0303,
F7B4,
018A,
0324,
055B,
F621,
F672,
0003,
FD27,
00B1,
F9F1,
01D7,
FABC,
05E6,
055D,
FBAC,
01B3,
FEC9,
F995,
F420,
F6A0,
FE53,
F67B,
FD2C,
F921,
0635,
;   output 4
FFDE,
01EC,
FE83,
1668,
F3B0,
F67E,
F385,
01A1,
F077,
FD47,
00C8,
FBE9,
01E4,
048A,
092B,
04CC,
F743,
0890,
FB9F,
004F,
0994,
FEC6,
FDAD,
06CB,
0245,
0ECB,
0108,
0F7E,
FAC6,
0A4D,
F761,
F019,
0B9C,
0162,
0408,
F78F,
FF4D,
0257,
061E,
E89E,
FA34,
0475,
F8E1,
FF4C,
01E5,
FF9D,
0388,
FD42,
0140,
0507,
0C66,
07E1,
F344,
FD5F,
0A99,
0AF8,
F8BF,
FE2E,
FEC3,
052C,
FC57,
F485,
1584,
0452,
06C9,
FC81,
FDA6,
FA0D,
F31E,
F50A,
FE5D,
037B,
155D,
F32F,
03EE,
F847,
03E4,
0517,
F817,
F950,
0090,
0745,
FDBA,
FDE6,
00F6,
F553,
066A,
091F,
F820,
F2D7,
12C9,
F696,
0198,
FB08,
00E1,
0727,
06B2,
FAFA,
F82B,
F9A5,
F7D6,
02EE,
00E4,
0295,
0681,
FCE2,
FE59,
FB2D,
F990,
FFEE,
FED1,
0A9A,
FE13,
01D6,
F380,
0A0F,
EE46,
F95B,
F48F,
016F,
0BC6,
038F,
0527,
FB30,
F86B,
01F8,
07B4,
0AB0,
0A96,
0241,
0D71,
FD25,
0243,
0159,
FD06,
0065,
FD9A,
00BC,
F442,
FA84,
F24D,
FEE7,
FEB0,
FE23,
016F,
05EB,
FFC5,
05F5,
043F,
078C,
0715,
0270,
F220,
EAF1,
0B2D,
FF01,
0583,
05AD,
066E,
F156,
068F,
0216,
FC1E,
F6F1,
F228,
FBB9,
FD7C,
02DC,
03FA,
04AA,
F8A2,
FB60,
0155,
0019,
F5AB,
056C,
0528,
09BC,
F57E,
00EB,
0490,
FAB4,
F4D1,
00DC,
0259,
0196,
04B9,
FD1F,
ED30,
0492,
F87A,
02FC,
052A,
FD8C,
002A,
F5EE,
F902,
0335,
04B0,
FA85,
FC3D,
E6E2,
01C1,
FAB4,
F5AC,
03CC,
1379,
045E,
F3BD,
0ABA,
00A9,
FC40,
0848,
0A54,
01A0,
0B9D,
F903,
FB4E,
0B0A,
0456,
F627,
F87D,
F89B,
05FD,
0705,
05C7,
0123,
13B2,
0379,
02B0,
FACC,
03FB,
FC7A,
0156,
035E,
FBF5,
03CD,
0079,
0898,
03EA,
EA48,
06A7,
0882,
F907,
0048,
0419,
FF93,
FCBF,
FDCE,
FA28,
F76B,
030E,
051B,
07BC,
FD23,
FB4C,
;   output 5
F87B,
EA1B,
FB23,
FEA3,
FBDB,
EED1,
F1CB,
FDA9,
FB20,
FC25,
E9CA,
0936,
E23A,
F8DD,
E945,
F663,
0471,
F9D4,
FCB5,
FF7B,
F012,
F6C2,
F799,
F859,
FB05,
08D0,
F1C0,
F9EF,
05D2,
FBD8,
FA42,
FF84,
F2D3,
EBE0,
01E7,
F3FC,
EFFE,
06C5,
FEBE,
0793,
F613,
046E,
FC93,
FB9C,
0086,
0005,
FAD3,
F56D,
031F,
02E8,
FB41,
F5BE,
046C,
FB92,
EC46,
F96D,
FA41,
FBB4,
05D8,
F20E,
FCC0,
E894,
F2F7,
F5D5,
FCFC,
FDC2,
07D8,
0BF8,
FC71,
0B6C,
EB6F,
F34E,
F66D,
0124,
F9E9,
F57E,
F768,
0D9E,
FE51,
FA98,
05E8,
0730,
0399,
FE06,
F157,
FD43,
F28D,
099E,
0239,
0975,
0EC5,
0871,
FD9D,
F2D1,
FD63,
065D,
0BAA,
04A5,
0473,
FEAA,
F8FC,
0448,
FD67,
00F5,
FBDD,
FED4,
F096,
E9AE,
0680,
FFFD,
FE88,
0479,
02C8,
F9CD,
0705,
FFA2,
047A,
EBD7,
F8F1,
FCD3,
FE60,
F76F,
FFBE,
06A8,
FAA6,
00B5,
F4BA,
F3B4,
088C,
FBFE,
0549,
FED8,
0090,
FB0F,
FD09,
074F,
F8B6,
0411,
F8FF,
0157,
F850,
FDC7,
01DD,
FAF9,
00E4,
F18D,
05D8,
FDB8,
01C5,
FDDA,
0388,
075B,
0418,
F944,
00CD,
01C9,
FE2D,
01C9,
05B2,
FE36,
FB6A,
F859,
0277,
0155,
02C7,
096B,
0476,
03A4,
017B,
0781,
04B2,
0AEF,
06D6,
000B,
0111,
0175,
02CE,
FD81,
FB57,
FEFF,
01C9,
FFC9,
048A,
07D4,
09C6,
005C,
0302,
01C7,
F8A8,
FD8B,
033E,
05A9,
FD52,
023B,
0922,
0399,
040A,
FCBE,
F1CE,
0307,
00CA,
08CA,
EFE6,
FDC8,
FC5E,
FE9A,
0BEA,
FF1D,
0A07,
FF96,
0410,
0AD3,
F884,
FB09,
0107,
05A3,
00F6,
FE06,
054B,
FFE7,
024A,
06E7,
0D1D,
0438,
0FCE,
05EE,
FEDB,
02EA,
FDAC,
FF98,
F782,
FEF5,
051E,
0BE7,
0309,
F9B1,
FC53,
0000,
0694,
FC36,
0047,
0793,
011E,
FF60,
FB75,
01E3,
01D5,
0A05,
08B4,
0995,
F62A,
0272,
0210,
05AD,
FCFA,
02F0,
;   output 6
FF8A,
FE71,
02C3,
0901,
0A46,
094B,
FD64,
F533,
F065,
F439,
FE96,
FBE7,
FD91,
05D6,
0415,
FDA0,
FD1B,
0866,
F9B3,
F9C3,
ED2D,
F7F5,
01F7,
0146,
0757,
0A83,
EB90,
043D,
0117,
FB81,
090E,
0462,
FDB1,
0BE3,
0619,
F155,
0192,
FE5F,
075C,
F4D5,
FD2B,
02D9,
0E06,
0030,
052A,
FF88,
058C,
03A1,
FB43,
0918,
02E8,
FFB6,
F7EB,
07AF,
0DD7,
0252,
FFA7,
05DF,
0E96,
0290,
063F,
FD95,
0D03,
FCAC,
F60B,
0E5D,
FAFA,
E231,
FCDF,
0055,
FAB6,
F598,
FA8A,
0490,
00B3,
FA98,
0562,
061D,
F713,
F43C,
F554,
01AB,
0438,
0307,
0243,
FCF4,
0A1B,
0425,
00C5,
0378,
0BDD,
F759,
F2F0,
0542,
00F6,
0100,
07D4,
0829,
F7D3,
0004,
FE92,
F8AB,
F6B7,
021E,
FF44,
0C1B,
06FA,
00AE,
FCC9,
0067,
FCF8,
FDFE,
F1E6,
0124,
E9D7,
FB09,
0576,
03E4,
0629,
0BEF,
02C9,
0425,
0149,
F34C,
0F90,
FE1D,
ED92,
FE43,
F576,
0476,
07C1,
134A,
0506,
0908,
F6C0,
030F,
F550,
F994,
E908,
FDD9,
F61C,
FD95,
0BCD,
F9F2,
04C4,
0DC8,
037D,
06C4,
FD3C,
0141,
06AB,
0221,
0055,
F3A5,
F7E3,
FDE7,
0392,
0037,
1584,
F942,
F8D8,
0A1D,
FF40,
03EF,
1342,
036F,
050A,
F654,
F2B0,
0046,
0785,
040B,
0140,
FF9D,
0689,
FD4C,
F95F,
0CD4,
0427,
0CDE,
0C3B,
00AB,
FEF8,
FC95,
0330,
0D64,
034F,
F56E,
FEDE,
01C9,
0301,
0478,
FA61,
02D9,
F1CD,
0551,
08CF,
FE0C,
0375,
02C2,
0052,
02D4,
0584,
058B,
0529,
FFF6,
0127,
F764,
010F,
0343,
02F8,
00DE,
F60E,
FA2E,
1294,
035B,
0A38,
F820,
04E2,
FD90,
0427,
0760,
017D,
F986,
0124,
09A1,
011D,
061A,
0D7C,
06C1,
01CB,
04C8,
0FA5,
07A3,
02BD,
0C2A,
0C48,
0006,
06C7,
FF91,
FB0E,
FC03,
F908,
FB6E,
0596,
076B,
03EF,
0629,
04D1,
04A3,
00B4,
F7B7,
F5A6,
022E,
051C,
050E,
;   output 7
02A7,
F8F3,
F60C,
F763,
03BF,
03DC,
0177,
F4FE,
FC3D,
071B,
F9FE,
FB83,
FD9D,
0848,
00FF,
FDAC,
FD29,
F6B1,
FEAB,
00DB,
F494,
0104,
07C1,
F532,
FCA1,
FCD1,
FF5C,
0948,
FEF7,
00C7,
FEC2,
0052,
01FF,
03E9,
F9B1,
F836,
01EA,
F4FE,
F509,
0AC1,
FCBF,
FC23,
FCCD,
0615,
F7C2,
FFD1,
F7F1,
020A,
FD23,
FDFE,
F37C,
F78E,
0783,
F7BA,
FF7E,
0623,
0543,
00D3,
F663,
0248,
0CAD,
FB6E,
E817,
02D4,
021C,
F304,
029C,
F436,
0571,
0159,
01B1,
01B9,
1188,
085D,
EAC1,
FFE2,
0252,
023A,
FCEC,
FA94,
03A3,
E744,
037C,
FED6,
FB27,
0930,
01B6,
F349,
F4C1,
FBB0,
F95C,
FDB2,
FD72,
FAEC,
0772,
EC0A,
FAE8,
F61D,
0002,
F8C4,
F9E7,
020F,
00AE,
0E38,
F17B,
0166,
FE86,
0E04,
02BB,
FFF0,
075A,
F9A1,
006A,
08CE,
FF7E,
F928,
FDF8,
003E,
FC8D,
F89D,
0683,
0CC4,
FF8D,
01F5,
140D,
F699,
F82F,
05B8,
FC89,
FF25,
0CBA,
FAB2,
06AB,
05C1,
001C,
FBBB,
0D17,
06DF,
FC4A,
074A,
00EC,
05CE,
F69F,
0622,
FF65,
003D,
FCB7,
04F5,
FF92,
FD9C,
FD49,
03E6,
FE18,
FC5C,
0542,
FF5B,
04E0,
0115,
F6B1,
E89A,
028D,
00FA,
05CA,
0651,
066D,
F432,
ED9A,
0277,
0555,
FDD5,
0963,
0E3D,
F977,
0013,
FC87,
FD0D,
FDA9,
FC1D,
0C92,
01A6,
032D,
F95B,
0152,
F20F,
0368,
0216,
F79F,
0311,
FE57,
F8FA,
0048,
09AB,
FE48,
FEB9,
0719,
036C,
FE01,
05C0,
044D,
0783,
FBDD,
F25D,
032F,
040B,
FCC6,
060B,
1385,
02BE,
0FE5,
F436,
0150,
FB8E,
0E49,
ECAF,
FC94,
068E,
02BB,
0072,
0F85,
0BBD,
EFC2,
0722,
0803,
FFBF,
FF25,
F4FD,
0A23,
083F,
FDAB,
FB40,
ECD5,
05FE,
04A1,
096A,
F907,
FDE0,
0451,
0076,
0C66,
0156,
1006,
FE49,
07CB,
033D,
FD0B,
E713,
05D3,
0416,
EE76,
0332,
0698,
FCF3,
F529,
F6F6,
034F,
07CB,
;   output 8
018C,
032F,
0178,
08BA,
EF10,
09D1,
F3FB,
FDDF,
FE50,
EBBA,
08AD,
068F,
F0BA,
04A8,
04B8,
0052,
E980,
F4C6,
FD9F,
F45A,
FC9A,
030B,
EE8C,
F4BF,
0084,
0566,
0191,
0A8C,
FAA4,
F789,
FD5A,
F124,
02EB,
FD0E,
06D4,
FC97,
F8DC,
F591,
F8EF,
EF4B,
F9BC,
F1FA,
EEC8,
026B,
0778,
FFFF,
F0BA,
EEBD,
F23F,
E651,
0893,
02E3,
FFEF,
0106,
FC97,
FFE9,
00F7,
F768,
FA40,
0494,
FE61,
F150,
077F,
FB31,
FDFD,
FBF0,
FB27,
032B,
F305,
FAE3,
01C0,
FD34,
F651,
F1C1,
F6A9,
FA23,
F46F,
0A21,
08B5,
00AF,
F931,
02AB,
F460,
FB39,
0BC7,
045B,
FEF6,
F9D0,
FA76,
03DB,
FD71,
1042,
FE2A,
05FF,
F86B,
FC50,
0378,
FC68,
FFEF,
F942,
FB4D,
FD70,
091E,
0271,
103D,
03FC,
F5F5,
046F,
0AAC,
0009,
FF7D,
F388,
08BF,
FE8F,
FD52,
FAEF,
0291,
0500,
0180,
08CD,
FDE0,
01C6,
07F5,
0196,
0263,
0716,
0070,
032D,
05BB,
F5EF,
FDCD,
0D58,
FFCE,
0710,
F408,
FC87,
ED98,
06F6,
F287,
F11B,
ED2B,
0604,
0175,
0945,
F2AA,
FADB,
0A9C,
06F5,
FE17,
0601,
FE8B,
0790,
FF73,
041D,
FA3A,
0A28,
058C,
F7DB,
FD6F,
FB71,
FD16,
061C,
0652,
039B,
FE25,
F76F,
FF35,
0282,
F39F,
026B,
FB56,
0A21,
0B2A,
000C,
00CD,
FB09,
FF84,
FA26,
FC90,
F991,
F935,
FCD7,
0194,
0147,
06E5,
07E7,
0761,
01DD,
0438,
FDBF,
FE7D,
0820,
0B30,
FE5C,
0336,
0311,
01A9,
0867,
F45D,
F8F9,
F201,
F3DA,
F2FA,
0996,
F4FC,
010C,
08BD,
0654,
0368,
FBF5,
F0FC,
0345,
0629,
047C,
FFA9,
F4AF,
08FB,
FF7C,
041C,
07FC,
FA7E,
08C4,
03C3,
04A2,
FC20,
03BA,
05BB,
0CC6,
04B2,
FAF2,
08E6,
09E2,
FA86,
02D0,
FB15,
0FBE,
0DF8,
FFEF,
0370,
F319,
0B50,
FFB6,
0131,
F961,
FF72,
0405,
051F,
FFF9,
015C,
04E3,
05D9,
01EF,
09E6,
FF90,
F7CF,
FE4D,
;   output 9
0073,
EC3C,
F799,
F85E,
FDA9,
F9BE,
E7F4,
FC9B,
0871,
0386,
FB71,
ED20,
F920,
FF77,
F6FE,
FC7C,
FFF5,
F877,
0520,
05E5,
0177,
03C7,
F419,
FF9C,
E5DE,
0566,
FC1C,
02EB,
047C,
EA7D,
03D1,
F550,
FCDF,
F6C6,
01F7,
E974,
EA88,
F1BC,
F944,
F1E4,
F308,
FACB,
F149,
0192,
006B,
FFFE,
F5AC,
F9C4,
FED2,
F959,
F054,
F9F8,
0841,
FF0F,
F267,
0AAE,
F49A,
0028,
023B,
F4C0,
027A,
FEBB,
062C,
F824,
02BE,
FB43,
0608,
F97F,
07B8,
FA40,
0092,
030A,
0B1F,
0CC6,
F233,
F7C1,
F974,
FF2F,
09FE,
FD82,
0564,
FD5D,
03A3,
0988,
0416,
FF52,
F886,
07B1,
0019,
0062,
096D,
FBFA,
0341,
0295,
07B2,
0994,
FEAB,
F8A8,
F5ED,
F97B,
F692,
0088,
0343,
03E3,
EC73,
0689,
F179,
030A,
09AF,
0013,
0534,
0202,
089C,
FA12,
F98E,
06F8,
FF9B,
0C1C,
F75C,
095E,
08E8,
076C,
006C,
FEFC,
FE20,
01E1,
FAC8,
015C,
1369,
08DD,
077A,
08EE,
FFB9,
0186,
FBD5,
0BA8,
0E8D,
FB82,
F4AA,
FCD0,
FDFB,
037F,
FC2D,
024A,
0800,
0669,
03C1,
0CAE,
FAE1,
058E,
FE4B,
FE21,
0457,
0066,
03A1,
0559,
017D,
FCEC,
0599,
04FB,
0547,
FD77,
057F,
F9E7,
02D0,
03D7,
F64E,
FCF2,
04CF,
008E,
F704,
F715,
F96E,
FFF4,
0867,
038D,
FE8D,
0292,
FE85,
0D2D,
0425,
F38A,
FBF7,
05BF,
FD9B,
FF3B,
FB5A,
FC4B,
0647,
0672,
078C,
FB33,
0A32,
0AE1,
F8B7,
F83A,
036D,
FF5C,
FDF4,
FA4B,
031C,
FF02,
0B23,
F402,
0151,
059C,
0922,
F9AB,
00CA,
042B,
FF34,
F30D,
FBA2,
F89D,
F9F6,
0196,
0008,
FC41,
0567,
0FC7,
03A8,
F910,
FEC6,
04F0,
04AB,
F5D7,
0375,
025B,
0AEA,
03A5,
FB97,
04DA,
0427,
0109,
FC19,
EFFA,
F782,
0020,
0439,
FD99,
F543,
013C,
FEAF,
01CD,
E87A,
0065,
0410,
FB28,
F65F,
E8F2,
FA84,
08A3,
FF8E,
FD64,
FC71,
F218,
;   output 10
F453,
F95B,
F6DC,
0574,
F76D,
03E7,
FA80,
F846,
02A5,
ED6A,
F919,
F3DF,
0233,
FBEB,
F63F,
FA42,
F3BD,
F95E,
F26C,
FBE0,
F6D6,
F947,
00A1,
FFE7,
0381,
07B4,
FD55,
0228,
FD97,
EEC1,
FAAC,
FAF6,
F72D,
FCF4,
FBDB,
FF42,
FB04,
FE9B,
0327,
F2BB,
F856,
F324,
F4BF,
FB3C,
012C,
FFA4,
ED77,
FC62,
F272,
F168,
0156,
FF7A,
0FF4,
F929,
02A8,
03D7,
05EA,
0897,
F78C,
F855,
FDBA,
00B4,
0A20,
FE3D,
FD95,
FC14,
ED29,
02BE,
F524,
E7C1,
F483,
F98E,
F558,
F7A7,
FDF9,
F3BD,
F62E,
FB44,
EC18,
02CB,
F2E7,
F760,
E56F,
F5C2,
092F,
FB33,
FD96,
040E,
0BA8,
095F,
003F,
0A34,
FDD1,
F10C,
F914,
028D,
F685,
0467,
FD35,
0174,
F976,
F10C,
EE10,
FBDE,
10B0,
001B,
F894,
EFDF,
FFA7,
0081,
FD59,
F4E3,
0574,
F1DB,
FC73,
F4D3,
0787,
FB05,
F602,
FD8B,
F80C,
00E3,
FD27,
F42C,
01E7,
0639,
FA10,
F895,
FD45,
073A,
FFFE,
0114,
04C4,
09A5,
EADF,
FC37,
F4A7,
FD68,
FD07,
FC05,
F934,
0437,
0113,
0199,
F110,
038C,
021B,
01BA,
FAD2,
03D3,
F9C7,
07A6,
FC89,
0977,
FBE6,
F7F3,
FF7C,
ED90,
01B5,
FB1C,
0286,
03F4,
FF0C,
FF68,
011B,
F31C,
05B3,
F05E,
FC55,
047A,
F599,
0079,
F99B,
0096,
0175,
F291,
F89B,
FDE0,
F85D,
030C,
01DA,
056D,
095E,
04C1,
0536,
041F,
F211,
FBB8,
03A3,
033D,
FE73,
FF76,
EF17,
FEE8,
F704,
00D0,
002E,
02E9,
F5AB,
FE07,
0056,
044C,
032D,
FBE0,
0385,
04F5,
FE94,
0055,
FDE3,
01F5,
02A3,
03F5,
00B7,
FE21,
0019,
02F1,
00B8,
0C17,
FA74,
07A6,
017A,
F8B0,
EA4C,
0316,
04DE,
01FA,
06C0,
0465,
FE36,
F7B8,
0575,
F52E,
FCA3,
0247,
FF6D,
FACA,
FCB3,
FFC6,
0327,
0037,
08A5,
FC2D,
0789,
F0AD,
0084,
0611,
032C,
FDCA,
05C7,
FF5C,
F869,
FCC8,
FD50,
04C0,
F844,
F525,
;   output 11
0084,
FC4E,
FB38,
09B0,
FFE6,
0341,
FF27,
0A37,
0000,
052F,
FD5D,
0131,
FD3F,
0106,
01AA,
FBA4,
0249,
0113,
02F5,
FE3D,
0A71,
0BEF,
002E,
05BF,
040A,
04A0,
0309,
F56C,
0435,
FBAB,
06AC,
FA5B,
0699,
03D4,
FA45,
FF02,
FDFD,
09EE,
087C,
FED2,
0683,
FF8C,
FA5E,
0299,
030E,
FFF1,
02DA,
0385,
FB5B,
00A3,
010A,
0811,
FFBC,
0D48,
025D,
063D,
019C,
0B40,
037C,
FF7C,
FDC7,
096E,
F872,
FDE2,
FFD5,
0BC1,
FF54,
0613,
F86E,
FF84,
00B2,
0409,
097B,
06F2,
FD9C,
FE8A,
023A,
FA46,
021E,
03A8,
00D1,
FE6B,
0AEF,
FE32,
0047,
05B0,
02DB,
04DC,
018B,
0565,
FC3D,
F9C2,
FC0B,
F96F,
0AA0,
FD19,
FF54,
05B4,
0144,
042E,
0063,
04B1,
F8A5,
FC3F,
F3AC,
F96F,
03DD,
0AA4,
0068,
FFEE,
0325,
032F,
E72E,
F8D2,
F51A,
FFE8,
FBDE,
0415,
00A9,
04A4,
F98A,
0038,
FD08,
00BA,
FE27,
05AD,
0CBF,
FD32,
0349,
FD12,
06ED,
078F,
044B,
059F,
0488,
FDD0,
0359,
024E,
04BA,
0A32,
F575,
FF82,
F2A4,
0048,
FFA0,
0149,
FE9A,
0252,
F868,
FE10,
EF60,
F7E8,
00EA,
015B,
022F,
0500,
0070,
FFCE,
0244,
03CB,
0D63,
078A,
071E,
FA2A,
FF71,
F18F,
0354,
02EC,
0040,
F3E2,
02B0,
042F,
F90B,
FFED,
0538,
F7E1,
FF7C,
F7F8,
0A7D,
FA38,
0357,
FF24,
08E2,
FA8D,
0D51,
E7B2,
EBAB,
FB93,
F5A0,
FD78,
FC30,
F7FD,
EF66,
F604,
01D0,
0660,
ED7C,
FEAF,
0512,
F23A,
FCAA,
FA66,
0927,
0322,
EC9F,
018E,
F5D5,
FF31,
043C,
F53B,
FE31,
F5D6,
F9DD,
FD29,
FF03,
EAAB,
F969,
1010,
EEC3,
070A,
E851,
FFFF,
F40E,
FD56,
0AAC,
0629,
0502,
F09C,
F58B,
EE1E,
F6AF,
EED1,
06BF,
ECC2,
FCA9,
FB17,
F671,
FFF8,
087B,
F586,
F64F,
E464,
03EC,
F0B2,
0555,
02A1,
06F7,
EDE4,
FC5F,
EA30,
EC31,
FA42,
F6EA,
F916,
03EC,
F93A,
;   output 12
F867,
FD4A,
0DCB,
0D26,
023A,
0366,
0341,
FF9A,
009F,
F9AB,
0627,
10E3,
0997,
F175,
F86F,
F7F6,
048A,
FEAB,
FB7C,
F8C0,
EA00,
F507,
024C,
FFD1,
0636,
0A75,
0874,
004E,
F9BE,
004A,
0850,
02A3,
097C,
0BD1,
0A60,
EDCD,
FF46,
0C0A,
FBA3,
016C,
0DE0,
F644,
04B5,
F733,
F861,
0004,
0824,
FA41,
FADF,
F726,
120F,
FC9A,
FB68,
F443,
0BD1,
FEBD,
F4B5,
FCC9,
F25D,
F023,
F7A3,
0369,
FDE0,
EF36,
02CF,
02CB,
FEBB,
059A,
FDE9,
EFE5,
07B4,
0C4C,
052B,
0475,
FE61,
FCA4,
01CD,
01B8,
F4C9,
EA62,
086B,
0194,
0677,
FFF6,
F38A,
FB3A,
FC5D,
FB78,
027F,
0551,
0D3C,
F0DA,
FE5E,
FB68,
0685,
F729,
0096,
FA7A,
FE95,
EA26,
FC01,
02C6,
F93F,
FF6F,
ED75,
FFC2,
FD33,
02AC,
F5DC,
FFF1,
0053,
FE05,
09A1,
FBBC,
00CF,
055E,
02FE,
FBE9,
F8DA,
FCA2,
0539,
FF9E,
FDAB,
F611,
FE84,
0FDE,
0A7F,
FD6C,
F5A0,
F852,
0B8E,
00C7,
03ED,
E8E6,
0652,
F6DA,
0129,
F8C7,
040A,
0CC6,
06C0,
02FA,
FA0E,
FB07,
034C,
0086,
FCD1,
F731,
F9AF,
F669,
0001,
F7B5,
005B,
FC9E,
FFAD,
F7F8,
F8E8,
071A,
0040,
FF9B,
0384,
FE51,
FFC3,
F8D6,
FBA5,
FE1E,
FD75,
0203,
0430,
0099,
0C97,
03C4,
FEF2,
FFEB,
06B8,
0013,
FFC4,
061B,
F9FD,
FE5C,
FADD,
F5C9,
06C0,
F3E4,
E9C4,
F696,
F477,
03C5,
F605,
F5D2,
EAEE,
EBF3,
0E26,
02C1,
04FA,
07E6,
FD14,
F9C4,
FEB3,
066E,
FF50,
0BBB,
FF3B,
0990,
FEBB,
024C,
F91D,
0A0F,
0FA4,
F6C6,
070B,
091B,
F8FC,
08D5,
00BA,
07CC,
01C2,
02D1,
0437,
F2B5,
010D,
00DA,
0892,
FAA6,
FE36,
02AF,
060C,
FE77,
FE29,
FB9D,
0C58,
0B78,
FBB2,
FFAE,
FDDA,
0192,
05AC,
FFE7,
043D,
07AE,
00EF,
FCDC,
FBC9,
FD4D,
08FF,
0352,
0073,
F80B,
0755,
0CC8,
0056,
FF8F,
FF00,
0535,
04E7,
034C,
;   output 13
FB80,
FFB8,
F90A,
F644,
F5F7,
0C33,
0200,
F6A6,
05CC,
00F3,
13C2,
FD1E,
051F,
0820,
04AC,
044A,
FC92,
E8E2,
FCB6,
0435,
0816,
04E2,
04FE,
F3B0,
0C44,
0539,
02D3,
0585,
FD79,
F1FC,
0519,
FBFC,
0121,
090D,
055A,
FB8E,
FCC3,
EA5E,
028C,
F983,
0A3E,
F8EF,
FCB8,
0058,
FE3B,
0016,
04C9,
045A,
F5B4,
F382,
FBEF,
03B3,
0AE7,
05E2,
0803,
06A4,
FEAD,
05FD,
F8AE,
04C2,
05EF,
0133,
02AE,
0747,
02FB,
FC3B,
FFC6,
0362,
0673,
FCA6,
053F,
FC4A,
F910,
F738,
F74B,
FD75,
0207,
022E,
FDE7,
07BC,
FB07,
FFBA,
F0DF,
02D5,
0BAD,
0313,
F7CE,
F123,
0889,
0019,
EA82,
00C7,
030B,
0526,
0411,
FBF7,
FA5B,
FF40,
FF14,
FA47,
0590,
FBE0,
0C0C,
F897,
0591,
F54B,
030C,
0C56,
0BED,
FFFB,
055B,
F150,
0470,
FF86,
FED8,
FEAB,
05D9,
0BDD,
074E,
07F4,
03F1,
0918,
0A57,
0293,
01A6,
FE95,
0051,
F780,
EB66,
091E,
FAC8,
023E,
EB8B,
EEEF,
F949,
03C7,
F91C,
FA99,
02D9,
FC7D,
FB54,
0074,
067D,
EDE6,
FF35,
019F,
08A4,
0637,
FAD4,
F3D4,
FD1D,
00C8,
030A,
009B,
044F,
FDE6,
0363,
FD23,
FCFE,
006E,
064D,
E05B,
F502,
0596,
054B,
0B99,
FE50,
FE83,
0657,
034A,
F788,
F90C,
EE3B,
0006,
F2E1,
FB4A,
01DE,
0897,
FCF4,
FC4C,
029C,
FE75,
0297,
0779,
F535,
EF08,
F1C2,
FD9A,
F5A5,
04FE,
067C,
010B,
084C,
05EB,
0166,
FEAC,
FB0B,
F791,
0385,
062B,
0127,
FCA8,
FD7A,
064B,
FB78,
FD16,
0043,
F43F,
18CF,
05A6,
05D6,
0192,
F5CB,
FEE1,
F929,
F6FE,
FD21,
034C,
057E,
FFD2,
FEB1,
04A5,
034D,
013D,
F086,
E508,
FC52,
0458,
FCF4,
03FC,
07B4,
F195,
FD71,
0956,
FB65,
FAB0,
FC29,
FFE9,
FBE2,
F385,
0803,
FE3B,
FEC3,
FE2D,
FE82,
F5E4,
FDB1,
0853,
F3A2,
F745,
02FA,
FA3F,
FECC,
F5C3,
FAD8,
FB6B,
;   output 14
00AE,
F4FA,
06B6,
02F7,
068E,
F8CB,
03AF,
FD56,
FCF0,
FD0A,
FFF7,
04C2,
F328,
087A,
0389,
01AE,
02CC,
F603,
0523,
EB32,
FE60,
FE46,
03F3,
FF28,
FF0F,
0272,
F8AF,
02F0,
FE56,
056C,
0438,
0545,
F35C,
FE7A,
0901,
F511,
F8AA,
0556,
01AD,
0173,
F8B4,
0664,
0C25,
FEA6,
0AAC,
002E,
0690,
02D8,
03CA,
03DC,
014E,
FE12,
FA6B,
0064,
F609,
F71C,
FE05,
0830,
0757,
06C8,
00AB,
FDFB,
0D12,
F80C,
FE92,
03AB,
FA0C,
076E,
FA4F,
03EA,
EF93,
059C,
FF2E,
03C7,
0844,
F65B,
E393,
0BDE,
07D0,
0BE6,
0174,
F331,
0AE1,
EAE1,
08A5,
0905,
FEE9,
F14F,
FA2F,
01D4,
EFCB,
0A42,
05C9,
FE8B,
FCCB,
FC79,
E97F,
FD72,
12DF,
FC47,
FC97,
0088,
FF0C,
FCB4,
04D8,
F915,
F969,
F1EE,
F8B2,
0004,
01A8,
F3C6,
FA44,
D79A,
126D,
F158,
00FC,
0DE2,
0762,
F07B,
02D4,
0088,
ECBA,
0EAB,
067C,
FF2C,
0E87,
E8D4,
F9B7,
064A,
FEFA,
03CB,
0611,
0798,
05BF,
0729,
07A2,
069E,
FF58,
0255,
FA98,
00B9,
03E8,
06FE,
0468,
029A,
023C,
FE53,
FE93,
FDE1,
0ABA,
01A9,
FEAE,
F680,
FD0D,
0481,
FF3F,
FE9C,
061F,
FAB9,
04F7,
03B6,
032C,
FC0C,
FB91,
F980,
0113,
005F,
FCAB,
03BC,
0386,
FD2C,
08FC,
FFF0,
04F2,
055C,
07DA,
07A7,
FE3E,
006D,
02B6,
0882,
06D9,
F991,
0265,
08D7,
FE0C,
FF0C,
FCA4,
0697,
FA67,
FAF8,
F40F,
F1A8,
044C,
FD93,
F178,
06A2,
F37E,
ED9D,
FB3D,
031B,
FBA6,
FDE2,
FA78,
FEC3,
F9DA,
0571,
FB3B,
FE1D,
035C,
06A1,
F991,
FA41,
04A7,
04F0,
00CB,
01C5,
F4ED,
0AFD,
F27D,
FAA8,
FF5B,
03AB,
FDD0,
FE47,
FF2D,
0151,
0340,
F88E,
F31B,
FE08,
FD20,
F2C9,
FA92,
F6FC,
0466,
0017,
FA37,
FEDA,
F13C,
0198,
FA99,
0274,
FFBD,
FE73,
FFD1,
FADB,
060F,
F876,
FEBC,
FD1F,
FD1C,
FFF7,
F704,
05C4,
;   output 15
FE70,
024C,
EE5D,
00B7,
01C0,
07D3,
F1F2,
037E,
F65B,
004F,
FFDE,
0162,
F003,
FD7A,
FD96,
074F,
FEC3,
F68B,
FFE2,
00C2,
FF42,
0575,
0455,
02C2,
0705,
0455,
0035,
09C8,
FFDB,
04D5,
FA93,
FE57,
F48B,
002A,
06A6,
05D9,
FE3B,
FC94,
000A,
02DF,
FA75,
0458,
FA88,
0C68,
FEB1,
0030,
FD07,
0554,
FA91,
F441,
F70A,
F9AE,
0317,
F5BD,
F89C,
08A2,
FFD4,
03AC,
024F,
0337,
0182,
FC65,
F9B9,
077B,
0479,
F5D5,
065F,
E56E,
EE8F,
02E7,
FBD8,
FADD,
FACF,
094D,
F2D2,
0173,
00DC,
04DD,
0085,
FF52,
FBC5,
0312,
06A0,
06FA,
FF98,
FE03,
F651,
FE50,
04D2,
09ED,
0979,
0226,
E516,
0839,
F7C1,
FFF1,
FE8D,
FF0C,
FA5C,
01FE,
FEE2,
01FE,
FFD6,
0730,
F19A,
FE89,
028D,
0FFB,
0279,
0014,
F658,
FF53,
F738,
03C3,
EDEF,
0064,
F9EE,
F35D,
0181,
0ACA,
E93C,
03F1,
078D,
FF03,
F5AC,
FD97,
FCAE,
FC11,
03BB,
FBDE,
F5AD,
E589,
0439,
0A89,
0504,
FEE9,
F21F,
08FC,
FE5D,
00D5,
022B,
07AC,
010F,
022C,
FDBA,
F309,
0074,
0A0A,
0201,
FB6C,
FF63,
0E42,
FF02,
FF10,
06D0,
FC32,
EE02,
FFE2,
F193,
F218,
F7F4,
0298,
0F7C,
FBCF,
0843,
FFCF,
00AF,
0D42,
033D,
006F,
085A,
0118,
09FF,
0022,
0285,
06C9,
FCC5,
EE12,
03DE,
EE4F,
DA51,
036C,
FEC0,
FE9D,
0E8F,
F6EC,
0B37,
0870,
FE63,
FE03,
F5A0,
068E,
F4DD,
F46B,
0CF1,
F877,
FE91,
02EB,
F7BB,
FF3A,
040A,
FF4C,
F792,
FE91,
FCF6,
06E4,
F54F,
018E,
03D6,
FC51,
F783,
08D3,
09CF,
F4FB,
F88F,
001B,
0634,
067F,
F711,
F94A,
045A,
FC36,
02B2,
FE3D,
0983,
FA04,
012D,
03FA,
0A58,
FD56,
FB2A,
06DC,
075C,
FFBA,
FF42,
073C,
FE9F,
000D,
FDBD,
0748,
F6F9,
0469,
FA16,
0025,
F133,
01C3,
09A1,
FB6D,
0453,
02BE,
009E,
056F,
FBCE,
0A06,
01E8,
0217,
;   output 16
0356,
0878,
04CC,
0AD9,
FECD,
FFAD,
00FD,
FDF8,
0285,
03B1,
0FBE,
06A9,
F967,
FF2D,
FFD2,
FE14,
FFAF,
FED2,
FC31,
FDDF,
00D8,
0988,
04B8,
FE4B,
0FEA,
FFB2,
0419,
FDA6,
FB4C,
F8C9,
0D46,
0431,
FF05,
059A,
01C2,
F787,
00FD,
0144,
FACE,
0057,
01B9,
F4DD,
F8E3,
F80E,
00BA,
0042,
FDF5,
04CC,
FF25,
00BD,
083D,
FD5C,
0A53,
FD33,
FE7A,
F28E,
FC6D,
051C,
FA15,
FAC4,
0013,
F683,
087F,
0078,
02B9,
114F,
05BF,
08AC,
FE41,
F7B7,
041A,
044F,
10B5,
048E,
0665,
087E,
FA0B,
0799,
006B,
00CC,
FA31,
F7A5,
029D,
02FD,
1225,
0320,
0A9B,
F970,
FC02,
0628,
0D4A,
07DB,
071F,
024D,
04BC,
F66B,
FA76,
FEB5,
07D9,
F6B7,
F7DE,
0391,
FE73,
0B78,
080D,
F0F8,
FE11,
0CEE,
0811,
FFD0,
FF99,
0808,
0317,
0276,
072A,
09F8,
0954,
006B,
FB73,
FF7A,
0CBC,
08D0,
F170,
0437,
F898,
FD87,
13BD,
0811,
083B,
F47E,
0C48,
FCF4,
F669,
FAE4,
036F,
02D8,
027B,
FED2,
09DD,
06EA,
057E,
01A9,
F581,
06C8,
03A9,
FE34,
FE0A,
FACB,
FB3E,
000D,
059F,
0041,
FAEF,
038C,
00C7,
F8CC,
F1DF,
FC44,
0569,
0A5E,
FD85,
0812,
0B08,
F97A,
FEC3,
FB20,
FD00,
066B,
FD39,
F51D,
FDFA,
00D9,
FF4E,
006E,
FD1F,
03E5,
046F,
059B,
04B2,
F43A,
00F4,
F3A2,
107F,
F3D5,
01F6,
0239,
FDDF,
0269,
0758,
F703,
F422,
0249,
08D7,
FA81,
0560,
F899,
FDDD,
F961,
FE15,
F112,
0DD7,
08DF,
F39B,
01DB,
05E9,
F8F0,
FF8E,
FE08,
F47A,
FB27,
07E6,
F31F,
ED81,
0723,
06DE,
F890,
E3D3,
FEEE,
F4B2,
010F,
030B,
FF94,
F324,
F496,
F62A,
FE10,
F7A5,
EF45,
EB0E,
04BA,
F690,
F8D4,
E5E9,
0064,
FEEB,
01B6,
0087,
FFDA,
0962,
0393,
06D0,
06F9,
F8FE,
004A,
F9F3,
F5E9,
F740,
02FD,
F480,
FC1A,
01AD,
F5E9,
EFF7,
E3D0,
FF31,
FCA7,
;   output 17
F8E7,
F461,
0A4A,
0538,
00F1,
FF51,
0CCE,
F7E0,
07E2,
0236,
0C9A,
0506,
FEFA,
FD60,
FF7F,
046D,
0021,
F76E,
F79B,
F759,
00A1,
EE14,
04BE,
F5AF,
02B2,
FC51,
FBD3,
F7F0,
FED2,
FEEE,
0B5E,
FBC6,
FCC9,
0754,
FF21,
F5FF,
0285,
0078,
093D,
FED2,
091D,
FFAC,
0CD5,
F5EB,
0068,
0022,
F8A7,
0A42,
01A3,
0643,
F6B5,
F8D5,
FBAC,
07D9,
0813,
F87F,
F9A6,
FEDB,
F7BA,
0FFF,
0C4D,
F9E3,
F679,
F167,
0641,
008F,
FF34,
FAFA,
FEE1,
015B,
03E2,
FCFB,
FE97,
FFA5,
04E4,
0619,
050B,
049B,
FB8D,
FE8C,
0042,
04DB,
0448,
FB0F,
FB46,
034A,
06F2,
0000,
02B7,
093F,
0580,
EBC2,
FEE0,
FB89,
FE82,
FB9C,
FC7E,
04AF,
0571,
F08C,
00E1,
0641,
023F,
0BCB,
049C,
FEB3,
FCFE,
FC3B,
063E,
0055,
FF7F,
FEDA,
FE9E,
0012,
010B,
FA9D,
FF32,
000F,
0495,
FA41,
F668,
0516,
F91C,
FF8D,
FEB1,
F18E,
0413,
F9CB,
EB69,
0C1D,
05F6,
0B4E,
0089,
0015,
F5BD,
02CD,
007B,
01C1,
F9DB,
F684,
F9B3,
F576,
09D2,
04BF,
FFD3,
0378,
140F,
F894,
061C,
037D,
F1AD,
F739,
EED4,
0D34,
FC4A,
0A5C,
01BA,
FEAA,
FF21,
FF1E,
07B5,
E540,
E379,
FD99,
F3B1,
095C,
FE70,
ECE7,
EFDB,
0950,
FECA,
0207,
F801,
005A,
F0DF,
DDAD,
06A6,
0806,
01FF,
07E5,
0675,
FA6E,
F306,
F994,
F58B,
05C3,
0A41,
0480,
1147,
FD03,
0074,
EBC1,
0552,
FBC1,
06E9,
FDB1,
FC26,
0A83,
0877,
0375,
02DC,
F7A4,
FCE3,
F95E,
FC4B,
037B,
08C7,
028D,
089F,
03C0,
038C,
00D1,
0CE5,
F803,
FAFB,
07BC,
F738,
0189,
0734,
FB1D,
F59C,
FF26,
F941,
00C6,
05F2,
0229,
F7FC,
0ADD,
0799,
FF21,
F5D9,
04BE,
F8C2,
0616,
0218,
07F1,
04B9,
0019,
F769,
0387,
FBB2,
054C,
F336,
03E8,
FB88,
F599,
FFEE,
0331,
062A,
FD72,
02F4,
03F2,
060D,
FB83,
FB86,
FDE0,
;   output 18
F631,
FDB8,
F872,
0064,
05DC,
09AE,
F2F2,
0949,
FC5F,
00B1,
EE71,
FFC1,
0778,
FDCE,
0385,
078E,
096D,
039B,
0016,
04B3,
FE81,
008A,
053E,
03B2,
162D,
066F,
F698,
0B55,
0851,
009A,
0C1D,
F8FB,
F2BA,
F8C1,
FCC1,
FDAF,
0686,
02A4,
FD1A,
0692,
FA7C,
FF89,
FA96,
F9B3,
FEF2,
FFF6,
FB59,
F6B7,
F1DD,
04B4,
FA6E,
1945,
F892,
FE2A,
0E9A,
063A,
02C9,
0281,
F9F7,
FFC2,
0553,
F87E,
0158,
064E,
EABB,
FBAE,
0085,
02C8,
FA49,
FF28,
FA95,
003D,
F939,
070E,
0481,
FA80,
F881,
06E9,
0877,
075A,
F65E,
F949,
FE82,
057B,
0F93,
F7EA,
F95E,
F7FD,
0E52,
013C,
E6AF,
0CBF,
0F19,
063F,
FA52,
F72B,
0474,
02C4,
F6FE,
FF69,
FF6B,
E23C,
099A,
F7E0,
1472,
0A19,
FFE1,
FB87,
06F1,
0044,
ECF3,
F0D5,
D7BE,
F974,
0643,
0234,
0795,
0095,
052F,
0B69,
0526,
0DA7,
F844,
0376,
0EA7,
FD24,
011B,
0386,
FE0C,
F96D,
0303,
0628,
006F,
04C3,
FB4D,
0229,
021F,
F8E5,
F9FD,
0229,
0B91,
FC90,
03FB,
037B,
FD26,
0AD6,
FE21,
FE79,
0B18,
FD39,
FF49,
FFBB,
020C,
F950,
FF81,
0C5E,
0A27,
FBDA,
FE4B,
FE21,
F347,
FFDD,
030C,
05A0,
05FB,
0355,
FEA1,
FEAE,
FEFD,
039F,
056B,
FAFC,
FBE8,
0028,
FDF0,
02A2,
EF74,
043F,
0875,
FBBB,
FE1E,
040F,
FFE7,
02D3,
0339,
0E15,
0333,
0146,
087D,
F6A8,
036B,
07EB,
02B0,
0960,
F1D6,
0AA6,
0390,
F8F6,
FDCA,
0855,
F568,
04ED,
F789,
F4F2,
FC33,
FBA2,
0F2D,
0466,
0686,
FE60,
F83C,
FF6B,
0E63,
F5E7,
F909,
F740,
069F,
FAE4,
F9D6,
0307,
FE38,
FCE0,
035D,
FF35,
00FB,
FFD4,
FD4E,
FD62,
017D,
FC50,
0359,
FCA4,
FA69,
0506,
00B5,
0774,
01A2,
0011,
FB79,
FE8D,
061B,
FBF9,
FFC5,
077A,
037E,
F931,
005C,
0140,
0879,
FC7F,
0230,
FC87,
0364,
FE59,
048E,
F99F,
;   output 19
0224,
0CDF,
FD34,
0276,
018B,
0351,
FDB3,
05EF,
EEA8,
01AF,
02FF,
FA26,
02AE,
FAA0,
FE22,
FA2B,
00FE,
FC71,
019A,
0147,
057E,
04B2,
FF73,
01A3,
0906,
0328,
07AB,
0AB1,
F58E,
084A,
0386,
0660,
0B29,
02E5,
03ED,
FEFD,
044D,
06CA,
F6A4,
03CE,
01E2,
02F9,
F819,
FDCD,
F19D,
001F,
FB00,
0517,
FC9E,
F812,
036E,
0F95,
006A,
F5B1,
0162,
0411,
0266,
F5EF,
F37A,
F3D5,
FF22,
FCCC,
0ACD,
077E,
FB0E,
02BF,
F5B7,
FCC3,
0633,
038A,
F91D,
F4AA,
054B,
0ACB,
F7FE,
E5DB,
FDBC,
F47F,
F42D,
0325,
F8CA,
F9A8,
0310,
F998,
04AE,
0799,
FFA4,
FE81,
F43C,
0842,
F1DC,
F740,
0829,
F3CA,
FE2B,
FBCB,
FC3F,
FC45,
043F,
F871,
F3C2,
FC16,
05EC,
083B,
FF5D,
FC05,
FE68,
F3EE,
F1F3,
0007,
FCA8,
0017,
FC8E,
EC91,
FE9D,
038E,
03EA,
0880,
FA60,
F6F7,
09B5,
044D,
EEA0,
F5BC,
FC63,
0087,
0397,
0DAB,
050B,
05DD,
0149,
F9FF,
0A96,
F729,
02D7,
0441,
01A3,
005E,
F925,
01A9,
FDF8,
F87D,
01F4,
F808,
06A8,
005F,
0930,
04F2,
0465,
FAC4,
0274,
0596,
F768,
034D,
049F,
0B70,
FB06,
0529,
F8E0,
FB98,
009D,
F9E0,
F3F1,
005A,
FAC0,
0ED2,
04F6,
FF7C,
FE48,
10BA,
0519,
F8ED,
0553,
FFE3,
0813,
FEAF,
01E9,
0BB3,
0A30,
F518,
0839,
038F,
F7A2,
050A,
0ACC,
0017,
045B,
F89E,
FCCB,
F86D,
F9A1,
F63C,
0F2D,
0098,
03FE,
F6D6,
FE68,
0E94,
F43A,
F963,
0420,
04E3,
DE58,
F323,
FBE8,
FFB6,
FEF0,
F965,
FD51,
0876,
05A6,
FB61,
0792,
094F,
05D4,
0456,
EE28,
F754,
F67E,
03F8,
089E,
EDA6,
0544,
07A2,
0C55,
0C54,
0113,
031D,
0783,
08E2,
FFD6,
F642,
F0F6,
FEA1,
010A,
E85F,
FA77,
FFE0,
049C,
052E,
F46B,
FC74,
0259,
01FA,
F1C5,
0124,
00D5,
FA20,
11DD,
F82F,
F690,
FBB1,
F972,
F925,
03D6,
0488,
;   output 20
0000,
F972,
EF40,
087D,
0392,
FD60,
FB95,
FD76,
0B5D,
0011,
0925,
EEC3,
01BC,
FC71,
0908,
08B4,
065D,
07A6,
02A4,
069C,
00F1,
FE37,
016B,
F9A6,
0ACB,
FAE6,
0068,
02F3,
05D7,
FB54,
FE09,
0390,
F45D,
F784,
0231,
03A3,
FEA3,
138E,
02A2,
FEC7,
097D,
FE6F,
F662,
0605,
F8E2,
0011,
FD55,
006F,
FAD4,
F3D7,
0469,
FE4C,
F5DB,
094B,
F9BA,
FB37,
022D,
FCB2,
F4D8,
047F,
FD9B,
0111,
10D6,
FFAE,
FC33,
053E,
0085,
0C47,
FEEB,
FA3C,
0454,
FC1F,
0038,
F49A,
00A6,
02CC,
06B1,
0305,
02CA,
FFFE,
F609,
0239,
0836,
030C,
01C3,
0200,
01D5,
FEE8,
0519,
03A3,
F398,
0D80,
FFBC,
10EE,
FD10,
FE7C,
023B,
0714,
0356,
052E,
0187,
0059,
0191,
E827,
011E,
0069,
FD6F,
0733,
08AE,
0001,
0735,
FA93,
F06F,
0B50,
FFFB,
01A8,
068D,
FEB5,
0678,
01C8,
0248,
02C6,
FB18,
06D1,
FE60,
0236,
01C3,
027F,
FC7C,
F2BF,
F539,
E4AD,
006A,
FAAB,
03FB,
02AD,
0549,
0EE8,
0197,
0251,
0952,
04A6,
FCF4,
08B8,
FF19,
F3C6,
FBE0,
05DB,
0633,
F057,
0F87,
06CD,
0138,
F791,
0477,
FB8B,
F73A,
0522,
F03A,
071F,
EF6E,
FBBD,
017B,
0A26,
0A4B,
FC5C,
0145,
1383,
056B,
FF75,
00E0,
EFAC,
01A9,
0004,
FFB7,
068C,
EB76,
F0D5,
FCA1,
F1F3,
E334,
FB4A,
019F,
FABE,
0CEE,
EE90,
F89D,
0706,
FA22,
FBBF,
F748,
089D,
0289,
EDC5,
FCD2,
F8C8,
03AA,
08FA,
0744,
0502,
FAFC,
07EB,
FBB3,
F1A8,
02B2,
0256,
07B6,
0F6E,
0EB7,
F709,
0363,
FF9F,
FD22,
06CF,
0B0E,
FC41,
039A,
F56C,
FBE4,
06D3,
FF6F,
005A,
0352,
F7A6,
F765,
F9E3,
FAD8,
02C1,
088E,
0241,
0036,
EEA6,
02C3,
F64F,
FC35,
03C6,
085E,
002C,
0AFD,
08DA,
FA67,
0325,
072F,
005A,
F8A0,
FE9A,
F690,
06E3,
02F7,
0AD2,
FFFB,
FE65,
F913,
0509,
FC80,
0953,
;   output 21
02CA,
FF10,
001C,
FC66,
FFF3,
F9FB,
FA6C,
FF9A,
FF2F,
FF41,
05D2,
FD26,
FF46,
1023,
01E0,
02E7,
017E,
00FE,
01CA,
01C4,
FF25,
02D9,
05DA,
FEA0,
04FD,
FEC2,
005E,
0888,
06D4,
0013,
02BD,
FD4A,
FA9D,
FB83,
0D28,
011A,
FB36,
0158,
0D89,
FF1A,
08F6,
0233,
0B1B,
FA46,
FDF6,
0001,
FF77,
FF18,
01D3,
0226,
FE8A,
0437,
F7A7,
0843,
FF31,
0533,
04D4,
01AF,
FCC0,
0C49,
0CEC,
029A,
FE9C,
08FD,
F427,
F381,
F776,
F975,
FE3E,
FC1A,
0258,
FD08,
FAF8,
0DBE,
0260,
083B,
FC0E,
0CCF,
03B0,
FEAF,
072D,
FE95,
05D1,
0795,
FA24,
F77B,
FCA6,
0114,
FC7F,
F445,
F780,
FD28,
04E6,
0794,
0139,
0007,
FE1F,
049A,
FCFF,
06F1,
014C,
F7FC,
0D01,
0423,
FFB2,
05BD,
FF52,
F944,
FD20,
001D,
F70A,
FBA3,
02F5,
053F,
F434,
00CB,
F47F,
01AE,
02F1,
04E5,
05DB,
FE98,
FB96,
02E3,
05F8,
0765,
0456,
05C1,
F2D3,
038B,
088E,
04F2,
05BB,
078B,
F93A,
FB9C,
FF03,
FD08,
FE6F,
063D,
F4A2,
057C,
0BB2,
053C,
FB22,
FE96,
0272,
02FE,
03D9,
F966,
0243,
01CB,
02BF,
F9F8,
FE3F,
07BC,
FEED,
FF62,
01A1,
088D,
0169,
008C,
03BA,
049A,
FCFB,
08A1,
FC03,
FC54,
FA3C,
05E3,
08E2,
FCB3,
02C3,
FFE3,
00DD,
FAC0,
FD0A,
033E,
FC82,
0289,
F68A,
03BC,
FA35,
FE68,
0363,
05B4,
FF84,
0260,
0160,
0875,
FE56,
FEBC,
F0D2,
D963,
FD7A,
DB1A,
084A,
FCEA,
09F7,
0ABF,
05BB,
FC97,
FF98,
FD98,
0A03,
04E1,
00B2,
FDD4,
087C,
08E0,
0556,
087B,
062F,
F8A8,
FF59,
0357,
F4FF,
FA99,
F711,
F78D,
EF49,
FF82,
FE34,
F66F,
069C,
FF1F,
EB91,
0925,
1178,
00E8,
F2C4,
FF5A,
F643,
FAF3,
0BD6,
FD31,
F52B,
FFEB,
E945,
08E0,
0426,
0B8B,
EF8C,
01B2,
CEAE,
F660,
F0B8,
0527,
FF81,
FBB6,
06CC,
0A25,
FFA5,
F815,
FDC1,
01F3,
;   output 22
FBA0,
FDCD,
FE45,
FAB4,
FC6E,
0177,
04DB,
0538,
0CE5,
FC94,
0A6B,
FCD5,
FCD2,
068F,
F74B,
0078,
0406,
F673,
FE5E,
FE60,
F6EF,
F894,
0CE9,
F84C,
FEE7,
0370,
FC42,
0083,
07EF,
03ED,
095B,
FF08,
F7B9,
00C9,
FB9A,
014B,
0353,
0240,
F08D,
0332,
0B09,
FF9D,
F3EA,
F806,
FE67,
0005,
FB40,
010E,
F74E,
0001,
F64D,
F811,
FD10,
FA27,
1079,
0A1C,
F661,
058E,
0140,
0355,
0161,
0476,
0846,
0727,
09A0,
FD65,
056F,
0C3A,
FEA1,
FEB7,
FD2E,
0425,
FA90,
0398,
F631,
05EA,
F0BF,
0961,
FF5A,
FE8D,
06E6,
FA7E,
0471,
055E,
F8E6,
F72D,
0EDA,
FBA3,
0AD6,
FC5F,
F705,
FFA6,
0C97,
FC19,
11D5,
1311,
F77C,
F821,
033F,
F82B,
0287,
0139,
F37F,
0957,
0449,
FE92,
F565,
FDBD,
FE4A,
FFFF,
0385,
F275,
FA14,
FA5F,
034F,
FF4D,
023C,
F449,
0365,
FEDE,
0195,
0380,
F1BE,
0709,
F115,
0F12,
FD66,
F922,
FACC,
0099,
0674,
FBA7,
008F,
02CB,
FF44,
0577,
0051,
F729,
002B,
0455,
03E9,
FBD5,
03C3,
EE67,
010C,
03F3,
094B,
FE4A,
0515,
FB6E,
FC33,
F89C,
0746,
0D7D,
FD63,
0139,
03E9,
0241,
FD77,
0214,
F345,
029B,
0325,
0230,
F9E4,
08F0,
FAC1,
01FA,
04CC,
035A,
FE91,
FE33,
F336,
0027,
007F,
00C0,
F757,
FE86,
0821,
002C,
FD11,
F5E9,
F45C,
02C5,
EC31,
FCE8,
FB04,
FDED,
F44F,
FF7A,
0685,
FF92,
0627,
09AA,
0209,
0940,
06F2,
FDAB,
0676,
0323,
EAC4,
FFA1,
FFF5,
0923,
F537,
0245,
03E2,
EB4B,
0EDE,
F155,
FDD7,
0B85,
FB3E,
F9AE,
FFB1,
ED25,
0AC9,
05D5,
0951,
FACA,
11EE,
0218,
07B5,
0900,
F4C3,
0438,
07C4,
0381,
0439,
EDF4,
ECB9,
F95D,
068F,
0058,
F697,
06F1,
F446,
0005,
0850,
EA6E,
04B5,
EE4C,
0E64,
FC49,
0751,
018D,
0C76,
07BB,
FD6C,
EB55,
F545,
F9C5,
F65B,
0908,
06EF,
FC01,
;   output 23
01CE,
016E,
046D,
F723,
FE95,
FC72,
FA91,
FD4D,
E9F3,
007C,
0777,
0874,
ED88,
0A6B,
FE32,
FD51,
F79D,
0971,
FE06,
031B,
0265,
F847,
010C,
FD4E,
018D,
F6D5,
060D,
0A25,
FEEC,
0B02,
F6CA,
0819,
07B1,
FDF1,
F2F0,
00D0,
F6B9,
0DBB,
FFFA,
01C5,
0476,
0BD6,
07C8,
F943,
FBC7,
FFEC,
0205,
0A38,
ED2C,
F929,
0908,
F57D,
F6FE,
F95B,
FE35,
015A,
0831,
FDE2,
FF2A,
FB0F,
0506,
01E8,
F376,
05BF,
0074,
0176,
F15F,
03B4,
028A,
06A3,
05A6,
07D6,
0382,
EA96,
FC15,
FEA7,
06E8,
1529,
00B3,
FB1F,
F18A,
FD49,
F40F,
066B,
029D,
0060,
07FA,
07AF,
F91A,
F10A,
0490,
115B,
0633,
FFF3,
023C,
FF44,
FDFC,
01AD,
F6F2,
03A1,
FE51,
F7D8,
0679,
0D80,
11E4,
FB41,
FFB7,
FF8C,
FFFA,
0026,
05A5,
0C05,
F8F7,
03B8,
062F,
0022,
020F,
02EB,
FC2E,
F99E,
0480,
078D,
02E7,
E73A,
0A0F,
00A8,
F0CA,
0A86,
0574,
F8C9,
F8CD,
0675,
FAFB,
FE54,
FAD9,
04F2,
EC02,
EA6C,
FF15,
FE51,
FB5C,
FEFA,
02F1,
F668,
F0C4,
04E6,
E58D,
0274,
00BE,
F9B4,
00CC,
FF1A,
0286,
FB7D,
FC13,
0D2B,
FDF8,
040E,
FA19,
0529,
04CD,
F7E3,
EE36,
0BB1,
FDEF,
0B1D,
0045,
0085,
FAA8,
04E8,
0005,
FEAF,
0000,
FFFC,
039C,
FCF3,
FAD6,
FA2D,
F530,
FAE8,
023D,
03CF,
04F9,
060B,
038B,
01D9,
04C7,
F706,
FB80,
FB7B,
05E6,
0D4B,
009F,
0655,
038E,
05F8,
FFBB,
FAFB,
FB8D,
FB52,
046C,
F1E6,
F4CA,
FDDF,
FEEA,
F91B,
FEE4,
F8E3,
E9A8,
053C,
F899,
F779,
0857,
EA56,
038F,
00D1,
03B8,
F31A,
01B5,
0800,
FB95,
FD54,
FD86,
FA58,
0679,
F374,
FDCD,
0B7B,
0788,
FA10,
0696,
0342,
FC14,
0512,
FF0E,
F790,
01FD,
FFFC,
059E,
009E,
EF03,
0316,
08EA,
FFA2,
0CC1,
03C7,
FA58,
F919,
F805,
08D4,
0226,
FBC0,
FD40,
FF01,
0054,
04B3,
;   output 24
F3E8,
F0DF,
FEB2,
0148,
0626,
FD82,
F9FE,
E84E,
0688,
00A6,
FDD6,
0150,
03A9,
FF7A,
FB85,
F90D,
FED1,
1050,
FF70,
FDB7,
0571,
FC88,
F101,
F882,
0134,
07C0,
FBDD,
02B5,
0385,
FB1D,
F049,
F6A6,
F086,
0612,
0F09,
F405,
F02B,
FEF5,
F9C4,
031B,
062D,
0CD3,
0463,
0629,
F634,
FFF2,
0667,
058D,
F9B7,
F992,
017E,
E8F6,
0CCB,
FEE5,
0458,
0777,
FC24,
094B,
FCC0,
007D,
0BF2,
F851,
FF7E,
FFC4,
F5B2,
FF30,
FCE4,
006D,
FD24,
FD50,
F7C4,
FC62,
0E4C,
FDFE,
000B,
06D9,
FFBF,
0257,
00FA,
FD88,
FC03,
06D3,
01B4,
00D7,
0655,
EF49,
F5D1,
FF55,
0100,
059E,
F1D5,
FB92,
067F,
FE5F,
F11B,
FD89,
004B,
04DB,
FE44,
FA91,
F432,
FEFE,
0131,
112E,
00F3,
0482,
0646,
0225,
0095,
0006,
0280,
06F7,
FF7F,
F96E,
0021,
F0D7,
01A0,
FB77,
FC83,
FFEB,
F94A,
02BB,
028F,
FD2A,
017D,
0398,
FE31,
0118,
F6D8,
FB13,
FED6,
FF35,
0B2E,
FF3E,
F532,
E422,
09D9,
0BF0,
F157,
010D,
F028,
0267,
02C1,
0071,
FC2F,
08A3,
0781,
001E,
0426,
FF40,
F04D,
0163,
03AE,
FBFD,
FC66,
FC64,
FFF6,
0031,
F798,
FD3B,
FC97,
05D3,
03A2,
FA43,
E71F,
04D6,
F778,
FE6E,
FF2C,
0ADE,
0CAD,
006B,
F034,
FFE6,
0810,
05EF,
FD02,
FD6A,
06D8,
EB24,
F9C4,
FA0E,
092E,
0385,
FA99,
FECB,
F976,
FE48,
FC40,
F563,
FD33,
FB70,
E8C6,
0025,
FFAD,
FD5C,
F901,
0CD9,
FB08,
FBF8,
0105,
09AE,
FAB6,
0594,
FABD,
02AF,
FF89,
FB98,
0764,
0163,
04E0,
F43C,
01D9,
0057,
F40A,
03FA,
07E3,
0033,
040F,
FD39,
1212,
035A,
F4FF,
F6B7,
FCBF,
0889,
0495,
F233,
EB7A,
0391,
FB86,
1233,
03C8,
0F47,
05DA,
0898,
FF42,
000B,
04F7,
04A2,
F95B,
FB52,
05B1,
E69B,
03FA,
FBF6,
FFB4,
0408,
FBE0,
0030,
0040,
FE73,
FF34,
00EC,
FBA2,
F870,
;   output 25
FF64,
09D0,
FF21,
02AC,
00EF,
FBF1,
02CB,
F92B,
FE9A,
FCF7,
02ED,
FF8D,
F0DB,
FF6D,
056F,
03C6,
FAA0,
00A4,
054F,
00DE,
0144,
0241,
FDF8,
01C4,
0FDD,
007C,
FF5D,
F19B,
FF7F,
0E3A,
F81D,
FFF3,
0003,
040A,
0647,
0943,
FFDD,
F331,
0B1E,
FCEC,
007A,
0178,
06BF,
01A1,
FD6E,
FFFF,
FE86,
FC40,
0559,
0247,
006E,
FBC6,
08BC,
FB18,
0275,
01E9,
02BD,
FBB8,
EB02,
038A,
0135,
008D,
039A,
05C8,
01B1,
09A2,
0376,
FC9A,
0681,
FFC7,
F69C,
043A,
0E69,
FAE7,
FCBE,
0E77,
F368,
05D3,
FD8B,
0A0E,
FE8A,
FD8A,
00C7,
F060,
0016,
02AF,
0460,
F0CF,
FE28,
0BC1,
F87B,
002B,
0500,
F9C7,
0141,
FA09,
036E,
0528,
0CE5,
FEF6,
FCEC,
055A,
FDAE,
0710,
FEDA,
FD34,
0049,
085B,
F871,
0003,
07EB,
F1C9,
0656,
FF76,
01DF,
F5A7,
0967,
FC29,
FC74,
F98A,
010A,
F3E5,
F915,
0ACE,
02BD,
064D,
0709,
0089,
F057,
FD22,
F68E,
0246,
026B,
F5C7,
0110,
FF89,
00A9,
ED23,
FCD9,
FE1C,
F0C0,
F936,
FA18,
FA40,
F679,
FDB6,
F284,
F734,
FEA9,
E789,
FD0D,
F258,
013C,
036D,
0312,
F6C1,
F71D,
06D8,
F2AC,
F0AA,
02FF,
F053,
F8CE,
F65A,
F60D,
FEE8,
FE8F,
FAFB,
0063,
073A,
02C2,
033B,
0009,
FFFE,
FE47,
FAC2,
0378,
04F7,
0607,
FEB5,
014C,
020A,
FA24,
F399,
F04B,
FE5F,
021D,
015A,
EDDD,
F4D1,
0C25,
EBBB,
FE73,
FAC6,
07EE,
07F8,
F6BD,
EDF4,
F8CD,
FE93,
0438,
FC86,
09A7,
041E,
FA1A,
FA46,
F9B3,
F310,
FD45,
EC4E,
F38E,
F1DE,
0765,
E8D1,
01AA,
F4B1,
FB1A,
0311,
0778,
FC5A,
F341,
FFA5,
04E5,
FB0A,
F771,
F2D5,
FBF3,
F55B,
E6E7,
0154,
F716,
0B1D,
00E6,
F55D,
FDEC,
FC6E,
03AC,
0003,
FACE,
078B,
F1B6,
0287,
0611,
FA34,
04DF,
F9D3,
FB79,
0581,
0099,
0784,
FA0F,
001A,
E894,
F45F,
F80F,
FAA6,
;   output 26
FA5F,
09C0,
FC1B,
F7B1,
F9B1,
09C0,
F67E,
0C6D,
FFC3,
FFB2,
025E,
FA74,
01FD,
0369,
FCF4,
F8E9,
0404,
FA4B,
FF67,
03F7,
0E48,
FE18,
0374,
F989,
0958,
FB71,
024B,
03C5,
FC1C,
0322,
FEBB,
0F35,
02FC,
0414,
0231,
0824,
FDAC,
08E1,
FBD3,
0624,
060D,
072C,
F988,
F771,
FDB6,
0027,
FDC9,
0C0E,
F5D6,
F0FF,
FBAC,
F5E6,
FEB2,
FA39,
06C2,
0B70,
04EF,
023C,
F1CA,
071B,
FE55,
FFEC,
0410,
04DA,
0207,
01F5,
FFE8,
00BD,
F112,
01E3,
F5DD,
06E0,
F6C1,
1294,
F364,
01C0,
F7C7,
0CD3,
FF32,
0316,
0218,
09D1,
0090,
FC26,
0AEE,
0167,
02F3,
FA0B,
045E,
07FD,
ECEA,
0582,
F7BA,
02BB,
0626,
0517,
0881,
0518,
01C4,
FD06,
F550,
FDF7,
020D,
F790,
1221,
068A,
F0F7,
F890,
0527,
0043,
F801,
FC8A,
FC44,
F77F,
FEC1,
F920,
0C3D,
FC68,
0174,
0524,
F73E,
0592,
EF8A,
F990,
0010,
FA91,
FC77,
051A,
F6B0,
FDB0,
F6A2,
0835,
F3CE,
0A8E,
F851,
00B9,
0104,
048F,
F924,
001F,
FD69,
FBB0,
FC48,
08AE,
F96E,
FCD0,
FFB4,
0AA2,
0049,
02B9,
F4F1,
046F,
00E0,
0626,
FD02,
0067,
FD8B,
0415,
0287,
FEB5,
FBBB,
0455,
074D,
FDAC,
0058,
FDED,
03EE,
FC20,
02A3,
0116,
0448,
FC4A,
F515,
0089,
059A,
01A0,
F868,
E3A7,
FF39,
01DC,
0103,
F69B,
FF6F,
06B7,
046E,
FF2C,
F2A5,
0535,
FAD9,
EACB,
0997,
0163,
F176,
00B2,
F456,
F972,
0128,
0C02,
F7DF,
017A,
07C2,
10DF,
002B,
0F85,
F910,
F834,
E8A1,
080A,
0BB4,
EE27,
0831,
02BA,
04B6,
F974,
062C,
F45B,
08A0,
FAEB,
F77B,
FFA9,
164A,
0221,
F1EA,
FCC5,
E3C7,
F7DF,
F479,
F1E0,
0528,
01C2,
0C82,
0B87,
0225,
0482,
F9CA,
0F99,
0018,
001B,
FD3C,
0471,
FF13,
F346,
F86C,
0218,
FC8F,
0226,
FD4D,
0587,
FB5E,
043B,
FA0E,
F1AB,
FE61,
F8F7,
0182,
0A21,
;   output 27
FD89,
0621,
EE7D,
F491,
F6B0,
F5F9,
015C,
0B85,
01FB,
FB17,
01CE,
DB52,
0444,
E3C6,
062E,
F996,
FEC4,
FCD9,
0668,
0478,
FD68,
0124,
FC99,
F8F2,
05C6,
0459,
0454,
F534,
FB99,
FB42,
0093,
F758,
003B,
FFC9,
F8F5,
0144,
02B7,
FBB5,
F4ED,
FEC5,
F970,
F33C,
F0A6,
039E,
DBA0,
FFE2,
F86D,
FC54,
0603,
F4C9,
F658,
EF19,
06DA,
FAC4,
F456,
FF47,
FB14,
E17F,
E584,
FDBF,
F94A,
FE55,
0696,
F388,
07D7,
045C,
0304,
041D,
0044,
0241,
FEE6,
FA02,
ED83,
FD09,
FCB0,
0197,
0C8D,
FC5A,
F780,
F7F4,
0140,
0690,
FE2D,
FD9E,
F8C0,
03A4,
F8C7,
F555,
0645,
FF5E,
0919,
FDAD,
FFD6,
F7AD,
050E,
036B,
0457,
0181,
FF80,
F75A,
0532,
0184,
F883,
F93B,
0A1A,
02E8,
0AC6,
FF0E,
EA3F,
0002,
0314,
F199,
FDE2,
0316,
FF89,
FD98,
03AA,
06CE,
FEE2,
FFAC,
F82B,
EEF6,
F79D,
060F,
FDB6,
091D,
FC8C,
009A,
053F,
F799,
F6BE,
FBC6,
E8A5,
00FE,
FC67,
05CA,
0772,
FC4B,
FFC4,
FAA3,
0045,
087F,
001D,
0933,
010C,
FF5D,
0112,
F39F,
05A4,
FF09,
05FC,
FB0E,
00F2,
07C8,
03AF,
07B3,
0760,
02E7,
F047,
FBCE,
006F,
07F2,
02F2,
FE02,
F2CB,
043B,
F719,
060E,
067F,
06E5,
F923,
FD70,
FC63,
FFDA,
0E5F,
FF1D,
0377,
FECE,
03B7,
FE92,
0513,
F07A,
07CE,
06A6,
FA76,
0257,
FD63,
01A1,
0259,
FA11,
0806,
FF8A,
FF50,
05D7,
F8D5,
F990,
FA4D,
027D,
FE72,
FF39,
058D,
06F0,
028D,
027E,
FF2A,
FB80,
0A9D,
0559,
0872,
02E5,
FD0B,
0156,
0CD3,
FE1E,
FF00,
0664,
F6D0,
06D1,
FC9E,
FEE1,
FE8F,
FAC0,
FCBD,
0900,
0382,
F9A0,
044A,
0392,
F8A0,
00CD,
FBAC,
0021,
FE8D,
0567,
01C3,
FF2E,
FB38,
000C,
FCB1,
FE8A,
F998,
02A3,
FD5A,
05FB,
FA28,
F9AF,
07D0,
08A9,
F48B,
0563,
FB02,
05FC,
0384,
FBB2,
0571,
F34B,
;   output 28
043A,
02C2,
F7A3,
FB64,
0BB0,
F64D,
06D7,
0361,
F19C,
0211,
00AF,
09F1,
02A9,
0441,
0693,
0406,
066D,
F7A0,
FF22,
03AD,
0148,
0803,
FFA7,
03EF,
F89A,
03FB,
0184,
FC88,
F089,
F742,
0070,
FCA4,
F365,
FFEE,
FC81,
05DB,
0285,
F646,
FC33,
01FD,
038E,
0A48,
FEAE,
FEED,
0436,
0071,
FBCB,
042E,
0330,
F8F8,
040E,
087D,
020E,
00BE,
11CD,
0112,
02F8,
039F,
03AE,
0597,
09CF,
0046,
EC6B,
F988,
F718,
F925,
F975,
FB9F,
02F7,
0210,
F707,
FB7A,
F4F6,
05B1,
0866,
FB52,
FF0F,
0CD4,
0042,
00F2,
060A,
0088,
08A3,
0A47,
08E8,
F653,
F905,
01DA,
F865,
F66E,
F81A,
09F2,
FB31,
FBE0,
FDE4,
0599,
029F,
FF1C,
0194,
0272,
FD6B,
FE52,
FE8D,
F5D2,
FFCB,
FF98,
FAB6,
F4C2,
FACB,
FFCE,
FF5A,
021B,
E415,
F9E5,
035C,
FBDC,
F4C9,
0237,
029E,
FDA4,
05F4,
04C9,
0052,
07AB,
F26E,
029D,
F42C,
F781,
03C2,
F60F,
FCB2,
F5E6,
056E,
FE85,
098B,
F2B7,
ED2B,
03E5,
FF92,
0297,
091E,
07CA,
09F1,
FF11,
FFD1,
F9EC,
F829,
F981,
0930,
FD88,
0803,
03C6,
01A2,
016F,
098C,
FAC5,
F776,
F910,
FD51,
FB87,
0185,
FE7D,
0A98,
01FE,
F6C6,
F0EF,
FCD4,
05F8,
0A22,
07E4,
0903,
0934,
FA60,
0055,
06B8,
FFDE,
0653,
FF4D,
FCA8,
F909,
E3BE,
FB1E,
017B,
0620,
F624,
F925,
F7AF,
0A9D,
FFA3,
018C,
FFF4,
F247,
FB99,
F0D4,
002A,
FBEB,
F10B,
01D0,
F2C3,
FAE0,
FDCB,
F6F0,
007C,
0275,
FD87,
15F1,
FF79,
041A,
F707,
F84E,
04AE,
039F,
00AF,
FFB5,
12EA,
019E,
F18D,
F4E5,
1353,
0D7C,
EAD5,
F2B0,
FE24,
0C44,
043C,
072F,
0C1C,
0A30,
01EF,
F80A,
F68E,
F796,
0299,
FBC8,
FA0D,
F971,
F5A1,
0038,
12BA,
03CF,
FC9B,
FB18,
06B9,
F0D0,
F048,
FE66,
0970,
FC97,
FA1C,
F6D2,
FAA5,
0A8F,
0492,
FCF3,
F325,
F1C5,
;   output 29
FCA7,
0699,
F33E,
0216,
E3D7,
FFD8,
028D,
F2B9,
05A5,
FEF1,
009E,
0082,
F714,
03F6,
03A9,
0835,
F8C6,
0682,
028C,
F679,
F921,
091A,
F53A,
FE0E,
FA53,
0C52,
07C9,
0820,
F511,
FDFB,
ED39,
03EC,
FEE1,
0AD7,
09F2,
F3B7,
FD50,
07B6,
F577,
045B,
FC78,
EAA3,
03DF,
ED70,
EAD3,
000E,
FB3B,
F333,
F865,
E49A,
0032,
F791,
FF8A,
FC53,
FAE5,
0574,
FB67,
ED4E,
D507,
049C,
F37C,
04E6,
F289,
F877,
EAE7,
0384,
02BC,
00D3,
F9BA,
0D6A,
FD3C,
F34C,
FEA8,
06EC,
03AF,
0765,
FFE2,
0BCB,
0598,
0402,
03B9,
07CA,
F983,
08E8,
04EA,
0143,
FC37,
FFEA,
F92B,
0B3A,
1C7F,
0B7E,
FEFA,
0934,
FC89,
0414,
0367,
05C8,
0619,
0116,
FD04,
F706,
F582,
03FB,
09E7,
FD18,
FAAE,
FC5D,
FB74,
0024,
FAF0,
0C17,
F884,
FF4F,
050A,
FD11,
0646,
0002,
05A1,
0238,
0077,
F511,
FD78,
FE75,
00A3,
052C,
FD01,
0989,
0427,
00A5,
FC14,
FF9F,
FCAD,
FFD4,
FD99,
FE24,
F89D,
09C0,
FEE4,
FB8B,
FD97,
FFD6,
0161,
012E,
0124,
F866,
0342,
FF87,
FEAC,
00FE,
0010,
F765,
0364,
F745,
02BE,
FA65,
FD8F,
0015,
F98F,
FBAB,
FFF9,
0059,
0A46,
FB92,
FDC3,
025B,
FF6C,
00DB,
FD1A,
FB53,
FBEE,
0BEA,
F800,
000C,
03BC,
FC10,
FBBA,
F653,
EE0F,
F5F5,
FC67,
01D3,
FB29,
F1A7,
FA7E,
FC31,
F62F,
07D6,
05AB,
FE29,
00CC,
F60B,
0739,
0205,
03BD,
0317,
F748,
0025,
FBE6,
057A,
FC0C,
017B,
0BBB,
0447,
FF16,
00DA,
01A0,
01AD,
1552,
0575,
F457,
0537,
FF02,
FECB,
037E,
06A2,
0911,
FE71,
FD26,
0090,
006B,
FE51,
0F77,
0524,
0490,
020B,
FFA8,
FD41,
FA34,
02D9,
FAD2,
0663,
0BC4,
03FB,
0069,
0C92,
0D4D,
0028,
06B3,
FAD1,
FA53,
FBEE,
FD2D,
0413,
00E3,
FE60,
00A1,
016E,
FF8E,
FFD1,
0318,
00A1,
003D,
FFC6,
F945,
01FB,
;   output 30
070E,
050B,
FB76,
F9D6,
0784,
FE11,
F9D4,
0C3F,
FF50,
031B,
F3AD,
F3D6,
F42A,
FC4E,
F81D,
FCC1,
022A,
01F7,
0617,
0B20,
FDA1,
F4BB,
F9DE,
FF27,
F4CF,
03AF,
0080,
FEA6,
000F,
F549,
09FD,
E4B3,
FBA2,
DFD6,
EBF5,
FC0C,
FFCA,
F6C2,
0FBA,
00F9,
F13A,
FF91,
FEA4,
004E,
F70B,
0028,
FDB5,
FBA1,
09D0,
FC78,
0503,
F18C,
0016,
FEF6,
FA99,
02C1,
0484,
FCC3,
0272,
0144,
060D,
EFE4,
0956,
03EA,
FE0C,
06BC,
04C0,
012E,
FF2F,
FC3C,
0022,
F492,
031D,
F4F4,
029B,
0ADD,
F374,
F465,
003C,
F9AF,
F468,
FA04,
FD2E,
018F,
0241,
DDF7,
0F0B,
FBF4,
FFC8,
1043,
0740,
FFFE,
005E,
04E7,
072A,
0007,
F9F5,
EF64,
FD78,
FCDA,
029D,
059B,
080F,
F151,
F41A,
061E,
FD73,
001F,
F838,
0021,
0219,
020C,
F13E,
0169,
0695,
F97B,
0713,
04B9,
FA59,
057A,
02CD,
0AEC,
06CE,
0101,
F2CA,
0260,
0337,
014C,
02AD,
FEFD,
10A3,
005E,
FC4A,
04F8,
0250,
01E7,
03C3,
FBB2,
F92E,
047E,
FA1F,
00D2,
FEE0,
05A3,
FE81,
FDFA,
ECB2,
0439,
0621,
FB03,
FF64,
FA34,
03D4,
FC46,
FFCC,
0313,
00D4,
02F9,
02FF,
00D1,
FE42,
FC98,
FEED,
0716,
F8BD,
02AA,
FC90,
01B6,
050E,
078F,
FF75,
052E,
FD3D,
FFBE,
0412,
0552,
03CF,
000A,
ECB1,
FE06,
FAF4,
E48C,
FA79,
FF34,
FBD4,
012F,
01A6,
FA2F,
FEC8,
F954,
06F9,
051A,
FDFA,
F7A7,
0CFC,
06BF,
03BB,
0432,
F14B,
FF48,
FE3C,
ECAE,
F16F,
0AC0,
FC5F,
03DF,
F977,
0A2D,
FA6F,
F14D,
FC82,
F821,
0169,
0323,
F50D,
F89A,
0351,
0F44,
F6DF,
FC96,
0207,
FD3F,
FF43,
048E,
F8E8,
0320,
04D0,
00C9,
F73E,
FA68,
FD66,
052D,
FF1A,
0795,
00B4,
0784,
FF86,
FFC5,
FDE0,
FF70,
056B,
FCF4,
FD2C,
FB20,
FEC1,
F6F5,
0352,
EC0C,
EEBB,
08C5,
01DF,
FD30,
0325,
FD9B,
F1C9,
FF7B,
;   output 31
053A,
FB0E,
F0DE,
0E09,
0389,
000D,
FBEB,
FA11,
001D,
F5BF,
F5F5,
F84C,
F6D1,
0D8D,
0319,
073E,
F4DA,
00F3,
FD16,
F536,
0521,
06EF,
F230,
014E,
05BD,
0C02,
FB53,
11A3,
FA7E,
0158,
0367,
03B4,
00C6,
0757,
1319,
FD93,
F4CF,
FB14,
005E,
F506,
FA49,
0AFF,
F7EF,
0101,
0666,
0002,
FDE7,
F75C,
FF66,
EF18,
0B86,
1D1F,
03C6,
0104,
F621,
10B0,
FAEF,
FD33,
F818,
0AE0,
0873,
F577,
FF56,
F850,
03F1,
FF44,
067F,
FAC4,
0792,
FF60,
F249,
F657,
FDD6,
FD30,
F6CB,
0BF6,
004A,
0C38,
FD28,
09F6,
F40A,
010A,
FB09,
F789,
00DE,
FD54,
F6DA,
0157,
F6D2,
0697,
039C,
0103,
0A1D,
FA17,
F54F,
FD06,
015F,
00AC,
00ED,
FCB5,
F631,
F92E,
0CAF,
0517,
EF22,
0384,
FA2F,
0C16,
09ED,
FFFC,
FD40,
EF9B,
04E7,
007D,
01FB,
00E4,
FE0B,
047B,
074E,
03A7,
0485,
0244,
FA72,
0458,
FF46,
F68F,
081E,
EF66,
1076,
0A37,
075A,
0249,
E4AD,
0919,
F49B,
F924,
079E,
F85F,
0322,
014C,
060E,
FC26,
0515,
04AE,
E7C1,
01B6,
F92E,
F55B,
07F5,
07B9,
FAB6,
03EF,
F65B,
0C73,
04FE,
0E0E,
FA0D,
F72F,
EE3A,
FA53,
0809,
09A5,
FB20,
004B,
FDE0,
FDA2,
F32F,
FC31,
FC1C,
FEF2,
F133,
0709,
F305,
0040,
08A3,
06A2,
FF38,
F959,
08DC,
03DD,
00A1,
FB19,
0605,
0A33,
FF4F,
FC35,
FFE4,
025D,
0212,
F733,
04EB,
FC81,
FC82,
0472,
08F6,
0031,
06CE,
04F6,
02A8,
F658,
053B,
F85A,
FABF,
F7F8,
04C5,
F2F2,
FB43,
FB0A,
EF4C,
04F8,
0134,
FD3D,
0435,
F4F5,
0A5D,
01A7,
013B,
FF19,
0244,
0037,
0B32,
088B,
0284,
F617,
03C8,
074A,
F9F7,
FA2D,
FF4E,
FBC7,
FFAD,
FB4A,
FCB3,
022F,
067C,
FC67,
01A8,
0001,
01A2,
047E,
0D2E,
06B3,
FC3E,
0645,
05BC,
F99A,
FE4E,
0683,
FBB6,
0156,
02C5,
FF59,
0129,
EF49,
00A9,
F799,
;   output 32
01FC,
05FB,
038E,
F949,
FC6B,
06EB,
0309,
F8B2,
077C,
FFE0,
04DB,
009D,
0388,
EE8E,
F5A5,
03AC,
021A,
0311,
0189,
FE62,
00F0,
0C74,
FFDF,
0174,
0045,
070A,
FDD1,
0A94,
FE37,
FC9A,
01F5,
FEDF,
06E1,
05B8,
EC75,
FB93,
FEEF,
023C,
F669,
0A15,
FDB3,
FA97,
02CC,
0845,
00BB,
FFA4,
0035,
FD8C,
0292,
FEAD,
00A0,
F26F,
0A21,
FC26,
F6FB,
04AB,
009F,
FA89,
07C5,
ED51,
FD3E,
EF85,
070E,
FC8C,
FF3C,
F1FE,
011E,
0887,
0820,
0BB0,
F6DF,
016E,
FE65,
158E,
FB82,
05C2,
FF06,
F49F,
02ED,
038E,
0831,
0385,
033B,
094A,
FFE9,
FC8F,
F86E,
01A1,
087A,
03B7,
EFF7,
FFCF,
0741,
0DA4,
00B6,
026B,
0371,
FA7F,
F189,
FF1F,
06AF,
FEAA,
F6C5,
00B2,
1120,
0301,
064C,
FF08,
F1C4,
0031,
E8AF,
FC54,
F6B1,
03ED,
FEF4,
FEDE,
05E1,
F647,
0720,
01B8,
09F7,
FCBB,
FF47,
01DC,
0181,
F138,
FE1C,
FD65,
03C1,
F628,
036F,
0CF4,
F9D4,
FF57,
026F,
04B4,
FEBF,
01E2,
F92C,
0329,
FE0A,
FAED,
F066,
FA79,
F372,
0BC9,
FAB6,
F751,
F875,
02C2,
FCFB,
E77E,
07FA,
0709,
F532,
FEAF,
0850,
0202,
FEDF,
F9BF,
FBAD,
FB29,
0245,
E746,
FBFC,
FE97,
0786,
EEE2,
FA62,
FA6D,
013F,
083B,
061D,
FFB7,
072D,
F6FC,
F78F,
0531,
05BC,
00E1,
03C2,
0486,
027D,
0399,
FDB2,
03D5,
0419,
EA4C,
FAEA,
FF4A,
091C,
EF49,
EB32,
0A45,
07A7,
022C,
FC16,
FEC5,
FA45,
FE38,
FBB2,
0862,
0261,
01C6,
EDA5,
0611,
FA34,
050B,
05E8,
F55E,
F5B2,
F3F6,
0469,
F9C3,
F8FD,
F76D,
031D,
0187,
12BE,
FE37,
F5B6,
0639,
060E,
05E7,
0376,
025F,
0623,
00CB,
03B6,
F3B5,
03BF,
F49E,
069F,
F7CA,
FE1B,
0848,
0BF4,
0073,
0B78,
F412,
F4AE,
0488,
FDB3,
FB29,
081B,
0937,
13D1,
F327,
004A,
FEEA,
F6C7,
FA03,
FF96,
099A,
F813,
FA6E,
;   output 33
074F,
FB8C,
F2EA,
F977,
F811,
046C,
F912,
F79A,
05F6,
0849,
01BE,
F9EC,
FE9B,
0431,
01E4,
FD89,
FBB4,
07A3,
0392,
FA8D,
FA3A,
0A43,
FC8B,
09A0,
F10E,
0524,
0160,
0A93,
FEF2,
E936,
F4CE,
EF43,
FFBC,
FEEB,
FA3C,
E9D3,
F382,
F897,
F75D,
08CF,
0047,
FBEB,
F4E7,
015C,
0351,
FFFA,
F9AC,
FFD9,
FEAA,
ED24,
FDF0,
F889,
066D,
F5C8,
FD9A,
00CB,
082D,
017E,
F685,
F84A,
FC05,
FBD4,
042D,
0426,
FA16,
09E9,
FC42,
F62A,
EFBF,
FE2E,
F36D,
F44C,
0BFE,
044B,
0757,
F50D,
0C01,
0256,
FB53,
FAEB,
DF6B,
042F,
FACB,
FC05,
FF2E,
0631,
0268,
0569,
00A1,
08D9,
F984,
012B,
08ED,
F552,
F3D0,
0322,
FE2F,
007E,
0595,
FFCE,
F4FE,
FD14,
F4D4,
F577,
0F17,
FBB6,
0293,
F258,
FCE5,
0005,
04ED,
0453,
EC41,
FD5E,
FF29,
0299,
0570,
FC45,
F837,
029B,
FBC3,
0386,
F63E,
F60E,
F0D4,
0124,
023B,
0952,
07C0,
FF60,
F16F,
040E,
F89C,
0D1E,
FFE2,
F219,
E664,
0C9A,
FCB1,
FBE0,
FC5C,
FD29,
F92B,
0149,
F9B7,
00C3,
059C,
037C,
FC0E,
04AF,
F9AC,
FF60,
FD53,
0A3A,
046E,
FD38,
FF84,
F74F,
FF11,
FC1A,
0597,
0601,
060B,
FE31,
03A8,
F445,
FA7F,
FFBB,
00EE,
00AA,
FE44,
00D6,
FDC7,
FFFC,
06D0,
015D,
006D,
F0F3,
FF6A,
F1FE,
08C7,
0251,
0CD3,
F8B3,
0595,
F943,
EDBD,
F16D,
065F,
01D0,
0079,
FF0C,
0AFC,
058A,
054E,
09FE,
FCE7,
0264,
ED10,
FD2C,
0085,
F341,
FAAA,
0096,
FDCF,
0228,
FBE3,
0216,
F64C,
FACB,
FA4D,
FF57,
F587,
00FE,
FDA3,
FB59,
000B,
028E,
FEAA,
0A28,
007C,
EEFE,
FD73,
0959,
024E,
04FB,
0A16,
FDF6,
005C,
FC71,
FF22,
F880,
01AE,
F844,
FC90,
E849,
FC17,
0001,
0315,
0004,
018E,
F7CA,
021D,
0783,
097A,
00CF,
05EA,
00F4,
0A3F,
FD09,
F9EA,
F30D,
F5A6,
FA5A,
FF01,
0C70,
;   output 34
FD4C,
FB8B,
01F5,
FFA3,
00D0,
0970,
FD01,
F048,
02B0,
FF93,
F4D8,
F568,
06C7,
FF8E,
0C11,
05F1,
F981,
0BAC,
FC68,
F70C,
F712,
FD91,
F58E,
FA2C,
0D08,
0BC4,
F2BF,
FC8B,
028C,
0343,
0675,
F5F0,
FA78,
0617,
FC55,
E5D4,
FE25,
FF8F,
FBE0,
01E5,
FA4C,
03BF,
04A6,
021F,
0629,
0015,
FF90,
EF7F,
0002,
00DB,
03DC,
FCB4,
06B1,
0166,
0FE8,
06CE,
0A93,
FF51,
0741,
076B,
04F2,
F385,
1A6C,
FBCA,
01B1,
FE14,
0B33,
0265,
04D2,
01F1,
F04E,
EC89,
06BB,
FC19,
FA1B,
FD67,
F67B,
F1AD,
FC1D,
00A5,
F606,
FD24,
FEA4,
F5B8,
073E,
01D7,
F795,
F8C0,
008D,
FC76,
E36D,
EBCC,
03A8,
0116,
F7E1,
0090,
FB36,
01C6,
0518,
04FA,
EBEB,
002C,
00F4,
07AB,
FBA1,
029B,
0907,
0C5F,
02D0,
0007,
08BD,
F3FF,
0073,
F80C,
03C0,
F4C4,
0399,
09D5,
039B,
FC59,
0730,
0668,
FA70,
03D2,
095E,
07CB,
04D2,
F676,
FA24,
FD93,
04B1,
FEB1,
F88B,
FDCA,
FBF5,
F985,
0CAA,
0760,
F6BA,
FD4B,
0116,
0306,
FA24,
FC3E,
F9E0,
00B8,
009B,
FCED,
02CC,
FF16,
0139,
FBAC,
05F4,
00C5,
047E,
049E,
091A,
FE76,
02EB,
0175,
FCD4,
FE3D,
017E,
F456,
F1D4,
0837,
FF42,
01A3,
01E0,
0A38,
00DC,
0625,
FCC7,
0001,
0079,
071A,
01E1,
F8EE,
02A1,
F4C7,
073F,
F309,
FC92,
0463,
F48B,
F9C6,
FC9F,
FFA1,
F521,
05E7,
08F7,
F66F,
F02E,
FC6E,
04F4,
F5DB,
04AB,
0335,
EC23,
E767,
03F1,
0E1E,
048F,
008D,
FDBA,
FC69,
000B,
00BD,
F9CD,
F2F7,
0A94,
F471,
070C,
01B2,
EEEA,
011B,
F3A7,
03DC,
0D63,
F4E6,
05FD,
FBF5,
FEFD,
0089,
F408,
F94D,
FEC9,
08D7,
FB88,
0354,
053A,
FC64,
F93D,
0233,
0289,
03F7,
FA97,
FFFB,
05AB,
FBF5,
F464,
F972,
FAF9,
FB89,
F70A,
FC35,
FD04,
F44C,
02DA,
ED6C,
FB28,
02DA,
FDFB,
FD88,
05CF,
EF97,
;   output 35
FCF7,
FD6C,
FF69,
F980,
0390,
0434,
0038,
FE25,
09A0,
0568,
FAB5,
018F,
FF59,
05C6,
FD4E,
FE31,
026D,
0AEA,
FF3D,
01C3,
F608,
0305,
FF72,
FC61,
FFA8,
FF48,
0150,
019D,
040A,
FE18,
0161,
FB9E,
FE67,
01B3,
0331,
FC19,
0219,
01D3,
FDBD,
0444,
0811,
0912,
FF6C,
056C,
00EB,
FFFE,
054E,
00D2,
004B,
04FB,
0628,
FAC4,
FE96,
0176,
0323,
FE74,
088D,
0252,
023A,
0306,
060E,
0316,
05FF,
02C0,
0A15,
F703,
02B0,
08F5,
0DC4,
079C,
FD29,
F7B6,
0DF4,
FFF7,
01B4,
032E,
09B7,
0721,
FBB1,
FBE0,
FFE6,
FCF4,
FE4F,
FC4F,
0A03,
FEB4,
FBA9,
044C,
FF9C,
0C64,
0167,
FB9C,
FD53,
FC11,
01CB,
0083,
02A5,
0072,
05F8,
0016,
FFEF,
FE6C,
FB04,
F3D2,
0775,
05E5,
FF79,
F9D0,
07A3,
FFFA,
071E,
FCB5,
0147,
05C7,
FFF0,
FD98,
024B,
03CA,
07FF,
FBE0,
0380,
FF1A,
0150,
04CD,
00CE,
012C,
089E,
FF12,
054C,
001A,
082A,
013E,
F8D3,
06E5,
00EB,
0524,
FA37,
1059,
02CA,
FCEF,
02C7,
FA70,
FF5A,
FE72,
00D5,
01EB,
07FF,
07BE,
079A,
FA39,
025A,
0742,
01F4,
F59A,
00D9,
0215,
FFF5,
FE7C,
01A7,
FB9E,
F290,
FC08,
FA82,
FDA1,
0217,
0294,
F8AB,
073B,
036D,
0759,
078C,
0953,
FDFB,
FFFC,
095B,
067B,
FAFF,
FD64,
FAE8,
FFEC,
FDD1,
FF58,
F58C,
0506,
014A,
0541,
FFCE,
0039,
F71A,
FF7F,
0388,
0B75,
F334,
E8C6,
035A,
EDCF,
F755,
E8AA,
F7A3,
00AB,
01E9,
F7E8,
F02B,
EEC5,
FA42,
EC38,
0155,
EF18,
030F,
FF44,
FF06,
F8AD,
EDC6,
F15E,
F9DD,
FF38,
F86F,
0509,
E560,
EE8B,
00B0,
F362,
FD0A,
F0F6,
0260,
E9E6,
DFD3,
0011,
FC26,
F809,
FC85,
F5A8,
E545,
F475,
FD48,
F46A,
0433,
0000,
E9D7,
EF26,
071F,
0430,
018B,
FF64,
F0CD,
FEE0,
DCD5,
FB8C,
F929,
ED9E,
F899,
FAC1,
F552,
FB9C,
0448,
0B49,
;   output 36
FE18,
0B80,
0122,
F4FA,
063B,
F9FF,
FED2,
F8C4,
FF84,
04C2,
FABB,
0481,
FC0F,
FFFD,
0390,
05F6,
02A4,
0004,
FCEC,
0906,
0E4C,
0ECB,
FBBE,
087A,
E973,
04AF,
F8E1,
023A,
03B8,
E0DE,
0572,
02C1,
E866,
0126,
EEEA,
028E,
FBA8,
0485,
F73E,
FDE4,
FA24,
F0C5,
F758,
0764,
FE50,
FFE9,
FBDB,
FDA8,
FDD1,
FCB5,
03AE,
046C,
06F5,
FF1E,
F9F0,
040F,
FEE5,
0FF1,
FE62,
FBA0,
F474,
FC36,
F49C,
0CDF,
FEB4,
FBF5,
07F1,
FAF3,
0165,
EBB5,
0588,
FD6D,
FCD3,
F8C4,
05F6,
026E,
FC07,
03FA,
FE40,
08B1,
00E4,
0522,
0444,
FBDC,
F79D,
0C1A,
03FE,
FB15,
F6E2,
091B,
FD57,
F845,
FBFF,
F867,
04D8,
0CDD,
FAD2,
0602,
FEFA,
FC33,
FEE1,
05A8,
FA12,
F816,
EB47,
0A24,
E4BE,
0C58,
FB17,
0009,
0937,
FF44,
068D,
026E,
0016,
FFAA,
0761,
FA9A,
033C,
F918,
03BE,
06C0,
F875,
FAA2,
FA2B,
002F,
ECF8,
03BA,
F22E,
FF76,
F85F,
00AF,
FBC8,
00BB,
FA8F,
FE8E,
0081,
00DD,
01F0,
F05E,
F7FC,
FF1C,
07DB,
FBEE,
FD00,
FD11,
0F45,
0100,
FC4F,
001C,
0546,
019B,
FD89,
036C,
F31E,
07E5,
08A7,
F686,
0902,
02DA,
F9AF,
FD50,
F9D0,
FD43,
FDC1,
F2C2,
080C,
ED28,
F780,
FE7F,
E48D,
084D,
065A,
FFFA,
FD70,
ED3A,
F617,
FE13,
0A99,
FCC9,
FCD9,
034E,
0749,
08DA,
E8FB,
0C56,
F47E,
FDBE,
FEF0,
0332,
0205,
032F,
FFA7,
05B8,
F4EE,
04ED,
020B,
001A,
01CF,
05A4,
0429,
0C81,
FE90,
FF50,
FD0B,
02D8,
0447,
0617,
080C,
00BB,
FCC2,
0E6B,
11C6,
05EE,
030E,
009F,
FD92,
FE35,
06B0,
03D9,
0167,
F9F7,
0B7B,
FFB0,
F6EB,
0058,
FF5E,
017A,
019F,
FDA1,
054C,
01BD,
F743,
0563,
F4D4,
1521,
F865,
0005,
FC25,
FC3F,
0035,
0024,
FB90,
FB31,
F8BF,
FE92,
04F3,
00F5,
068C,
0ABA,
FCA5,
0286,
FE52,
FE98,
FF7C,
045F,
;   output 37
FAF3,
F46B,
0209,
06A8,
093A,
06B8,
08E6,
FCF3,
052E,
00E6,
FE8D,
FFFF,
FCE2,
0263,
FE94,
FE92,
FD71,
FB8D,
FDDD,
003A,
F6BE,
F57A,
F8F4,
0BDA,
0195,
F8DE,
F5E0,
016B,
09BF,
FB17,
0232,
FDB1,
FD7F,
FC85,
FD68,
F93A,
05BE,
F34B,
06E6,
01E5,
F5D5,
F452,
0042,
024C,
FBB7,
000D,
F78C,
FFAF,
087B,
FB64,
04BB,
FAC0,
FC69,
095F,
FDF7,
FFF2,
03AB,
FD4A,
F754,
08DB,
0670,
02E0,
FC7E,
FD07,
0473,
01AA,
FF29,
00C0,
FC51,
FE13,
03F0,
0852,
14B2,
0618,
F9BE,
007A,
0341,
0426,
03F3,
0372,
0185,
01DA,
F02F,
020D,
0D53,
F605,
0E92,
0B2F,
0132,
FDC7,
0265,
F565,
F66A,
0275,
0632,
047D,
FFF2,
F9B6,
F855,
023D,
01F5,
F18C,
0A37,
0364,
09CE,
F8F7,
0154,
0B6F,
0249,
0002,
FE58,
0356,
025A,
0692,
00D3,
0B40,
F2BD,
0871,
FEAF,
00F2,
FF61,
0556,
FF75,
FBAD,
0132,
1049,
0147,
06A8,
0BFF,
FEB4,
0693,
E2FB,
F444,
01AF,
037F,
F1ED,
04E8,
F83C,
095E,
01B1,
0E0B,
FEA8,
018E,
F04D,
EEE5,
EC96,
0DF8,
F4EB,
03D4,
0350,
0ADC,
F004,
F1A2,
0386,
FFD0,
FD6D,
F724,
FBEE,
FF89,
FD95,
02E3,
0C7E,
ED2D,
04FE,
F7F6,
030F,
F79F,
FA65,
FC83,
FD19,
FF10,
FAE8,
F714,
003C,
142F,
FA54,
FEF7,
FC5B,
0994,
F6FF,
E270,
FAAF,
0737,
EF2B,
FC09,
008D,
FB59,
0397,
F9DC,
0271,
FAAA,
EFA1,
065A,
0257,
057E,
FC09,
F1BF,
0082,
0005,
F895,
FEDA,
0437,
0C9E,
0093,
0349,
0174,
FD43,
060D,
FC9F,
FDEE,
FEB4,
F7C5,
0389,
005F,
0ABF,
0359,
FADF,
0744,
0F47,
0313,
FB35,
07CA,
03A6,
0673,
023A,
0182,
042D,
0862,
FB38,
0550,
0775,
0C79,
0BD2,
01F3,
0650,
0ABC,
03FF,
0056,
0185,
0974,
02EF,
03A3,
EBE1,
0144,
F835,
0236,
01D4,
04EC,
F358,
19B0,
0190,
0C74,
0560,
0A22,
FCCD,
FAEE,
;   output 38
0921,
FEAF,
0818,
EF3A,
0A8D,
FF21,
00C7,
0DB7,
03C1,
0396,
F5AB,
08B4,
FE92,
F009,
F626,
05AE,
FEF3,
F8B6,
06A7,
F3B7,
FEFA,
FBC8,
FE5B,
011F,
F89A,
F6C0,
04BD,
FFB2,
FF4F,
FC60,
F70B,
0CA2,
F982,
FCFD,
FD06,
0298,
F600,
07E1,
F81B,
07A3,
F6FD,
07CD,
03F3,
02F4,
0016,
FFFF,
0581,
FA50,
05D9,
FDA8,
FF57,
F593,
FC16,
03DF,
F433,
EB3A,
055F,
04C4,
0A63,
0146,
005F,
01D1,
EC13,
EB08,
0243,
025A,
FB25,
06AF,
0162,
099A,
EA50,
03D9,
F5E6,
FDE2,
F6E0,
F158,
ED32,
F1FC,
FF10,
0E6B,
F889,
005F,
FDD1,
F7F5,
0C04,
0B5F,
FBD2,
EE9C,
00B5,
0605,
FB25,
FEE3,
0BCB,
02A2,
F768,
04E2,
FEE8,
0E77,
03A3,
FFA1,
0258,
0165,
F57E,
020A,
01E6,
FEA4,
F796,
F221,
FC38,
FFFB,
FCA4,
F0B1,
EE9F,
DF48,
00AE,
041B,
0AB7,
FFD6,
06B4,
F40C,
0CA8,
FACE,
F8E5,
0DD9,
FAA0,
FE48,
F88C,
F9CE,
0737,
000B,
FD8C,
01AE,
0247,
04AF,
FC4B,
FC05,
0511,
FCA7,
00AB,
01B8,
10AD,
02A4,
FD43,
08FF,
F862,
0A3B,
F3AA,
FDA1,
FF3C,
FEF6,
008E,
FB08,
F0FA,
FF54,
FCB0,
01FC,
FE7B,
0789,
0495,
FDF7,
0084,
028B,
FF12,
F838,
02CD,
EFFE,
FDEE,
03A2,
0385,
FA4C,
055B,
FC40,
F8DA,
FFEA,
041F,
0916,
FDF6,
F5BD,
FD43,
0A99,
02E1,
FCB3,
0054,
000B,
0150,
03C0,
F948,
FF0F,
FF6E,
F51F,
F6FB,
042B,
FE67,
05F8,
048A,
00DE,
0180,
017C,
00E7,
076E,
FF42,
FCA3,
0715,
0458,
FE68,
057E,
F91B,
05E1,
EBCF,
04B4,
01A1,
089F,
FD40,
F463,
05FF,
0333,
01B2,
FF0F,
0791,
07EC,
FE87,
0712,
FF97,
0239,
046E,
0CD2,
FCBC,
004A,
0598,
EBE6,
FE01,
011D,
FCD7,
0FDB,
014C,
080C,
FC6D,
FFE3,
FBA2,
FD17,
FFDD,
05B1,
FFD1,
00DA,
057A,
F6D2,
10BA,
12FA,
FED9,
0054,
FCDA,
FFC8,
0730,
E777,
FFCD,
FCAE,
;   output 39
FC5E,
06A9,
021D,
0EC9,
015B,
FFAC,
F274,
F8F0,
01DE,
00D2,
038C,
FB57,
0267,
0456,
0A2F,
0BAD,
F96E,
1513,
FE67,
004B,
07FA,
053C,
FDC7,
0295,
FCBE,
0816,
F954,
012E,
F20E,
029E,
F730,
08EA,
FA32,
F4F1,
FFA1,
F5F3,
0282,
0A88,
0D34,
F8B5,
FE71,
0AE5,
0AE3,
0129,
091B,
0000,
0610,
F81A,
FA3C,
FDA0,
FCFE,
FDB6,
0446,
06C5,
06A3,
0624,
FE7A,
0771,
057D,
0E1D,
0102,
FE88,
0260,
F387,
FBB4,
02BB,
0444,
FB95,
F2E2,
F137,
F5D1,
FD76,
0984,
0662,
0708,
01F4,
F9D7,
FEBD,
0863,
0571,
FB60,
07F8,
032D,
053F,
014C,
091B,
020F,
08E9,
F78B,
0269,
F11A,
F64C,
0166,
01C1,
0170,
073E,
02E6,
FC36,
05FB,
F3BF,
F3B3,
F7D2,
0786,
E0CE,
E5F1,
05A0,
F780,
EDDC,
04AC,
FFFF,
FD6F,
04F6,
EA13,
FE42,
05AE,
0264,
02C8,
03FC,
F7E3,
080D,
FD21,
04D4,
F13B,
0AE2,
0660,
0766,
0694,
FC6A,
FEAA,
02C2,
F953,
02F3,
FF51,
F52C,
F2D0,
0522,
F2D2,
0354,
F9F2,
F997,
F4AD,
EF63,
01C8,
FC4D,
0227,
FF15,
081D,
056F,
FC4D,
0597,
FEC5,
0205,
03C0,
019B,
0023,
FB20,
09EE,
FBD9,
0C9B,
0547,
059B,
F5C9,
F16A,
F7C8,
FF44,
01D1,
0641,
0049,
F8F0,
FD42,
00F6,
F95E,
00A6,
FFCF,
FA6A,
FADF,
FF84,
FCB1,
FACD,
03EF,
0039,
03BE,
0987,
0570,
FCBA,
04E1,
FD95,
F5DE,
F91F,
0520,
02BF,
017C,
F55C,
0850,
0062,
04B7,
FB06,
016A,
FFF3,
FDF3,
F24D,
FAAE,
03C9,
04A4,
F2CB,
063E,
02DC,
0C7C,
10A7,
0338,
090F,
0058,
090E,
FBA5,
01BD,
FEC1,
0E16,
FD23,
1638,
02D2,
FCBB,
0ACA,
05B2,
0C6B,
0761,
0BEC,
0C81,
F9A8,
FBB7,
F886,
043B,
001A,
05F2,
0A10,
0284,
0259,
FEC8,
FFBB,
0FF5,
E9BB,
FD71,
F6FE,
038A,
03C6,
0943,
018A,
0D15,
F5D0,
0539,
FE2E,
F16A,
05DE,
079B,
07DD,
F823,
F701,
;   output 40
007A,
F475,
EFFA,
F189,
0771,
F8EF,
FB7F,
044E,
F982,
FDA9,
EE1A,
F954,
07CA,
095C,
F9D8,
F0DC,
031F,
025A,
FB14,
05DB,
F91D,
03F4,
FEEC,
008E,
FE90,
0910,
F4C9,
FB90,
01E8,
F8B2,
FFCF,
04B1,
F889,
0685,
F12A,
0463,
00B8,
021C,
FC69,
F066,
F7DC,
055C,
F7E4,
F6D5,
FD2E,
FFFF,
08D3,
F3CC,
010B,
FFEF,
04CD,
F9DC,
0967,
E9B4,
01A6,
0061,
FDB1,
0302,
FD80,
FBF2,
0417,
FCDE,
F0D7,
0453,
03DB,
078A,
FD38,
FC59,
055D,
FDA5,
0621,
0838,
F7DA,
0A8C,
F78A,
0BF8,
00C2,
08BB,
F7EB,
FE16,
0420,
0180,
F99F,
05B6,
02C9,
091F,
08D9,
FB08,
0BEB,
0FB7,
078D,
F918,
030C,
FF89,
060D,
FEA0,
027D,
049A,
FC09,
FB0B,
00F5,
FBDA,
F227,
FF48,
1013,
0E5F,
08BB,
07A5,
F915,
0012,
0702,
0028,
0505,
020E,
00B8,
FD97,
05F0,
F2A1,
021A,
05F9,
0370,
02F4,
FE15,
FD5F,
03E0,
FA3F,
041D,
06E3,
018E,
032E,
0DE1,
05FF,
04EE,
F5E2,
FA53,
F9D8,
1030,
0196,
F989,
FFD3,
EEA4,
EA3A,
FD12,
EDD6,
06C2,
0C32,
FE95,
08FB,
FD6C,
FCFD,
01C5,
0A23,
0675,
FFE8,
F9BF,
04F3,
09A6,
F8B3,
08A3,
EE49,
F164,
F106,
EC18,
014A,
FEAB,
FFD5,
FEE9,
FD38,
FCAD,
FB57,
FD29,
F5F9,
F6C5,
0011,
07A6,
00DE,
F95D,
FDA1,
03E0,
05A1,
0598,
039B,
F43C,
FAA2,
02F8,
0BB1,
00CF,
F3E7,
F4D9,
0866,
054F,
05F0,
F275,
00AE,
FB08,
F51D,
0C75,
0294,
074D,
0487,
04E1,
011B,
09FA,
0BA6,
FDFA,
02FD,
09B8,
F21F,
FAB5,
F1A3,
01B0,
FA28,
112D,
EE36,
027D,
FFA8,
FB32,
1104,
0291,
FE11,
0959,
FF88,
FF4E,
FE6A,
E5D9,
F2E6,
FA13,
026C,
FE5C,
FB21,
FF33,
018F,
FE9D,
025F,
FBE8,
0A1C,
EFCD,
0001,
0534,
0600,
FE7D,
00EF,
06B7,
042A,
F878,
01D6,
FA71,
00DE,
0127,
0A22,
0914,
01FD,
F175,
FCB2,
04B0,
0545,
;   output 41
04AA,
03B6,
0115,
0BAD,
F981,
04E3,
F5DC,
F2B2,
FE5F,
FCA4,
02B0,
0639,
05C0,
00DC,
FC43,
05C7,
F27F,
09CD,
00EA,
F7B7,
FFD7,
FDCA,
FA4E,
106A,
0376,
064C,
04E7,
FD03,
F873,
FDE9,
F3C5,
01FA,
0598,
070B,
05C0,
00E1,
F8EC,
F2A4,
FEF2,
FBEE,
028F,
FE05,
F308,
0870,
FEBC,
FFFA,
020A,
FFF3,
013F,
F53E,
07BE,
00D8,
0512,
03C4,
0251,
F8D6,
018B,
FB78,
02DA,
0251,
025C,
F417,
FE18,
F582,
F670,
02FA,
FABC,
06A3,
FF11,
FC90,
02FC,
FB86,
0929,
FE03,
0AE8,
072D,
01F6,
042D,
0112,
056C,
0175,
0374,
00F1,
FC0C,
FF9C,
FF0F,
01FA,
086D,
014D,
0471,
07D0,
0235,
F146,
01D1,
01BB,
FBF8,
0720,
08AA,
0399,
057E,
0311,
FEDA,
F8AE,
001C,
F7A8,
03F8,
FFF7,
0272,
02D2,
0009,
0531,
FD9F,
FE18,
0986,
FEE6,
FD88,
074D,
FF48,
010C,
07D9,
FD88,
0171,
01E2,
0451,
06F4,
FD42,
0542,
0312,
FB58,
F6F6,
F7FF,
F308,
FAC8,
0538,
EB1E,
ECC6,
F51F,
051F,
0230,
F6AE,
F72E,
FB7B,
03BC,
0A98,
EF23,
FE1B,
F5E5,
FC83,
0216,
0302,
03A2,
04E0,
FE01,
06CD,
F45F,
FAE7,
FAAE,
EB91,
F7B2,
F0B5,
F71B,
F84B,
07D5,
0985,
0180,
E2C6,
02BE,
FC9B,
F8B1,
EB19,
FCD5,
FA05,
FEF6,
FFF4,
F86B,
072B,
EFFD,
E0A0,
02ED,
F3DE,
FB01,
00A8,
0389,
F648,
FED2,
02D3,
F7FD,
0446,
0081,
FE90,
02BB,
0292,
0647,
F77A,
E943,
FFA7,
00D8,
FF30,
FD8B,
FC84,
F7FD,
0FCE,
018F,
E227,
FA99,
F105,
064E,
FEBC,
09A6,
F2C9,
FFE6,
091E,
0067,
0139,
F795,
0749,
FD96,
0A77,
FD28,
04A8,
FEE8,
F365,
FAF3,
FB2F,
F4BD,
FD42,
0090,
F797,
034D,
F5E2,
06E7,
0617,
FC22,
ED0D,
E642,
FFC7,
FD7D,
FFF4,
F624,
F5D2,
001E,
F8FE,
0401,
F98C,
0212,
06C1,
0001,
FB4E,
FEC0,
09D8,
F438,
FE6A,
F4F6,
0864,
046F,
F563,
;   output 42
FDD3,
0705,
0606,
FF27,
00C8,
026F,
0518,
03B0,
032A,
01ED,
0433,
0806,
0229,
0042,
0081,
0186,
02C7,
FA6C,
0557,
011E,
0252,
0006,
FEE7,
03EB,
F99C,
FDA1,
FC92,
FD16,
F533,
080C,
FDBD,
FF20,
FD73,
029B,
0075,
0329,
0520,
FE92,
FF35,
0305,
011D,
02A6,
0781,
016F,
06E4,
FFFF,
07DB,
07A8,
FFA9,
FC19,
011C,
00B0,
07CF,
013B,
0112,
024E,
FED2,
011F,
00A6,
004B,
0089,
0237,
FFC9,
FB33,
FA68,
FF67,
056F,
070D,
F806,
FF80,
ED72,
02E4,
05F2,
0471,
0480,
04D3,
FAEE,
FA08,
05EE,
02A5,
0685,
02AD,
FC0E,
0572,
02FD,
088E,
F825,
02F7,
062C,
02C3,
0549,
FA2E,
0196,
0541,
0172,
0415,
FE9D,
0134,
028B,
FE43,
0524,
FD6A,
F9A2,
FD15,
00E6,
0417,
0050,
0090,
FC78,
0003,
F304,
0405,
07C1,
FAE9,
0346,
05CF,
0702,
016F,
007C,
02E5,
FBEF,
0436,
FEDE,
075F,
FC2B,
FE16,
08D1,
0124,
02BA,
03FB,
0532,
FF69,
02AF,
FDE1,
04E0,
06D3,
0B7B,
05CA,
F781,
FCCC,
F7AD,
F467,
F428,
F74A,
0439,
04AC,
F9F6,
FEE5,
FFFF,
0098,
0253,
FD2C,
F92A,
008A,
F659,
048B,
FF9D,
04BB,
093D,
F5A4,
FB2C,
F427,
FF7A,
FBFE,
F401,
0480,
0307,
0356,
FA26,
FD01,
FFEF,
05DA,
0A21,
0000,
F614,
07A0,
09F8,
0354,
FFD8,
041A,
0879,
0126,
F24A,
F8A9,
0761,
0510,
03C4,
F5A1,
FF4D,
005C,
F1FE,
090B,
FA48,
FB64,
01B9,
FE34,
FCD9,
F335,
E051,
EFFB,
00AB,
0102,
F8F0,
FA61,
F2DD,
E883,
FC9E,
F743,
F6F2,
F25B,
E597,
ED8C,
0250,
EAAC,
F18C,
FC46,
F5EF,
0DF8,
E705,
F412,
09B3,
E98B,
FF40,
F86B,
ECCF,
EEE1,
0237,
F9AA,
F276,
FD3B,
0104,
FF1A,
F587,
F81E,
FE7C,
DEC9,
FD53,
FFFF,
F120,
0120,
ECB4,
EF1B,
0500,
FF57,
FE02,
056A,
F15A,
E6A3,
03A9,
0823,
F9CA,
0B2A,
F00C,
FB08,
05AF,
03E4,
;   output 43
FD99,
0B87,
0A89,
FF98,
F28E,
FF15,
01B5,
F95F,
010F,
01D8,
07CF,
FAFC,
008B,
FC98,
02D3,
FDB2,
F937,
F6C7,
022A,
FE5B,
FF08,
020B,
F2E4,
F9AE,
05DA,
02C2,
0E50,
FED0,
016E,
FF27,
FF8F,
06D7,
0635,
000B,
F21B,
FA77,
F4BA,
FCE6,
FAF1,
FAE9,
0168,
F967,
FB9F,
00FA,
F6AF,
001E,
FBE7,
FA30,
0664,
FC17,
FFEC,
F949,
06DF,
FB53,
069A,
FC4F,
FF57,
F78E,
F9AF,
F9BF,
F2F2,
0309,
F6CD,
0746,
05FF,
20C7,
0861,
08E6,
00F8,
FCA4,
FD2D,
03AC,
0F04,
FD3F,
F732,
0804,
FB4F,
F115,
FDB4,
EB87,
0663,
0139,
0C71,
FB33,
ED0E,
F61D,
FAD4,
FDE2,
056B,
0122,
FF30,
FE7C,
03EA,
FFD4,
FFB2,
0BEE,
FFF7,
FFEE,
0281,
FC18,
ECDE,
076F,
F503,
1324,
EB84,
0626,
062B,
0523,
F4A9,
FFE7,
01B7,
FDD2,
0856,
045B,
FCD4,
FCC8,
0177,
F8CD,
FD9B,
FF58,
00F3,
EF36,
0422,
F45B,
F936,
FB60,
0365,
FB39,
F761,
07D8,
F443,
FA94,
FAF9,
069B,
EEFB,
F7C3,
F42E,
05E3,
09FB,
EBB0,
05D4,
F4F6,
038F,
FC39,
FD66,
F74C,
01F3,
FFD7,
FF02,
0826,
FB09,
0226,
036B,
03D2,
FD30,
0157,
F9D5,
E7E8,
FF61,
F86F,
FBB8,
FB0C,
F830,
0257,
0E2A,
F9FB,
FB10,
FC46,
F94F,
FB29,
EF10,
FDB3,
F220,
0019,
F99E,
034C,
FFA1,
EC2C,
0041,
0EFD,
F612,
0D82,
085D,
FA11,
0826,
17BA,
0648,
01D6,
0585,
0385,
FF86,
0D55,
F39C,
F9D7,
0159,
FACD,
F8C5,
067E,
F455,
F653,
011D,
050A,
0696,
F5EC,
0280,
FEF5,
F903,
011E,
0798,
FCEF,
05CC,
01D8,
FCA8,
F8B9,
00CA,
FE8B,
00C7,
FD4E,
F2A2,
0088,
053E,
0F12,
F737,
05F0,
F9EB,
087B,
0261,
0016,
086C,
FF56,
F8A0,
00B4,
0265,
06CC,
FA0D,
F533,
07A0,
FFEA,
09FC,
FF85,
FB27,
FABA,
F20D,
00A9,
01DC,
F893,
0184,
FD11,
FBF0,
0AE9,
0BB7,
02DE,
017A,
FEB8,
0636,
F585,
;   output 44
0089,
FDDF,
E667,
F790,
FAE8,
0144,
050D,
FE17,
F29B,
FC3C,
0661,
FA10,
0B51,
F7E6,
FDF9,
FCC5,
FDE8,
F1F9,
FF57,
02C1,
FD16,
0099,
EFAD,
F2D5,
036D,
010E,
0239,
FA3B,
FECE,
FB80,
FBD8,
E772,
0293,
FD0B,
F3E1,
E768,
F221,
EAF3,
FF2F,
01E8,
0456,
F00D,
F3E6,
0050,
FE2E,
FFFE,
FA24,
0380,
026E,
F957,
F656,
F8AF,
0A2A,
F2F5,
FA69,
F9F5,
FF62,
FD10,
FD78,
F2CD,
F2F3,
EEFE,
FE92,
FB08,
FC3A,
FB62,
0A32,
F944,
056E,
FA01,
10CF,
00DC,
F763,
02E3,
FA7C,
0603,
FD33,
ECF0,
FCF7,
F153,
0FDF,
FA9E,
FECA,
0AD6,
F9C6,
FDB0,
EE8D,
FBE2,
02CC,
05B9,
FC8A,
FE65,
FD2A,
062A,
0903,
FB83,
0741,
F595,
ED92,
FEB0,
FB23,
02C8,
FD7D,
0231,
F993,
0066,
0E0D,
0755,
034E,
0000,
01C9,
FCAC,
078D,
00E1,
EB11,
FBA7,
057D,
FB34,
FDF4,
05CD,
FE35,
FCDD,
0850,
F415,
EFC8,
0032,
E963,
F165,
081B,
FFD4,
F2D2,
0302,
005C,
07AB,
F9D8,
FFFA,
FC4B,
07F6,
0129,
E4F3,
0BD0,
FDE0,
06E3,
FE74,
FE81,
EE86,
0BB5,
09C7,
0007,
0A86,
FDAD,
05BE,
06A1,
FEB1,
F8F1,
F565,
0604,
F390,
0144,
FDAB,
F7F3,
F933,
FA0B,
033F,
FCF5,
041B,
0012,
F4F5,
FB88,
FE1D,
ECA5,
004C,
0196,
0005,
FE98,
FE94,
0224,
F80B,
031B,
03C2,
FDCE,
09B6,
F809,
0004,
08D4,
0D63,
04C2,
05A6,
03ED,
0709,
0659,
03B0,
F6C7,
0524,
0464,
0400,
03D6,
FEF7,
FFA2,
F7C1,
FD6E,
FCE5,
00FD,
FF65,
FFA8,
FB05,
078F,
FB92,
FFDF,
0151,
0910,
06C1,
FE03,
FEC1,
04FF,
00CB,
086D,
FA5C,
FDBB,
018F,
007F,
0244,
04EF,
0E7E,
FC56,
FE67,
048F,
0B4E,
03EC,
0BD1,
0686,
05FB,
F9A2,
0558,
FD43,
0214,
0163,
FFF8,
0808,
0377,
F7AB,
03E5,
FC4B,
FB8F,
069F,
0646,
00B5,
FC00,
FF3E,
08B5,
01CC,
0365,
FD36,
0970,
0164,
FFBF,
;   output 45
061D,
0414,
F841,
043B,
FFF4,
FD14,
F753,
069B,
F91A,
0A05,
EFF2,
F175,
FCE3,
ED85,
F527,
F294,
06D4,
0E3B,
09B1,
F82F,
01F8,
0729,
F859,
0254,
FB9B,
09D6,
020B,
F0A1,
FDFC,
F935,
FF7C,
F645,
F6D3,
F291,
F62E,
F8D3,
F85C,
0578,
001C,
F80A,
F850,
F51E,
F0C0,
F681,
FB2D,
FFF7,
EF68,
FE16,
025C,
00D7,
028E,
F70F,
0EB6,
F068,
F9BB,
FE47,
FFF4,
FC11,
039A,
FB07,
015B,
FACD,
FD00,
F7A2,
0A92,
FF7A,
0313,
0222,
FE6E,
FF10,
F475,
007C,
0AD4,
0326,
F716,
0280,
F619,
EF42,
E9BD,
E7DE,
0945,
0335,
014D,
F613,
F92F,
1130,
F062,
00B0,
F37F,
F8C9,
01DE,
04FC,
FF9C,
F4B7,
05B1,
F15D,
F77B,
FC92,
0079,
F494,
E77B,
0860,
085B,
0168,
F7F3,
F596,
E56B,
FFC7,
0623,
FFFA,
0B82,
FB71,
09AC,
0022,
F75B,
FCE3,
070A,
F3D2,
F541,
F9EA,
FD3D,
02A1,
06DD,
F002,
F859,
FA33,
037C,
FDB5,
FA1D,
05BF,
0E9B,
FFE5,
F96F,
FC98,
F742,
0178,
0977,
07DC,
F9D2,
0270,
FB1C,
FE59,
07A6,
00F4,
074A,
FF0E,
09C4,
FB33,
0342,
01D0,
FD9E,
FB9D,
FAF2,
0318,
0277,
0718,
F59D,
FE2F,
0126,
0097,
FEC7,
F892,
0904,
0A9F,
FEA8,
FE5D,
FADB,
04E7,
FD43,
053D,
F25C,
FC28,
FC87,
000C,
F3D6,
F441,
FBC1,
FBBC,
FCCC,
F8C5,
FEB9,
0537,
0166,
0695,
FC5F,
F9D8,
FDB9,
04E9,
031F,
0545,
0049,
FFF2,
0F7C,
02EB,
FBE4,
061D,
F3A1,
0E30,
F370,
08CE,
FF9B,
0937,
FA50,
007A,
F6B7,
0438,
F755,
02DE,
FE40,
FFE0,
F699,
FDDD,
FB80,
0180,
FCA9,
F557,
07E7,
0839,
FE41,
FF5E,
00A8,
FE9C,
11A1,
FCA1,
FBB6,
05A3,
FFEF,
FE23,
0587,
0A41,
FBA8,
FD98,
FEBB,
F597,
F0FE,
030D,
092D,
FFFD,
006D,
03FA,
FCB5,
01AD,
F28D,
02EC,
FD6A,
F1AE,
FFAE,
0562,
028A,
07C4,
FB16,
FA73,
010D,
01BC,
FF51,
0407,
;   output 46
0651,
FD66,
0497,
F633,
F9F5,
FF22,
09EF,
FCB7,
FC0D,
ECC4,
0462,
0715,
FEE5,
018C,
F081,
FEB1,
DC54,
F81B,
F7A9,
F667,
FA01,
FCFD,
045D,
FAB0,
0274,
0735,
00D6,
0607,
F05D,
0B79,
EB5E,
02C7,
0EEA,
0B1B,
FAB7,
FB58,
EE80,
ED67,
FEFE,
EF9B,
0C60,
0739,
09FE,
FE26,
03DF,
0003,
07D0,
0C00,
F4A9,
0034,
FBB3,
FD69,
0273,
FDC5,
02FB,
FDBB,
0363,
FF07,
FC8E,
0409,
FB9F,
03A6,
FA72,
0700,
F883,
FF19,
03D6,
FBB7,
F246,
FE88,
0581,
FBC9,
F5D2,
02BC,
04C5,
07B2,
0899,
048E,
0485,
06BE,
FF89,
EB39,
01ED,
065A,
FD57,
023B,
FA9B,
FC78,
FD98,
04F1,
F63A,
0136,
0016,
0786,
0444,
FCF2,
0657,
FF3B,
03BD,
F5ED,
F448,
EEC8,
F9FD,
F7FF,
FB1D,
F662,
0A22,
1624,
03D7,
0013,
FBBA,
FA3D,
05A2,
FBB8,
FDB8,
E086,
02E7,
0264,
0916,
0622,
06F6,
F5CF,
F8D3,
0BAB,
FA37,
04F0,
FE9F,
09DB,
F355,
F12E,
F4B7,
0085,
FBC3,
FEF3,
02BD,
00C3,
0A19,
EF30,
FEF3,
FC33,
FB18,
FB23,
F60B,
00DC,
F5B6,
F98D,
F7BF,
F010,
FB8F,
F99B,
0B81,
FBAA,
FB5F,
019C,
F5E7,
FBBD,
FB07,
FA97,
FF90,
F892,
0528,
FDC3,
0187,
F4A2,
FF58,
F411,
FE52,
EABD,
0123,
F6E3,
0160,
FC38,
0406,
0012,
0150,
0774,
0137,
010E,
0027,
09DE,
F934,
FF58,
079E,
FF72,
F53E,
F5A9,
FC11,
FF68,
013E,
FF08,
FE75,
F90E,
0E4A,
FF7B,
FEF9,
FF3C,
FC9C,
053F,
09D5,
0220,
F972,
FAC5,
0343,
FBB6,
FB89,
0915,
FE23,
0985,
F1E9,
F5DD,
0079,
0A45,
045B,
FEA3,
F844,
F099,
FD21,
09EB,
0D81,
0245,
FFEC,
0ABE,
FE0A,
0101,
FA34,
00EA,
0810,
FA61,
FB78,
F9E4,
FC3F,
FD4A,
040B,
01A8,
010B,
061B,
10AE,
FFF9,
F651,
F796,
03DF,
FFCA,
0280,
0077,
021F,
0000,
FF10,
FFDE,
FD8A,
FFCF,
00BD,
0363,
FE10,
FDD4,
00A5,
F475,
;   output 47
0126,
0137,
0863,
0787,
FB63,
0121,
FF84,
0391,
063D,
F7F7,
FB5F,
07EF,
022C,
072F,
FF8A,
F146,
0080,
04A1,
F594,
0797,
FF98,
FDDF,
01DC,
FF91,
05A9,
020A,
03AA,
0267,
FDDF,
026E,
018D,
0F6D,
08EA,
07DA,
0760,
045A,
06A0,
01A8,
026E,
01A2,
FB86,
0858,
0523,
F961,
FB95,
0004,
FC27,
0281,
FA4E,
06D8,
0382,
004E,
FC2B,
F6F8,
027A,
009D,
04A7,
03E1,
FFA6,
F832,
F847,
F18A,
FBE8,
F9C3,
0966,
0860,
FFF0,
0453,
077D,
FCBF,
F6E2,
0BFB,
F782,
F0CE,
EFFB,
FF0C,
F8E7,
01F7,
F3C5,
F7AF,
0094,
F970,
F187,
FA3B,
F725,
0513,
0044,
FF76,
01DB,
05FE,
1006,
FE0F,
FB42,
057D,
01EC,
00B4,
02E5,
088B,
EEC9,
F93D,
0117,
0083,
07E3,
F67B,
003A,
04D3,
07B4,
F4E6,
EC8A,
0005,
01B0,
0317,
0598,
0282,
07C4,
FBE2,
FF07,
F15D,
0AD6,
05C7,
0076,
FB55,
FBE4,
F3AF,
0C11,
F6CE,
FB2E,
F9F0,
0279,
FF68,
FF21,
04A7,
F838,
ED72,
FC6B,
054D,
FCA5,
F290,
F982,
FC63,
F037,
FE7C,
FF91,
E696,
01F9,
03A3,
EFCC,
0187,
02E0,
EE03,
FA08,
F0D7,
0549,
FC0E,
FF8F,
01AE,
048C,
06B7,
009B,
0626,
F4B3,
F08F,
0C35,
0457,
FDCE,
082E,
FA45,
FF57,
0A51,
0E22,
0247,
02DA,
FD02,
0008,
043D,
FCE0,
FA10,
05A3,
06EC,
03AB,
00A5,
F323,
FF64,
00F6,
FCF4,
FB99,
0354,
FCEF,
EDF9,
EB47,
0975,
0AD4,
0B8A,
0BDD,
FE52,
FE6F,
F9E9,
01D8,
FD48,
097C,
F9A0,
0914,
F2E8,
0642,
F39A,
FB99,
FE84,
E531,
FF30,
F9DF,
FF1E,
0270,
09E6,
F930,
086A,
F043,
04F2,
08F4,
0AE9,
0857,
FCF1,
0331,
00E3,
0F2C,
0972,
F9DA,
006B,
FFAB,
024D,
03F5,
F3E0,
0029,
0358,
0DBE,
FEE9,
FF82,
F761,
000A,
06FD,
FBDB,
0E26,
FE7B,
019D,
0977,
0434,
E7D5,
F5E8,
04ED,
063F,
FAB2,
F8FB,
F79F,
F071,
F9C5,
06D1,
0C69,
;   output 48
09E4,
FED9,
FBE1,
0329,
FD05,
FC0E,
0187,
1044,
FB12,
FCA5,
F871,
F987,
F771,
00C5,
0501,
0048,
0242,
078A,
F7CA,
FF87,
F046,
0219,
01D0,
F670,
0A05,
01AA,
00EB,
0640,
0449,
FE72,
07CA,
012E,
01C7,
00FA,
1219,
F144,
05BD,
0AF3,
FA73,
FEBE,
F393,
F949,
FEA5,
FFAF,
FB78,
FF9A,
FDBB,
F6EE,
0034,
040C,
00C7,
0631,
043B,
FE11,
08D4,
0427,
F7DB,
FE54,
EE2F,
FA7E,
F796,
FE70,
F552,
FE7F,
029B,
0151,
0415,
07F7,
FE00,
EFAF,
0072,
F91B,
FE54,
068F,
F537,
07B3,
00A1,
0A65,
FE4D,
FAFD,
02AE,
FFD3,
0994,
E0FB,
FCF8,
0281,
0348,
F9DA,
EEB6,
F9CF,
1253,
F895,
0493,
0A36,
F848,
F556,
04FC,
FE1C,
0971,
EB4A,
F297,
063F,
1129,
0922,
EAB0,
09A3,
FE96,
01C9,
09F1,
0001,
07EC,
F097,
07DA,
01C4,
F7B7,
F742,
0103,
FEA8,
FBDB,
F6DB,
F4B6,
FDDD,
FEA4,
F6D6,
0E43,
0042,
0AC3,
F18A,
FE49,
FBC9,
033C,
0588,
06B2,
039C,
0141,
013A,
0379,
0179,
FE3F,
0A45,
F980,
FA75,
09F4,
0A9D,
05D8,
0419,
0AF0,
02AE,
F721,
05A0,
06A2,
FC10,
0A92,
FB89,
00C1,
03B8,
FFC3,
FCD0,
055C,
FC7F,
00C9,
0441,
F5FF,
0129,
0CFE,
FDFD,
ECC5,
03F8,
06E0,
FE69,
060A,
05AC,
FC6C,
0046,
05B6,
02EC,
FF27,
0483,
001E,
07A4,
053B,
F69C,
0902,
F675,
F8B4,
0740,
0D80,
034F,
007E,
FCBF,
05D0,
0664,
02E1,
E9FD,
039D,
F62F,
FF7A,
FB56,
04D2,
FBC9,
044F,
FBED,
069F,
0509,
01E8,
FCC5,
01B7,
0849,
E9C6,
FB3A,
FF80,
F322,
07C4,
F224,
04D9,
FE69,
F430,
0376,
05FD,
F9D0,
0560,
F26E,
FA95,
0310,
FC70,
06E8,
FCCA,
F912,
F59C,
0A08,
F67B,
0AFE,
0380,
F31D,
FEA1,
076E,
0751,
005A,
FF66,
045F,
FBE4,
FC4B,
011E,
FE51,
F83E,
FD50,
FD0F,
E343,
F825,
0AFD,
0830,
05E1,
008A,
00F7,
FB0D,
0494,
;   output 49
FC9F,
FA8E,
024E,
FA28,
FD34,
FFBB,
0B04,
FCD8,
F66D,
F85A,
0665,
093E,
F73E,
0291,
ED10,
0003,
F0DB,
FEC9,
F737,
FFD8,
F6F7,
012B,
016E,
E68B,
04D2,
078A,
F085,
03AA,
06DB,
0583,
F6F4,
0807,
0117,
03F4,
FB1A,
0242,
040A,
F929,
0289,
F2E8,
008A,
FBEC,
03CD,
F81B,
FADF,
0022,
040F,
05FD,
E552,
0519,
EC3C,
F86C,
090C,
FF4F,
0C5F,
FBA8,
04E3,
033D,
0142,
01C1,
FB87,
F64B,
FF5D,
0956,
04F1,
062E,
F2BE,
F742,
FBC9,
0262,
04A2,
FE93,
FB6E,
FC85,
FD65,
FA6B,
FB8F,
FBA5,
F191,
09ED,
0755,
F76E,
014A,
F4B0,
0291,
06DF,
084D,
009C,
F725,
0419,
E95E,
EC5C,
0415,
F2FF,
FACD,
FDB1,
F9E1,
FB26,
FE7C,
FE81,
F6C8,
02AF,
FF43,
0B34,
F3C8,
F528,
F0DB,
FCE8,
FF17,
000D,
FB07,
0062,
0000,
FAA7,
EFB9,
E740,
0769,
038C,
0341,
FECA,
0750,
09EE,
FBC4,
0030,
00AE,
F596,
F79F,
0128,
0277,
FE2C,
02D5,
04A7,
FA8D,
05A7,
0748,
0139,
0F23,
EA27,
0558,
0000,
0209,
FD5F,
0044,
0218,
E651,
0213,
FD70,
F46A,
F98E,
03D0,
0362,
FDF1,
0314,
041A,
EC52,
FCDA,
034A,
0275,
0401,
0341,
FED2,
023F,
FA14,
F795,
FE23,
079A,
FF34,
FDD5,
0425,
FB81,
0545,
00A1,
0A54,
FFD2,
040A,
0042,
EDB9,
08C7,
03AB,
0A39,
0188,
FC2D,
063C,
04EE,
04E8,
013D,
1000,
F30B,
024F,
F83D,
024F,
0009,
08AC,
F897,
FA91,
0313,
FEF4,
FA18,
FE92,
0703,
05BB,
F232,
018C,
F540,
F8AD,
FC78,
F9F2,
FD5A,
00AD,
FCE7,
F9B2,
F454,
F892,
0810,
08F2,
F120,
FE6F,
05A9,
FE82,
F68F,
0622,
FA2B,
077C,
F3A3,
FAD8,
02D0,
FF66,
F6BB,
FCB2,
0375,
0032,
1040,
030C,
F759,
FD85,
F2F3,
FF8A,
FFD5,
01A6,
011E,
F255,
FC11,
0268,
FEDA,
0479,
FD89,
044B,
F0F5,
FB8A,
05FF,
02A5,
FB91,
F544,
F3B2,
04C1,
0DB0,
;   output 50
0586,
FB72,
0155,
0D55,
0E81,
FD38,
0505,
F9CE,
0394,
F679,
F9EC,
0465,
F28F,
0192,
FF22,
FF34,
F9E3,
FD3F,
FD81,
0089,
F381,
FCA4,
F88B,
F9D9,
FCB8,
FD3E,
FAD3,
0695,
03C8,
0308,
03E0,
FB70,
FA43,
038D,
F553,
FA54,
004B,
051D,
0BE3,
FD6E,
E861,
030B,
0B96,
08DE,
046B,
FFFF,
0542,
F0B3,
0412,
0B24,
0E4F,
F79B,
FDA4,
FF7A,
F84F,
FF8A,
FDD2,
01FE,
0567,
040E,
FD24,
01BC,
0436,
FE4B,
FCDD,
02ED,
0628,
F626,
FF12,
F8FC,
0797,
F6FF,
F6B1,
E723,
FFC8,
1209,
F7BD,
0B3C,
FDF7,
07C7,
F911,
E45F,
E3BA,
00E2,
FC09,
0460,
FDB5,
DD17,
FF0D,
FF12,
F663,
077A,
FA03,
05BF,
FE0F,
F7CF,
F6DE,
01B7,
FAB7,
FE66,
FC97,
F6C1,
0BFD,
0897,
FCC5,
F7CF,
0F49,
072C,
0399,
0012,
FE92,
E1D6,
0492,
007D,
FCEA,
E831,
FBB5,
FFCB,
01A2,
F405,
FE8F,
FAD3,
FB72,
FC2B,
F110,
F014,
01E5,
F8BF,
00D8,
058D,
06FC,
FDEA,
02CF,
024D,
FFA0,
01DD,
0338,
FB52,
FB86,
09BA,
F553,
02CF,
01D1,
FFC6,
0910,
FE82,
F3C0,
FDBF,
0687,
F93C,
FB60,
F334,
02EB,
F573,
063D,
FD5E,
F706,
04EF,
05F0,
03A3,
FCB8,
013B,
010B,
08EF,
014F,
0422,
FA73,
FE9A,
FBDA,
0669,
0AC7,
03A2,
FFBE,
0000,
035D,
F654,
0475,
05A1,
03DB,
0389,
FD4F,
086D,
01B8,
F892,
0738,
01D0,
05F9,
02E3,
FB33,
F708,
FFF2,
0561,
0FBC,
F72A,
0898,
078B,
0675,
FEB9,
0472,
FD42,
FB4C,
0781,
FF4A,
1004,
FFD3,
0393,
0474,
FECD,
FB57,
FEEC,
089E,
FC96,
FC9A,
040F,
00AB,
F8AA,
081E,
F851,
041F,
FF99,
F637,
0C50,
035E,
09DC,
063B,
0643,
07B2,
085B,
0395,
FFB4,
FE25,
040C,
FFB7,
0355,
0D30,
1477,
0D43,
000E,
0998,
FEA0,
028A,
024C,
FF78,
FCE8,
FE41,
007D,
0040,
019E,
0427,
FF71,
FFE9,
019D,
02FB,
EFFD,
F8FA,
FF4A,
;   output 51
0443,
FE77,
0A61,
F299,
FDAC,
E84D,
0282,
FCA9,
F5B3,
042F,
0559,
02FC,
0962,
E378,
05F7,
FD5E,
07E4,
04ED,
01C6,
0738,
F234,
FE85,
FAD7,
F875,
03A0,
F23A,
FC6B,
FE9C,
F6FE,
F653,
0141,
058B,
FB17,
FD31,
0916,
FDFA,
F5A5,
0CB8,
0003,
F9D3,
0662,
F5E7,
07E1,
003A,
F596,
006D,
0652,
009E,
0977,
FCCA,
F4DA,
FA8E,
FD2B,
FD71,
FB82,
F658,
F716,
0256,
F7A0,
FC14,
DC4A,
0EE8,
F4C2,
FE94,
FB31,
FE63,
FF66,
F8F5,
F3B6,
FF3F,
01D0,
F908,
00C3,
0BA2,
FFDD,
F718,
F629,
FB01,
0143,
0688,
06C9,
F93B,
06DA,
006E,
009D,
0303,
06DA,
FD53,
02A1,
FD6D,
EE06,
FA88,
0AE1,
019A,
FE01,
01E5,
F9E9,
FE53,
0B24,
012B,
FCF4,
09C7,
F7FA,
080A,
FFC8,
02FF,
FB27,
04A0,
018A,
003D,
FE91,
FDE8,
FC78,
FBF1,
F602,
F14D,
FD82,
06A1,
FEB8,
F3A1,
FFDC,
0682,
0AEE,
0503,
FA7A,
0DB2,
0007,
0021,
E975,
FFB4,
FF19,
05C3,
0276,
F54C,
08C0,
FDF1,
02BD,
1200,
06AF,
FC6E,
0293,
F6EF,
043E,
F43C,
F694,
03EF,
FBB6,
080B,
FDED,
F5DB,
077E,
F4B7,
0190,
FC74,
FE21,
FBB9,
0E59,
FF7B,
F9F5,
08BE,
FB68,
F3CF,
FCEA,
FBF5,
FF80,
F5A0,
08DA,
FFCB,
0353,
F354,
F586,
FAC5,
FDBF,
0072,
E2C5,
F947,
FD28,
FE9C,
F5FA,
FE91,
0570,
08B2,
0711,
0362,
FBC9,
051F,
FA79,
0054,
F254,
092E,
045D,
01CB,
EC4C,
FAE2,
FB60,
FD57,
FB3F,
014B,
0930,
FCB0,
F7B3,
FDE2,
0535,
FCD7,
0160,
057D,
06BE,
054B,
FF84,
0800,
F2AD,
0569,
0555,
F958,
FF13,
FBA5,
F8E9,
038A,
058B,
F544,
F487,
02E0,
0195,
03D5,
08C0,
08BF,
00EB,
0529,
09EE,
F317,
0CD0,
F8BE,
0266,
FB8F,
0C06,
F9AE,
0794,
FFBA,
0AB2,
004C,
FEE5,
F710,
FD38,
05E3,
0044,
0F2C,
FF8B,
0678,
09AD,
08C0,
FD0B,
FBED,
FD3A,
0A83,
F7C3,
0473,
;   output 52
02D8,
045B,
0195,
08E5,
FFD3,
FF77,
0D41,
00F6,
071B,
02EE,
0554,
FD99,
044C,
FBE9,
0BE5,
FDF5,
FE67,
024B,
037F,
00E1,
018B,
FDAD,
FD7C,
F818,
FB47,
0170,
05B5,
FB04,
05F2,
06F7,
FA89,
FD38,
05D6,
FE60,
097D,
FB6C,
FF70,
F8DA,
FFC4,
0231,
09D7,
FD8B,
007C,
FBF0,
FA79,
0002,
FC17,
FC80,
08DC,
05C1,
00AA,
081B,
067A,
FF09,
F98F,
FE3B,
0366,
F3F4,
F2C6,
02FA,
FD7F,
FA81,
01DA,
FE62,
FC65,
0208,
08F4,
FFD4,
03C8,
FFF7,
EE08,
ECFD,
0B4E,
FB96,
FA54,
0341,
FD1A,
0612,
03A6,
00F8,
FE35,
0109,
F9C0,
032A,
FEF3,
083D,
00F1,
01A3,
00CF,
0531,
08A0,
F77E,
07F4,
0586,
FF34,
F175,
0343,
F48E,
0644,
FDCE,
FF36,
0306,
01B3,
F499,
FFE0,
FAB7,
FF9B,
0980,
F8CD,
FFFB,
F963,
033F,
F9BE,
09C8,
0917,
03B0,
071D,
05DB,
FC60,
02AC,
0625,
0499,
FA47,
00A3,
01A9,
F960,
0306,
08AC,
FA80,
0755,
1613,
02C4,
010B,
FD13,
0174,
FF58,
011C,
01E9,
0485,
FB4C,
FE4D,
03DE,
040D,
077D,
069F,
F1DD,
FE9D,
F125,
0126,
070A,
E825,
F510,
FC11,
FED5,
08B4,
055D,
00A6,
0555,
F8A0,
0563,
0D83,
FB59,
0077,
FC54,
FB62,
07A7,
FE03,
FA62,
FFFB,
0864,
FDB4,
0056,
F639,
0012,
FC67,
E5EC,
0F13,
0548,
FE91,
FAF9,
0256,
FC1A,
FF13,
F718,
ECCD,
FE7C,
F918,
0796,
00F2,
FFD7,
FE51,
EF35,
0E32,
FF78,
0511,
053A,
F8DA,
0562,
EB70,
EF80,
F6E9,
0595,
F592,
03CD,
EC4D,
03AE,
0460,
11F1,
F95D,
F4F0,
FBCA,
E97D,
043F,
0BD2,
FD24,
EF91,
F98B,
0897,
072B,
09D7,
FAB2,
F80C,
F4C1,
0483,
FACB,
04E0,
0B17,
0A0A,
F8D3,
02D1,
FFB6,
F98B,
FDBB,
011F,
F978,
F670,
F9F6,
000B,
0D74,
E7D9,
F8E8,
EEA3,
04B6,
F1B7,
03DD,
FDE6,
080F,
EFDE,
FC95,
FCFE,
EC0A,
0AA8,
0D4B,
F943,
FFDC,
E7EE,
;   output 53
0580,
0CD9,
01CC,
1693,
FD77,
027D,
090F,
F445,
0DB0,
00FB,
07ED,
FCA5,
0294,
0A74,
0109,
06DB,
FC20,
FB4A,
FF3B,
F888,
00C0,
FCD8,
03FC,
0627,
09DF,
06F6,
0A47,
0E40,
06E3,
023F,
051E,
02B6,
0B33,
F8A5,
07BF,
061B,
FE17,
FFAF,
FB86,
0483,
0834,
06F9,
03EC,
0387,
F946,
FFFB,
0591,
F66F,
02F9,
0402,
0E31,
0FC4,
0099,
FC6C,
F97B,
05BC,
07E7,
FF40,
0315,
009F,
0A88,
02BD,
153E,
FBDA,
FD90,
00D7,
029E,
073E,
F0C9,
05A5,
FDF5,
F808,
F705,
F954,
FC53,
FAD2,
F895,
FB58,
0C6A,
0AA0,
FF0B,
FB00,
00F6,
F76A,
0574,
FD6A,
FC72,
FFD8,
FD7A,
024B,
F6F0,
0B13,
F4D8,
059A,
FBC6,
0A56,
03E6,
FAD2,
0930,
022E,
FF07,
FBE9,
F52D,
F93D,
F54B,
FC7F,
FCF2,
FF3E,
FA39,
0004,
05A2,
FF7B,
F5E2,
0321,
042F,
F997,
0054,
020F,
F52C,
F3AD,
FF16,
F946,
FDE3,
FCB7,
FA93,
0425,
F2CD,
F92E,
F94D,
03FC,
F668,
FD0D,
FB7D,
FADA,
F936,
0647,
FEBD,
1858,
FCC5,
F71D,
FECD,
FD59,
024C,
F178,
0258,
FC90,
0371,
0CDC,
FD64,
036D,
FDF9,
0BF7,
FD44,
FAE2,
09DA,
FA49,
0306,
01BE,
FB00,
000B,
F486,
FC0B,
F462,
0D90,
06A3,
FBE7,
FF77,
09FC,
0185,
04F0,
F6AC,
F96C,
FE41,
001F,
F016,
0506,
F802,
F95F,
FB60,
FF3D,
FFA0,
F89B,
EF63,
0374,
08EE,
F73D,
0218,
F848,
FF81,
FEE0,
0378,
0D43,
00A1,
084F,
F04C,
0775,
EC44,
0935,
061F,
FF62,
F32B,
FE0A,
FDD7,
FD21,
EFBF,
0AB8,
025D,
F6DD,
0E05,
EB31,
F953,
04C8,
FA7C,
FC46,
0730,
F855,
04CD,
0216,
FCAD,
0730,
FFC1,
FE70,
0C1F,
0987,
F573,
007F,
0A83,
098E,
FDDB,
FE9E,
FE7E,
FAA6,
07AD,
06AC,
E52B,
FE3B,
0364,
0027,
0BA0,
F880,
0041,
E44E,
0195,
FA6C,
0553,
05E4,
09EE,
F7A8,
118C,
06B4,
F702,
FE43,
FF03,
0514,
FE5E,
11AE,
;   output 54
FF9F,
F4FD,
03F7,
F59F,
FE78,
08F9,
0073,
F0D9,
06DA,
FAF3,
0049,
067C,
F8F5,
0507,
004A,
FD4C,
FD55,
FB2A,
EFFC,
FA7D,
FB72,
F7C6,
F27C,
0430,
0450,
0680,
F824,
F84C,
0073,
079E,
003F,
F39D,
0853,
0243,
00A4,
FF75,
03ED,
F68D,
FDC8,
F968,
060E,
F7DD,
0536,
FACB,
0164,
FFF4,
FD8E,
FD60,
006E,
08C6,
F14A,
023C,
FE9A,
F734,
09D2,
001A,
F5EA,
ED3A,
FF96,
FD08,
03B1,
FAA5,
FB82,
F92B,
EED6,
E575,
0650,
E426,
FDAD,
FC31,
FA57,
F607,
03CD,
09C7,
01F2,
0005,
00F2,
03D2,
FE65,
01C4,
FEC9,
07A2,
E7C0,
F5BD,
FB31,
F6E9,
E643,
00DB,
FA09,
0A32,
F348,
FCC4,
EAB1,
FF4C,
F42C,
0035,
0885,
FB34,
E9A1,
FB07,
F193,
FD6F,
FF0E,
0253,
0343,
053A,
FE07,
F517,
036A,
FFFF,
FBB7,
F892,
FA74,
021C,
EB19,
FB35,
089F,
F7E2,
043F,
0382,
EC0D,
F730,
FC08,
F5CA,
F543,
FEC4,
ED66,
ED9B,
05E4,
0743,
020A,
FFC3,
0881,
0720,
01D6,
FE8B,
00DF,
06AD,
00E3,
FB6C,
0093,
0428,
05BF,
0632,
FF11,
F872,
0489,
01C5,
FCDD,
0BFD,
FD38,
090A,
ED6E,
06E8,
FE7D,
00E7,
F696,
FF3D,
FC5B,
FE64,
0196,
FF9A,
04D9,
021A,
08B9,
071F,
F9B2,
F2BE,
EF8C,
01E1,
091E,
083A,
FEF2,
FFDD,
F76A,
0380,
0758,
0324,
0927,
FF1C,
0B23,
FDC2,
F17A,
F98E,
FEC3,
067F,
F6D2,
025B,
FEAA,
FB71,
F5C0,
F791,
0644,
0847,
08F0,
05C6,
FA3F,
FFF4,
0461,
0026,
0701,
0A58,
0617,
00D2,
043B,
F070,
0B13,
FF31,
044A,
0729,
01D8,
052C,
FB66,
0783,
F351,
0676,
FEEC,
05D0,
F7BC,
0680,
02F8,
F9C5,
0464,
EFAA,
04C2,
00EE,
FD94,
FF87,
FEBE,
FE00,
F9BF,
08AB,
FF73,
FD45,
0731,
047F,
0098,
FFE7,
FDB9,
FF72,
07AF,
0011,
01B0,
0173,
FD08,
FDFA,
FEC0,
0710,
FF7F,
0121,
0255,
F94B,
FBFF,
EE1B,
0758,
05A6,
;   output 55
0376,
F904,
FD03,
EF20,
074F,
00B0,
F652,
012E,
0017,
FEA8,
F95D,
0022,
08FA,
00E8,
0455,
FDE9,
000F,
08E3,
FB47,
07CD,
041C,
02F6,
F642,
0034,
FE5B,
FCD6,
FA41,
07A5,
F6B4,
F8F7,
05FA,
FFEE,
024D,
FEA6,
FEA4,
0804,
FFFB,
05F4,
FB66,
F840,
F93B,
086C,
FB57,
FF33,
F7C5,
0025,
020F,
0019,
FB99,
FEE6,
F472,
0D17,
FE5B,
FD21,
FEB0,
05A4,
F6FA,
FF5C,
01A3,
0701,
F237,
FD5D,
EEA9,
FB1C,
FAD2,
F065,
0B0E,
E45E,
F1DB,
02DE,
FCFE,
FC33,
F81D,
FB05,
0292,
0090,
0294,
05DB,
F7BB,
FABE,
EF81,
06FC,
FA55,
FDA8,
FE71,
F9E3,
EF42,
FEA2,
0278,
0A91,
E164,
F339,
FC18,
FDE2,
EE6E,
10A2,
07DD,
0414,
FA53,
02CA,
F8C8,
FAA6,
02DD,
05D0,
00C5,
0F1E,
FFC7,
0406,
027B,
FFEC,
FAF3,
EDDF,
F1AA,
027D,
E542,
FDA4,
08E2,
F562,
06FB,
FF8A,
FC95,
FA20,
0A7F,
FFEE,
F412,
FB2C,
F263,
F950,
FEBF,
0899,
01F0,
FBE2,
FDBF,
0494,
F863,
FB51,
11A6,
030C,
FFC6,
F6BC,
0AFC,
036C,
0837,
FEF6,
FFE5,
02F3,
0A4E,
F954,
07BD,
0929,
FA1D,
FE4B,
F7DD,
0154,
0651,
01BE,
0529,
FB0E,
F0AA,
FC8F,
FD93,
FEC9,
FCD0,
0055,
F8E6,
03A7,
0847,
0036,
0014,
09D3,
F83A,
EF11,
F6F8,
0003,
FB9C,
FED0,
F1CF,
F945,
FD49,
0100,
011E,
08E4,
F870,
0976,
08AE,
FBB8,
F9B5,
07CB,
021D,
05F4,
FD9F,
F32F,
0867,
FBA9,
EDD9,
058C,
F64C,
0303,
002F,
ED1C,
F2A2,
001C,
0B26,
F66B,
FD49,
0A46,
0383,
FA95,
0561,
0115,
FF44,
FF78,
083C,
003F,
FEA2,
FC4D,
FD81,
FB34,
0888,
F3DB,
03C3,
0941,
F86F,
0269,
FBD3,
03C6,
03EA,
04D1,
0380,
E767,
0B39,
04EC,
04D2,
00D9,
EC45,
029A,
FBFB,
FFEA,
091A,
F7D5,
F4FD,
F984,
FAD6,
FA8A,
FE65,
0210,
04B8,
0657,
FE80,
07DD,
F8B4,
02A8,
0595,
FD92,
FE25,
F9BB,
;   output 56
F7DF,
071C,
0810,
0DE1,
FBF9,
F9B8,
FB71,
02D7,
F9EB,
0735,
FEB6,
F2AD,
FA09,
000A,
07B9,
FDDA,
007D,
03EC,
078C,
06DB,
F8D9,
04D2,
F267,
013E,
11E5,
15BF,
04E0,
0312,
FEB4,
EB2C,
0381,
ED36,
F1DF,
F119,
F019,
FD05,
0180,
E832,
0307,
F491,
FF22,
F9CF,
FE37,
0FEE,
F8BB,
0044,
E7AD,
01F3,
FA85,
F15E,
0653,
12EB,
07DD,
FDA8,
01D5,
0BBA,
0E37,
FCE6,
F8A1,
08A6,
F74E,
08E3,
1715,
01A0,
FDD1,
0019,
0355,
FE05,
05A8,
0026,
FDDD,
FB09,
0493,
0E37,
0261,
051D,
0049,
FB2E,
FF93,
EDF4,
0CA2,
FBB3,
0CE7,
0265,
F8EB,
FB99,
0425,
F9C5,
05B4,
FA01,
0522,
03A3,
FD07,
0B4E,
FC3F,
FD61,
0147,
06F4,
FE9D,
F96B,
04EF,
01C0,
E890,
F9F5,
054A,
0B6A,
F9AC,
FD2E,
F807,
00D1,
FA2A,
04C0,
0153,
FB17,
FB9F,
0442,
FD72,
057B,
FE25,
0190,
0904,
019A,
F273,
FD16,
03B5,
030D,
F03C,
FD48,
009F,
FAC8,
EB40,
02F1,
FEA2,
0245,
F0B4,
F707,
09E9,
F5C8,
FABE,
F05C,
FCE2,
FACF,
01CA,
09AD,
F4C2,
FC59,
005A,
027B,
FF42,
0C9F,
F8FB,
F381,
F6D6,
008E,
F726,
0655,
03DD,
F479,
FACB,
00C8,
F514,
03F2,
0058,
F422,
F49D,
FEDD,
FE41,
F2A4,
F83A,
F9D2,
F916,
0269,
F993,
0066,
027A,
F4AD,
FCA1,
F6A3,
0CEC,
08CC,
0746,
0682,
0DA8,
042B,
FCAE,
0541,
00B2,
FE28,
02B8,
FEFC,
FE12,
FCCD,
005B,
FF20,
06BE,
FB76,
FB19,
0530,
036E,
0DDA,
015B,
F924,
0108,
0305,
03D5,
005A,
04EE,
0566,
0323,
FF42,
FC86,
FFF4,
0C66,
FB52,
FFED,
FB60,
017F,
00CD,
FEEA,
0494,
0515,
0070,
04B1,
FCB8,
F40C,
0064,
F8FF,
02C9,
0019,
FDDD,
FC04,
0A1C,
FD8C,
0050,
0790,
0B90,
F822,
FFC0,
FF62,
051D,
EA88,
0716,
FF80,
FEED,
FA18,
04F5,
F807,
F988,
0706,
0223,
FE61,
08C0,
FFCB,
FB6C,
0218,
FC36,
;   output 57
063B,
FF15,
F49A,
02B1,
FB49,
0423,
03B0,
FD32,
FB50,
F77C,
07B3,
000B,
0B0F,
0BA3,
FFF1,
0146,
FFC4,
019C,
FF82,
F64B,
07CC,
FDBA,
F682,
FF79,
F870,
0574,
017D,
08DE,
FC54,
02C8,
FD1D,
02DB,
FAE5,
03A3,
00A4,
FDD2,
F75A,
03F5,
FFDC,
F9CF,
08A8,
FE52,
0176,
F286,
012C,
FFF0,
F997,
0004,
00C3,
ED3E,
FB3D,
01A3,
05C3,
FB3B,
0075,
0B39,
FA01,
04B6,
0050,
F7F9,
F8AA,
F997,
F9B1,
F831,
0433,
F9C9,
FE09,
FDBE,
FF09,
F769,
08C1,
0143,
04BB,
0629,
0410,
F5C9,
0279,
0381,
0019,
0469,
FBF8,
0826,
FEFF,
FF7E,
05B3,
F98C,
FA98,
FF21,
00AD,
07F3,
06CF,
000A,
0BD7,
0426,
F878,
0638,
007C,
0174,
05A0,
02D8,
013F,
0189,
0286,
01A0,
12B6,
06D7,
F355,
00A3,
051F,
FFFF,
02C2,
07BA,
069F,
00D4,
03CD,
0319,
0248,
FD0D,
003E,
0119,
F866,
0533,
074C,
FD65,
01F9,
0083,
02C8,
F589,
0082,
0A08,
F16B,
0611,
000E,
003B,
F122,
0128,
03F5,
0688,
F4F8,
F714,
082B,
F4B5,
F9C3,
FF47,
FD45,
07AA,
0023,
04AD,
EBCB,
0518,
F852,
EF50,
FC6E,
0133,
F91B,
08E9,
03C6,
EF30,
FC26,
F267,
FFA7,
F8D9,
EDB1,
F2C4,
00FE,
09E9,
FC11,
F521,
F0EC,
F90B,
D988,
FF7D,
DD45,
FFE7,
E966,
F36F,
FF51,
F3C8,
FBAD,
F9EE,
02C3,
FBBA,
E5EA,
FDDA,
02E7,
F787,
0029,
EFD7,
00EB,
F8BA,
0738,
FBED,
FC45,
006C,
01D5,
EF49,
FDA3,
15BF,
07C0,
F938,
0376,
F689,
03F1,
EFA6,
0B1C,
F220,
FAB3,
FE53,
FD70,
07F9,
0EEB,
0370,
FF32,
06A3,
FEA1,
06FC,
FE3C,
0D17,
FD2D,
FE2A,
04B2,
F7A9,
FD87,
F868,
03DC,
0668,
FFB3,
FC50,
FBEB,
FF4C,
FB89,
F9B0,
FE7B,
F0BE,
0357,
014D,
01BE,
0004,
07B6,
001A,
FD4A,
FD1B,
FE6E,
FD26,
F1DC,
F819,
F60D,
00E3,
FF5E,
02D1,
016C,
FFD4,
0B13,
F92B,
07B6,
F83D,
;   output 58
F64B,
0225,
F4BA,
096A,
E84B,
00B2,
008E,
FAAB,
FA6A,
057B,
0030,
F7F9,
FDB7,
F4A9,
FCF2,
0390,
022E,
03B1,
03B3,
0133,
0B33,
033F,
03CF,
FE3C,
FED5,
0000,
076E,
F7EA,
F71B,
FCF2,
FA3E,
0111,
01C1,
000B,
00A9,
0294,
0A42,
FD26,
F3E3,
FFE3,
FC2A,
FFF4,
EF7F,
FA2E,
FE10,
FFF3,
FF56,
00F6,
F35B,
ECB2,
FA15,
06FD,
048C,
0069,
0AEB,
FA77,
FEBA,
FE1E,
F3A8,
05D3,
F072,
FCEB,
06E2,
03CB,
033F,
F9A7,
F4DD,
FD59,
EF4D,
05DB,
FF89,
0542,
FE16,
020D,
FEDC,
F92E,
FBB8,
F71E,
F5AD,
0A7E,
F5FE,
FCC1,
F489,
FE5D,
055C,
07C1,
FFFA,
0289,
0335,
045C,
0587,
00BD,
FDDE,
F4F5,
F5DD,
0453,
026B,
0615,
04C1,
F9A5,
FAC7,
F78B,
FD39,
0764,
07F3,
FE0F,
00B5,
00FF,
0619,
000A,
FF3B,
FE1B,
F2B1,
0260,
022E,
03F9,
0AD8,
F470,
00DF,
FCED,
020E,
0661,
FCE6,
0AD1,
FBD6,
FF48,
FFF1,
FB84,
FBAE,
0555,
F49B,
0C14,
F063,
063F,
F61B,
0C3A,
F7B2,
FEC1,
010E,
017E,
F0C2,
F8E4,
05E4,
0742,
EF91,
F502,
0517,
F7B0,
05A5,
09BC,
FF07,
007C,
0B86,
0D9D,
0416,
0223,
0932,
F5FB,
FE6C,
00E4,
EF98,
0611,
FD66,
0133,
055B,
E552,
005D,
FC46,
FDEA,
F889,
F60A,
F05F,
EE77,
FFFC,
05A0,
00EE,
E548,
E1A6,
0569,
0661,
05C3,
0445,
01D0,
FC70,
FC37,
FE9B,
E430,
0376,
FC62,
FF88,
078C,
0C3C,
FF8C,
FEB2,
F331,
F930,
FA81,
07DE,
0236,
FB71,
FEA9,
0810,
0201,
EC84,
FCA8,
F9AD,
04AE,
03A0,
F59E,
002B,
FD31,
0487,
003A,
0610,
0300,
0864,
FF95,
FE0F,
0071,
0699,
F990,
F01D,
F325,
F850,
08A2,
015A,
0150,
FD11,
0427,
E8F9,
F651,
F7DA,
018A,
F74E,
FFA3,
067D,
FB50,
FFF8,
FF05,
06CF,
FF49,
0490,
03AE,
02E5,
EB6D,
FBE5,
025D,
FF6E,
02B6,
01AE,
FDE4,
01AB,
FA3A,
FC36,
FF0D,
02E5,
;   output 59
0621,
05B3,
094C,
FC9D,
003C,
F6B2,
FC67,
04EE,
FD8E,
F069,
0A3F,
0638,
FB4C,
FBE1,
EC2C,
F831,
F2E7,
127B,
EF43,
EF39,
0C80,
FC62,
09E4,
02CE,
F467,
FAD8,
FA9C,
022E,
F263,
0F64,
FB6D,
103D,
0931,
0907,
007D,
03A9,
E910,
0FCD,
085D,
00F9,
0175,
0838,
052B,
FC2D,
0627,
FFED,
0F29,
0558,
FD20,
02B7,
FCD0,
0BAC,
FC94,
F46C,
FBAF,
FB76,
FF51,
0237,
0909,
EF9C,
E45B,
F6DB,
FCDE,
0370,
0F4E,
088B,
FF4C,
F65F,
04B9,
F166,
01D6,
FFAA,
0C60,
FCFB,
FDB9,
0225,
0425,
EEF4,
DE75,
F2B9,
F888,
FA8C,
FE0E,
F4EE,
051E,
FE98,
0FBA,
00E4,
FFDD,
FBD5,
1A7F,
F0C6,
00E8,
FBE8,
0312,
FEA0,
F8A6,
0669,
017A,
008E,
EB98,
0B0D,
0AF9,
0665,
FB5F,
02C2,
F6C5,
03EC,
059A,
FFFE,
0CE4,
0C6A,
15F2,
0272,
EEEC,
FC3C,
FC13,
FB49,
FAA4,
F259,
0B65,
0621,
071C,
0368,
FF4C,
0291,
FBDB,
F638,
080C,
F9E4,
0E92,
0866,
0333,
07B3,
FF2D,
FE2B,
0355,
0A2C,
067C,
FBD1,
030D,
004F,
0946,
FBB8,
F7B2,
FCE6,
FD53,
F629,
04B1,
05FC,
027E,
FFA3,
0991,
FDCA,
FD6C,
012E,
04FF,
0574,
042E,
0676,
FF1F,
FEE0,
0265,
FF4C,
FC72,
04CB,
067A,
007A,
05FF,
06D6,
04C1,
FF8F,
0080,
0017,
0221,
FEF9,
FAB3,
FB85,
03F9,
FCB4,
0428,
018E,
FAD6,
0596,
FB33,
FEDE,
002E,
FA00,
0251,
F93E,
0500,
FC96,
09B2,
02D1,
FD4F,
0281,
007D,
097A,
0215,
06C2,
FE6B,
FE32,
FD0D,
FE3D,
0308,
FC49,
0BA2,
0421,
0269,
F851,
FB1F,
056E,
00C1,
0299,
0C70,
02EA,
051D,
FC89,
00BE,
088F,
0322,
FBE5,
08DA,
0663,
FEDC,
06F3,
0125,
0707,
001A,
01B7,
021C,
05E6,
0A1E,
0220,
F541,
081C,
FEEE,
FFF4,
05B5,
00A6,
FC80,
F8AF,
013F,
FE36,
0190,
0189,
036F,
FE31,
04CC,
06E3,
0234,
030E,
FF10,
04D7,
0382,
FFCD,
;   output 60
01FA,
FB31,
FD3E,
06C8,
00F9,
021F,
F9F4,
F656,
F819,
FF40,
0181,
F73B,
FCEE,
FF21,
FD85,
F3C2,
FFE4,
FED5,
FAF5,
0199,
0065,
027E,
00DE,
0468,
F921,
00DE,
0146,
04CB,
FAC4,
F422,
F986,
0D23,
FEAB,
005B,
06C9,
01EA,
048A,
02F4,
EF44,
028D,
003A,
FE3B,
FC20,
FE3A,
015C,
FFF8,
FFF7,
01B3,
0255,
FB91,
F711,
EF91,
0544,
02F3,
EF78,
FE9D,
FE82,
07AD,
09C5,
F04D,
FF86,
04E3,
EADA,
0985,
F915,
09BB,
06B6,
FC39,
EF9B,
F8C9,
F7A5,
EA51,
EF0A,
F8B3,
E049,
0822,
F26D,
044B,
FA0D,
F68E,
0014,
FFD0,
F3CC,
F79A,
FC69,
FE71,
F843,
02CD,
0240,
08BF,
0038,
00FB,
03C7,
00AF,
0104,
10A8,
074B,
0639,
085C,
01EF,
FC4A,
FEAB,
EF39,
0455,
F12A,
0307,
F743,
FBC3,
FF25,
0024,
0722,
F9D8,
FD7D,
00CA,
0579,
F38D,
105E,
F809,
0040,
FF6B,
FFE5,
FD5F,
FE21,
FC53,
EA2E,
FFCC,
DAEE,
00CD,
04C9,
0543,
0624,
FABF,
089D,
01E2,
0062,
FE00,
FD7A,
07D6,
01DA,
FFCB,
00A1,
01AE,
FB7F,
F074,
00BE,
F324,
EA2D,
0325,
000F,
FE35,
0425,
02CE,
FF06,
FEB5,
04CE,
FAEB,
FA56,
FE63,
000F,
0066,
0616,
FC57,
FE3D,
0C4D,
FCDE,
FB49,
0416,
FD3F,
0330,
080D,
07A6,
0844,
047F,
FFF8,
0473,
F964,
FA9C,
FBCF,
FC4B,
015C,
F6F4,
0299,
01F3,
0581,
0235,
023B,
FF9F,
FED6,
FD63,
08A3,
F66C,
07EC,
F018,
F229,
F9C2,
FBFA,
0A5D,
F065,
005B,
F2B0,
049E,
F8CF,
F092,
0313,
003D,
05F4,
F32A,
FB3B,
F1F5,
0288,
016C,
007A,
FB48,
FA53,
0534,
0094,
00E8,
F3DC,
09F0,
03E8,
02F1,
02C4,
0A9C,
0506,
03A8,
0114,
0609,
04B7,
FEA4,
F935,
07F8,
FD09,
0227,
0860,
09A0,
07D1,
0C58,
FFF8,
FD09,
040B,
FAEA,
FFE5,
0C97,
FCCA,
FB23,
1648,
F72B,
FE75,
0C5C,
05B9,
04C1,
FE36,
FE28,
0433,
EF00,
039C,
;   output 61
F656,
0745,
092D,
FF70,
0901,
FDA1,
F56E,
F974,
02AD,
0093,
01B0,
FC9A,
F9B8,
F9FA,
0608,
FDB8,
014B,
013C,
038F,
F8F2,
07AC,
0297,
F86A,
07A9,
06AE,
0201,
FAFE,
1336,
02BE,
FB0F,
FEA7,
FBF5,
FB4B,
FC02,
068B,
022E,
F97B,
0322,
FF91,
FB6A,
F541,
0501,
09C1,
025B,
0380,
003C,
FF9F,
FAF9,
00CD,
02FC,
FD55,
0C82,
0502,
0974,
075D,
0525,
EFCF,
F9FC,
0265,
0186,
E7CC,
FD07,
F86A,
F545,
01C8,
FAE0,
FBCA,
F0C6,
F9D1,
F2CC,
0EF5,
0AF3,
043A,
0E65,
F220,
FF1D,
FAC8,
F715,
0183,
F50A,
0B54,
0481,
022B,
FFA6,
0078,
ECC1,
0459,
03D0,
F083,
E412,
01AC,
F8B7,
0547,
F1D3,
FB6E,
05B0,
031E,
F0BD,
FF02,
0342,
F1C1,
09B4,
0A74,
121D,
E876,
0549,
F633,
02AD,
09F0,
005E,
FB82,
0A8F,
08E2,
FE68,
EC25,
07F2,
F0E2,
ED8A,
DBC4,
FC7A,
F4ED,
FDBC,
0711,
F6DF,
00C8,
049C,
10F5,
F543,
03CE,
FD74,
02B7,
0491,
084C,
07BE,
FDB8,
0083,
FF61,
0CD7,
FBDB,
03ED,
0A57,
FDF6,
FA04,
F22F,
02B1,
046B,
0246,
0305,
0852,
0180,
FB73,
FCC0,
02DA,
08E7,
FF5A,
083D,
0A2E,
FFE4,
008F,
FA25,
FFD5,
F044,
02A7,
FC86,
0126,
095F,
FF80,
068B,
02A1,
0194,
0339,
0AC9,
0241,
0005,
F491,
F436,
08EA,
F6CE,
021F,
FFAC,
FDA8,
0844,
F7D9,
05CB,
02CF,
0B95,
0332,
FE02,
0C69,
FED6,
09CB,
FD03,
F58E,
046B,
FDF1,
024E,
FB6F,
FF21,
F60A,
05C9,
001A,
0167,
F150,
04EC,
F964,
FEF7,
0EEA,
F322,
FEE8,
063E,
F5C5,
FFF3,
F7A7,
FBE0,
FF30,
F803,
FD3D,
0405,
01E7,
0679,
0260,
05A1,
FD4C,
FC0C,
0458,
F6E8,
FC38,
FB53,
00B5,
FED7,
0348,
FF88,
FB77,
008D,
02CD,
0232,
03DE,
0016,
0110,
0690,
091A,
F60E,
FC66,
FF2E,
FE7B,
01B6,
00B6,
FE4F,
FA12,
FB2F,
FD96,
016A,
04BC,
03DF,
0727,
FE15,
;   output 62
FCBB,
FEC6,
FFDC,
FFDE,
FE5B,
019A,
0743,
FE48,
FE4A,
0249,
FCFF,
0B80,
FD6C,
F44E,
05BF,
F8AF,
05E2,
F911,
0719,
00AD,
03B1,
F019,
06B0,
04A5,
FE0C,
F79E,
FE99,
02BA,
F802,
0E1A,
FB4C,
068D,
FFA6,
F87E,
F8DF,
03DE,
031E,
0780,
0055,
07B5,
024F,
075C,
05C6,
F712,
F860,
FFF6,
017C,
01B9,
FD54,
FD29,
F4FE,
0E2A,
F46E,
0068,
06AA,
019A,
023F,
0313,
0069,
03E3,
08DE,
0498,
F77A,
FF95,
0054,
EFCE,
FB64,
082A,
06A7,
0686,
045E,
06B0,
058F,
011C,
FD73,
00EC,
04AB,
F996,
0598,
02C1,
00DD,
03A7,
0783,
0654,
026C,
F24D,
04BD,
084E,
FEC9,
FB73,
0247,
02C9,
013F,
F2BD,
0540,
08BE,
00BB,
F6A2,
0155,
0655,
00C3,
0587,
03F4,
0524,
0B0C,
077F,
02C1,
FE43,
0889,
FFF1,
FF30,
0497,
F72A,
FB81,
0DCF,
FD50,
F9C0,
0874,
007C,
FE67,
FF31,
04B9,
0022,
F98B,
002E,
00BB,
0669,
0500,
01A7,
0351,
E071,
F783,
FAD5,
0294,
FFC5,
FCED,
FCC7,
F574,
0D55,
F611,
05E9,
0094,
0743,
0C33,
DB42,
F7A4,
F8F0,
E2F5,
0E6F,
0B14,
FF78,
FE5B,
F6C9,
1258,
FFF0,
0504,
E7F8,
FA44,
E63F,
F35D,
0817,
00ED,
FB1E,
FCFA,
EFE4,
F3B3,
04EA,
F6C1,
07B2,
F9FB,
FDF4,
03B2,
F98A,
0000,
0669,
FA6D,
FD77,
EE42,
05EE,
F453,
FE59,
FAC9,
0B8B,
030B,
FC08,
FEE0,
FFC2,
034D,
04D0,
F69A,
00AA,
FE53,
04B2,
0633,
FAAB,
0609,
FBB9,
F9FC,
FDCE,
F980,
010F,
F8B9,
FC83,
0259,
02F3,
FCAA,
F559,
FBB0,
F4F5,
05C1,
FABC,
FAEE,
F93F,
F789,
EFEA,
00F0,
FB07,
09DA,
01CE,
033D,
04A5,
0512,
010F,
FB36,
084B,
0317,
0426,
E7A6,
F3B0,
EDDF,
0C8A,
FE61,
F8D6,
0476,
02BE,
0278,
0A6B,
0006,
010F,
FDE2,
0062,
0007,
0B07,
FC8A,
0614,
02F2,
FDDF,
02B1,
FDC7,
0128,
FD10,
EEF4,
FC28,
F47B,
FE86,
FFE9,
;   output 63
015F,
05A1,
05E4,
03E2,
007A,
003E,
EC5F,
FFB6,
02F8,
0041,
08C8,
F985,
E563,
0078,
00FF,
07EB,
032C,
FFE1,
013A,
F32A,
FE83,
0824,
F863,
EED7,
F5C1,
0069,
01F3,
FDFB,
01D6,
FAF7,
F54B,
04E5,
F9C9,
0080,
FFA8,
0133,
0293,
0041,
F943,
FC23,
025D,
0DFE,
F767,
EA7C,
EF13,
0000,
04FC,
EE3A,
04AA,
F3CC,
0742,
F7D0,
0654,
FFA5,
03EA,
E8BE,
F9F0,
FDC1,
F689,
0227,
FF72,
052D,
FE1B,
F548,
F768,
FB5E,
F89F,
05BD,
EB4C,
FE4C,
FD86,
F76C,
098E,
F9DF,
05DC,
F4A3,
EB2B,
FE4B,
02CE,
04CF,
FDE1,
F6A5,
06C7,
F515,
FFB8,
052B,
EDA8,
ED0F,
FD9B,
07C1,
0933,
07A2,
0987,
F7D6,
F550,
FF7D,
FAE4,
0038,
03D3,
F91D,
01F4,
0347,
FA31,
FAAB,
FBB6,
FA8B,
F061,
F820,
E6E3,
0002,
006F,
F63B,
052A,
E365,
02F7,
F8A7,
0590,
FAAA,
0897,
E9BB,
FC9E,
013C,
E3F3,
05A0,
F0AF,
FD87,
044C,
F805,
FFF9,
0769,
0781,
FCC1,
FC0D,
03D0,
010D,
025D,
0662,
03E6,
0279,
02D8,
0074,
FE51,
046A,
01B9,
01C7,
0669,
018E,
0484,
015E,
0AD9,
FE55,
F9F8,
015F,
04D3,
FD51,
0618,
FC47,
FE8B,
0815,
043C,
FD16,
0E20,
002D,
FEAC,
0600,
0BFC,
F739,
FF4B,
FCA5,
FF24,
FD11,
007E,
FD26,
0000,
0B8E,
F951,
0353,
00AD,
F2B4,
0242,
01B7,
FC04,
0A5E,
037D,
08B3,
03A8,
06D0,
FF2C,
04F9,
FC54,
04B8,
0A01,
FB99,
0187,
07E1,
FF60,
FCEF,
0C7A,
F999,
002D,
0187,
0C4F,
F5E3,
05AD,
0136,
FAEB,
09F1,
02BC,
F752,
0941,
08D9,
0545,
0179,
090C,
0518,
FBC6,
055B,
0379,
011F,
F909,
0273,
0839,
FFBD,
033F,
06D8,
14E8,
0424,
0333,
088E,
0223,
F960,
FC3E,
048E,
0929,
03E3,
018D,
F483,
0004,
FF5B,
FDE6,
FE78,
04DD,
F3A7,
07EC,
013E,
FE9A,
00A5,
054B,
0496,
FEAD,
F807,
024A,
FDA6,
F8F7,
0222,
FE84,
;   output 64
FAE9,
0628,
015B,
0507,
EDCC,
0A5D,
FA0B,
FB95,
F33B,
01AA,
0AEF,
0812,
0326,
FD60,
0754,
0945,
F44E,
029C,
0602,
FEF9,
00C1,
FE78,
F16F,
0267,
FE4C,
05D8,
FFEB,
041A,
FE69,
FA97,
EAD6,
0986,
04A8,
08AF,
0B69,
00A7,
0084,
FAAE,
F6D5,
FD95,
03F6,
F186,
050F,
EF29,
FB01,
FFE7,
F5C8,
03C3,
F135,
EBE6,
022A,
076E,
0211,
04F4,
05C3,
01A8,
F9E9,
FF43,
F951,
10BE,
0036,
0431,
076D,
FBDB,
F4AC,
FA92,
F6CE,
FBCF,
EB91,
06C5,
04E1,
F79C,
07EF,
0D81,
06F5,
EF72,
05C9,
0822,
015F,
0391,
0B71,
0A75,
FEEA,
04CE,
F8D9,
FFE5,
F3AB,
0947,
01AC,
019B,
F690,
0449,
0132,
FDA9,
F15B,
0BBE,
0499,
010F,
05CC,
